<pad>	0
<unk>	0
[CLS]	0
[SEP]	0
[MASK]	0
▁이	-0
▁.	-1
▁다	-2
▁에	-3
▁는	-4
▁을	-5
▁의	-6
▁하	-7
▁가	-8
▁은	-9
▁한	-10
▁를	-11
▁고	-12
▁지	-13
▁기	-14
▁으	-15
▁대	-16
▁있	-17
▁으로	-18
▁도	-19
▁1	-20
▁했	-21
▁인	-22
▁시	-23
▁사	-24
▁수	-25
▁로	-26
▁일	-27
▁에서	-28
▁과	-29
▁전	-30
▁2	-31
▁들	-32
▁해	-33
▁것	-34
▁보	-35
▁등	-36
▁적	-37
▁아	-38
▁주	-39
▁부	-40
▁정	-41
▁자	-42
▁만	-43
▁라	-44
▁어	-45
▁위	-46
▁중	-47
▁와	-48
▁제	-49
▁경	-50
▁개	-51
▁그	-52
▁공	-53
▁게	-54
▁할	-55
▁3	-56
▁나	-57
▁상	-58
▁면	-59
▁원	-60
▁관	-61
▁된	-62
▁국	-63
▁조	-64
▁되	-65
▁성	-66
▁년	-67
▁내	-68
▁여	-69
00	-70
▁연	-71
▁오	-72
▁비	-73
▁다고	-74
▁서	-75
▁유	-76
▁한다	-77
▁모	-78
▁소	-79
▁미	-80
니다	-81
▁5	-82
▁신	-83
▁통	-84
▁마	-85
▁4	-86
▁선	-87
▁최	-88
▁명	-89
▁방	-90
▁발	-91
▁분	-92
▁세	-93
▁%	-94
▁월	-95
▁현	-96
▁구	-97
▁회	-98
▁예	-99
▁교	-100
▁말	-101
▁차	-102
▁장	-103
▁강	-104
▁동	-105
▁우	-106
▁계	-107
▁지난	-108
▁실	-109
▁화	-110
▁않	-111
▁까	-112
▁었	-113
▁스	-114
▁까지	-115
▁안	-116
▁습	-117
▁6	-118
▁거	-119
▁생	-120
▁영	-121
▁라고	-122
▁진	-123
▁문	-124
▁습니다	-125
▁당	-126
▁때	-127
▁없	-128
▁따	-129
▁무	-130
▁단	-131
▁바	-132
▁매	-133
▁됐	-134
▁재	-135
▁특	-136
▁받	-137
▁7	-138
▁밝	-139
▁결	-140
▁입	-141
▁노	-142
▁추	-143
▁건	-144
▁달	-145
▁올	-146
▁불	-147
▁확	-148
▁된다	-149
▁반	-150
▁며	-151
▁8	-152
▁또	-153
▁대한	-154
▁업	-155
▁다는	-156
▁억	-157
▁던	-158
▁설	-159
▁증	-160
▁9	-161
▁평	-162
▁부터	-163
▁지만	-164
▁한국	-165
▁감	-166
▁겠	-167
▁위해	-168
▁더	-169
▁밝혔	-170
▁포	-171
▁20	-172
▁면서	-173
▁시장	-174
▁에게	-175
▁김	-176
▁투	-177
▁지역	-178
▁출	-179
▁200	-180
▁10	-181
▁간	-182
▁금	-183
▁함	-184
▁배	-185
▁행	-186
▁학	-187
▁외	-188
▁후	-189
▁산	-190
▁남	-191
▁운	-192
▁물	-193
▁협	-194
▁사업	-195
▁요	-196
▁권	-197
▁총	-198
▁처	-199
▁았	-200
▁통해	-201
▁열	-202
▁판	-203
▁점	-204
▁파	-205
▁많	-206
▁및	-207
▁같	-208
▁미국	-209
▁될	-210
▁환	-211
▁참	-212
▁작	-213
▁정부	-214
▁프	-215
▁천	-216
▁보다	-217
▁이번	-218
▁알	-219
▁높	-220
▁데	-221
▁치	-222
▁서울	-223
▁대해	-224
▁활	-225
▁경우	-226
▁초	-227
▁피	-228
▁직	-229
▁기업	-230
▁관계	-231
▁때문	-232
▁각	-233
▁중국	-234
▁역	-235
▁체	-236
▁청	-237
▁종	-238
▁다며	-239
▁라는	-240
▁북	-241
▁우리	-242
▁앞	-243
▁양	-244
▁법	-245
▁규	-246
▁연구	-247
▁형	-248
▁호	-249
▁저	-250
▁개발	-251
▁본	-252
▁집	-253
▁돼	-254
▁문제	-255
▁검	-256
▁씨	-257
▁가능	-258
▁두	-259
▁임	-260
▁따라	-261
▁심	-262
▁관련	-263
▁새	-264
▁계획	-265
▁박	-266
▁이상	-267
▁국내	-268
▁합	-269
▁함께	-270
▁민	-271
▁목	-272
▁필	-273
▁지원	-274
비스	-275
▁19	-276
▁세계	-277
▁서비스	-278
▁변	-279
▁아니	-280
▁지난해	-281
▁크	-282
▁코	-283
▁위원	-284
▁용	-285
▁약	-286
▁현재	-287
▁기술	-288
▁도록	-289
▁리	-290
▁위한	-291
▁복	-292
▁경제	-293
▁카	-294
▁음	-295
통령	-296
▁일본	-297
▁투자	-298
▁타	-299
▁사람	-300
▁못	-301
▁광	-302
▁대표	-303
▁삼	-304
▁대통령	-305
▁최근	-306
▁12	-307
▁업체	-308
▁온	-309
▁사용	-310
▁줄	-311
▁관계자	-312
▁예정	-313
▁11	-314
▁30	-315
▁S	-316
▁충	-317
▁한다고	-318
▁특히	-319
▁올해	-320
▁식	-321
▁농	-322
▁맞	-323
▁뒤	-324
000	-325
▁정보	-326
▁조사	-327
▁판매	-328
▁이나	-329
▁채	-330
▁디	-331
▁이날	-332
▁번	-333
▁군	-334
▁해야	-335
▁급	-336
▁병	-337
▁그러	-338
▁순	-339
▁살	-340
▁사회	-341
▁전문	-342
▁측	-343
▁교육	-344
▁늘	-345
▁시간	-346
▁가장	-347
▁담	-348
▁진행	-349
▁제품	-350
▁201	-351
▁표	-352
▁대상	-353
▁~	-354
▁취	-355
▁별	-356
▁독	-357
▁이용	-358
▁이후	-359
▁토	-360
▁브	-361
▁결과	-362
▁곳	-363
▁게임	-364
▁속	-365
▁드	-366
▁시작	-367
▁준	-368
▁메	-369
▁15	-370
▁따르	-371
▁필요	-372
▁프로	-373
▁관리	-374
▁는데	-375
▁트	-376
▁라며	-377
▁질	-378
▁좋	-379
▁아이	-380
▁설명	-381
▁편	-382
▁야	-383
▁경기	-384
▁갖	-385
▁논	-386
▁효	-387
▁폭	-388
▁현대	-389
▁나타	-390
▁언	-391
▁큰	-392
▁가격	-393
▁백	-394
운데	-395
▁손	-396
▁절	-397
▁전망	-398
▁엔	-399
▁그러나	-400
▁가운데	-401
▁제공	-402
▁으며	-403
▁창	-404
▁자동	-405
▁규모	-406
▁테	-407
▁지방	-408
▁증가	-409
▁기관	-410
▁문화	-411
▁산업	-412
▁근	-413
▁돌	-414
▁국가	-415
▁태	-416
▁국민	-417
▁사이	-418
▁항	-419
▁정도	-420
▁북한	-421
▁0	-422
▁다양	-423
▁상황	-424
▁C	-425
▁모두	-426
▁m	-427
▁추진	-428
▁운영	-429
▁발표	-430
▁환경	-431
▁달러	-432
▁완	-433
▁정책	-434
▁의원	-435
▁하나	-436
▁네	-437
▁낮	-438
▁L	-439
▁접	-440
▁대학	-441
▁다른	-442
▁센	-443
▁예상	-444
레이	-445
▁인터	-446
▁향	-447
▁I	-448
시아	-449
▁평가	-450
▁국제	-451
▁넘	-452
▁발생	-453
면서	-454
▁회사	-455
▁날	-456
▁행사	-457
▁찾	-458
▁기록	-459
스트	-460
▁였	-461
▁전국	-462
▁이어	-463
▁입니다	-464
▁활동	-465
▁한편	-466
▁고객	-467
▁눈	-468
▁베	-469
▁삼성	-470
▁최고	-471
▁책	-472
▁버	-473
▁만들	-474
▁뉴	-475
▁A	-476
으며	-477
▁승	-478
▁참여	-479
▁금융	-480
▁걸	-481
▁플	-482
▁느	-483
▁확대	-484
랜드	-485
▁시스	-486
▁애	-487
▁벌	-488
▁자동차	-489
▁축	-490
▁는다	-491
▁마련	-492
▁철	-493
▁허	-494
▁도시	-495
▁통신	-496
▁수준	-497
▁사실	-498
▁25	-499
▁13	-500
▁홍	-501
▁자신	-502
지만	-503
▁거나	-504
▁성장	-505
▁잘	-506
▁시스템	-507
▁상승	-508
▁분석	-509
▁교수	-510
▁한다는	-511
▁팀	-512
▁경쟁	-513
▁알려	-514
▁위원회	-515
▁동안	-516
▁14	-517
▁18	-518
▁키	-519
▁오후	-520
▁핵	-521
인다	-522
▁생각	-523
▁소비	-524
▁커	-525
▁여성	-526
▁생산	-527
▁주장	-528
▁하지만	-529
▁새로	-530
▁실시	-531
▁센터	-532
▁휴	-533
▁16	-534
▁기간	-535
▁보이	-536
▁지적	-537
▁방송	-538
리아	-539
▁들어	-540
▁일부	-541
▁100	-542
▁누	-543
▁기대	-544
▁병원	-545
▁기준	-546
▁과정	-547
▁결정	-548
▁최대	-549
▁강화	-550
▁확인	-551
▁시설	-552
▁은행	-553
▁회장	-554
▁건설	-555
▁M	-556
▁이미	-557
▁려	-558
▁내용	-559
▁글	-560
▁거래	-561
▁단체	-562
▁길	-563
▁50	-564
▁경찰	-565
▁처럼	-566
▁상품	-567
▁강조	-568
▁장관	-569
▁다음	-570
▁경영	-571
▁K	-572
▁회의	-573
▁17	-574
▁뿐	-575
▁공개	-576
▁힘	-577
▁볼	-578
▁학교	-579
▁G	-580
▁패	-581
▁인터넷	-582
▁다시	-583
▁지금	-584
▁효과	-585
▁기자	-586
▁가지	-587
▁클	-588
▁보도	-589
▁치료	-590
▁포함	-591
▁해외	-592
▁기존	-593
▁중심	-594
▁P	-595
▁개선	-596
▁친	-597
▁전체	-598
▁기능	-599
▁외국	-600
▁피해	-601
▁내년	-602
▁∼	-603
▁분야	-604
▁열린	-605
▁영향	-606
부터	-607
▁니	-608
▁출시	-609
▁T	-610
▁왔	-611
▁떨	-612
▁매출	-613
▁률	-614
▁추가	-615
▁건강	-616
▁제주	-617
▁상태	-618
▁대비	-619
▁요구	-620
▁차량	-621
▁구성	-622
▁밖	-623
▁환자	-624
▁공동	-625
▁모든	-626
▁24	-627
▁만큼	-628
▁모델	-629
▁입장	-630
▁새로운	-631
▁처음	-632
▁적용	-633
▁정치	-634
▁각각	-635
▁의료	-636
▁주민	-637
▁관심	-638
▁비롯	-639
▁21	-640
▁D	-641
▁이런	-642
▁방문	-643
▁안전	-644
▁후보	-645
▁오전	-646
▁분기	-647
▁나라	-648
▁막	-649
▁보험	-650
▁빠	-651
▁레	-652
▁떨어	-653
▁또한	-654
▁직접	-655
▁k	-656
▁주요	-657
▁잡	-658
▁주택	-659
▁중요	-660
▁부산	-661
▁발전	-662
▁40	-663
▁그리	-664
그램	-665
▁생활	-666
▁활용	-667
▁율	-668
라인	-669
▁지속	-670
▁폐	-671
▁시민	-672
▁극	-673
▁얼	-674
▁갈	-675
▁전략	-676
전자	-677
▁프로그램	-678
▁증권	-679
▁일반	-680
▁브랜드	-681
▁첫	-682
▁보인다	-683
▁시키	-684
▁블	-685
▁운동	-686
▁계속	-687
▁러	-688
▁골	-689
▁22	-690
▁자리	-691
페이	-692
▁어려	-693
▁개인	-694
▁그룹	-695
▁유지	-696
▁업계	-697
▁콘	-698
▁과학	-699
▁교회	-700
▁제도	-701
▁악	-702
▁터	-703
▁쓰	-704
▁방안	-705
▁23	-706
▁협력	-707
▁언론	-708
▁이유	-709
▁늘어	-710
▁홈	-711
▁LG	-712
▁더욱	-713
▁공급	-714
▁개월	-715
▁침	-716
▁범	-717
▁대회	-718
▁오늘	-719
▁많이	-720
▁놓	-721
▁째	-722
▁국회	-723
▁석	-724
▁물론	-725
▁전했	-726
▁수출	-727
▁관광	-728
▁기온	-729
▁선정	-730
▁정상	-731
▁당시	-732
▁ᆞ	-733
▁난	-734
▁황	-735
▁비해	-736
▁대부	-737
▁준비	-738
▁학생	-739
▁다면서	-740
▁우려	-741
▁사장	-742
▁다가	-743
▁나타났	-744
▁행정	-745
▁전자	-746
▁따른	-747
▁끝	-748
▁소비자	-749
▁조정	-750
▁중앙	-751
▁응	-752
▁먼	-753
▁27	-754
▁육	-755
▁전문가	-756
▁이뤄	-757
▁영업	-758
▁아파	-759
▁품	-760
▁적극	-761
▁확보	-762
▁설치	-763
▁이사	-764
▁머	-765
▁28	-766
▁없이	-767
▁탄	-768
마트	-769
▁26	-770
▁탈	-771
▁B	-772
▁모습	-773
▁구조	-774
▁사고	-775
▁특별	-776
▁참석	-777
▁대부분	-778
▁캐	-779
▁사건	-780
▁방식	-781
▁개최	-782
▁?	-783
▁대책	-784
▁아파트	-785
▁먹	-786
▁방침	-787
▁선거	-788
▁부담	-789
▁하락	-790
▁대해서	-791
▁변화	-792
▁층	-793
▁보호	-794
대로	-795
▁선보	-796
▁성공	-797
▁팔	-798
나라	-799
▁케	-800
▁인사	-801
▁전시	-802
이트	-803
▁계약	-804
▁업무	-805
▁의견	-806
▁실제	-807
▁으면	-808
▁수익	-809
▁공연	-810
▁봉	-811
▁부문	-812
▁란	-813
▁실적	-814
▁긴	-815
▁자금	-816
▁시행	-817
▁안정	-818
▁도입	-819
▁희	-820
▁공사	-821
▁노력	-822
▁온라인	-823
▁송	-824
▁지난달	-825
▁가족	-826
▁방법	-827
▁디자	-828
▁스타	-829
▁해서	-830
▁수입	-831
▁민주	-832
▁협의	-833
▁못하	-834
▁29	-835
▁대구	-836
▁역시	-837
▁총리	-838
▁가구	-839
▁바이	-840
▁조치	-841
▁몰	-842
▁해당	-843
▁밀	-844
반기	-845
▁유럽	-846
이터	-847
다고	-848
▁존	-849
▁컨	-850
▁협상	-851
▁이익	-852
으나	-853
▁즐	-854
▁어서	-855
▁감소	-856
▁복지	-857
▁평균	-858
▁비용	-859
▁사진	-860
▁울	-861
▁얻	-862
▁직원	-863
▁아직	-864
▁덧	-865
▁잠	-866
▁장애	-867
▁여러	-868
▁쇼	-869
▁분양	-870
▁통합	-871
▁부분	-872
▁작업	-873
▁어린	-874
▁했으며	-875
▁사랑	-876
▁회담	-877
▁현지	-878
▁교통	-879
▁풀	-880
▁풍	-881
▁티	-882
▁처리	-883
▁지수	-884
▁인상	-885
▁보여	-886
▁작품	-887
▁목표	-888
▁도로	-889
▁책임	-890
붙였	-891
▁해결	-892
▁신청	-893
▁주식	-894
▁조직	-895
▁합니다	-896
▁참가	-897
▁가입	-898
▁금리	-899
▁단계	-900
▁km	-901
▁이전	-902
▁수도	-903
인트	-904
▁종합	-905
프트	-906
▁의미	-907
▁위원장	-908
▁반면	-909
▁60	-910
▁31	-911
▁F	-912
▁현장	-913
▁장기	-914
▁역사	-915
▁대전	-916
▁앞서	-917
▁알려졌	-918
▁구축	-919
▁암	-920
▁워	-921
▁조성	-922
▁덧붙였	-923
▁집중	-924
▁디자인	-925
▁주가	-926
▁쉽	-927
▁글로	-928
▁본부	-929
▁예산	-930
은행	-931
▁노동	-932
동산	-933
▁역할	-934
▁상대	-935
너지	-936
▁보안	-937
▁인기	-938
▁떠	-939
▁차지	-940
▁논의	-941
▁능	-942
▁윤	-943
▁제기	-944
▁나오	-945
▁공장	-946
▁연구원	-947
▁글로벌	-948
▁각종	-949
▁E	-950
▁액	-951
▁영국	-952
▁검토	-953
동안	-954
▁압	-955
▁맡	-956
▁본격	-957
▁촉	-958
▁는지	-959
▁씩	-960
▁합의	-961
▁고려	-962
▁미래	-963
▁혁	-964
▁기반	-965
▁전화	-966
▁중소	-967
▁TV	-968
▁포인트	-969
▁영화	-970
▁몸	-971
▁끌	-972
▁펼	-973
▁자체	-974
▁지도	-975
▁부동산	-976
▁상당	-977
▁제작	-978
▁외국인	-979
▁인도	-980
▁펀	-981
▁지구	-982
다는	-983
▁하루	-984
▁귀	-985
▁199	-986
▁대형	-987
▁강원	-988
▁스마트	-989
▁SK	-990
▁자연	-991
▁로부터	-992
▁수술	-993
▁카드	-994
▁같이	-995
▁당국	-996
▁여부	-997
▁외교	-998
▁개정	-999
▁듯	-1000
▁너	-1001
▁돈	-1002
▁이동	-1003
▁그런	-1004
▁대응	-1005
▁&	-1006
▁/	-1007
▁한나라	-1008
▁자료	-1009
▁한나라당	-1010
▁사무	-1011
▁공격	-1012
▁인수	-1013
▁향후	-1014
▁삼성전자	-1015
▁가치	-1016
라이	-1017
▁공식	-1018
▁기본	-1019
▁보유	-1020
▁시대	-1021
▁판단	-1022
▁마음	-1023
▁N	-1024
기업	-1025
▁싶	-1026
▁광주	-1027
▁협회	-1028
▁그리고	-1029
▁반대	-1030
▁우선	-1031
▁선택	-1032
▁혼	-1033
▁어떤	-1034
▁자유	-1035
▁식품	-1036
▁음악	-1037
▁아시아	-1038
페이지	-1039
주의	-1040
▁휴대	-1041
▁텔	-1042
▁루	-1043
▁2000	-1044
▁가량	-1045
▁수요	-1046
▁전기	-1047
▁제시	-1048
▁밤	-1049
▁감사	-1050
▁격	-1051
▁겨	-1052
▁신문	-1053
▁돌아	-1054
▁러시아	-1055
▁구매	-1056
▁보건	-1057
▁위기	-1058
▁광고	-1059
▁엄	-1060
▁인정	-1061
▁항공	-1062
▁보고	-1063
▁착	-1064
▁수사	-1065
▁어린이	-1066
▁아닌	-1067
▁롯	-1068
▁바로	-1069
▁인천	-1070
바일	-1071
▁위험	-1072
▁모바일	-1073
▁답	-1074
▁펀드	-1075
▁설립	-1076
▁기념	-1077
▁500	-1078
▁현대차	-1079
▁검찰	-1080
▁위해서	-1081
▁드러	-1082
▁의사	-1083
▁최초	-1084
▁롯데	-1085
▁검사	-1086
▁주변	-1087
▁다면	-1088
▁데이터	-1089
▁페	-1090
▁솔	-1091
▁혐	-1092
▁께	-1093
▁회복	-1094
무원	-1095
▁왕	-1096
▁바람	-1097
▁담당	-1098
▁높이	-1099
▁공공	-1100
전히	-1101
▁뜻	-1102
▁지급	-1103
▁공간	-1104
벤트	-1105
디어	-1106
▁또는	-1107
▁전달	-1108
▁납	-1109
▁키로	-1110
▁일정	-1111
▁된다고	-1112
▁등록	-1113
▁그동안	-1114
▁제조	-1115
▁나가	-1116
▁으나	-1117
▁피부	-1118
▁숨	-1119
▁진출	-1120
▁동시	-1121
▁둘	-1122
▁도움	-1123
▁유통	-1124
▁캠	-1125
▁내려	-1126
▁마다	-1127
▁발견	-1128
▁유치	-1129
▁이름	-1130
어나	-1131
▁단지	-1132
▁체험	-1133
▁보였	-1134
▁규제	-1135
▁이벤트	-1136
▁회원	-1137
▁70	-1138
▁소프트	-1139
▁사례	-1140
▁매우	-1141
▁차례	-1142
▁혐의	-1143
레스	-1144
라도	-1145
▁헌	-1146
▁위치	-1147
▁그렇	-1148
▁뛰	-1149
진다	-1150
▁에너지	-1151
▁코스	-1152
▁즉	-1153
▁평화	-1154
▁능력	-1155
▁인지	-1156
▁사이트	-1157
▁프랑	-1158
▁소개	-1159
러스	-1160
▁할인	-1161
▁80	-1162
▁인해	-1163
▁기획	-1164
▁이르	-1165
▁든	-1166
▁조선	-1167
▁마을	-1168
▁대출	-1169
▁움	-1170
▁KT	-1171
▁사망	-1172
▁기회	-1173
▁민간	-1174
이션	-1175
▁아침	-1176
▁이야	-1177
▁비교	-1178
케팅	-1179
▁핵심	-1180
▁대로	-1181
▁여행	-1182
▁텔레	-1183
▁올라	-1184
▁전년	-1185
▁연합	-1186
▁녹	-1187
▁음식	-1188
▁신규	-1189
▁내일	-1190
▁35	-1191
▁지나	-1192
▁달리	-1193
▁경험	-1194
▁주목	-1195
▁우수	-1196
▁마케팅	-1197
▁부족	-1198
▁여기	-1199
▁반영	-1200
▁퇴	-1201
▁지정	-1202
▁독일	-1203
▁퍼	-1204
▁컴	-1205
▁선물	-1206
▁낙	-1207
▁홈페이지	-1208
▁제한	-1209
▁매수	-1210
▁이해	-1211
▁꾸	-1212
▁뉴스	-1213
▁흐	-1214
▁견	-1215
▁활성	-1216
▁청와	-1217
▁님	-1218
▁청와대	-1219
▁잇	-1220
▁어야	-1221
▁맛	-1222
▁인력	-1223
텐츠	-1224
▁IT	-1225
▁신고	-1226
▁행위	-1227
▁내리	-1228
▁열리	-1229
▁전환	-1230
▁혁신	-1231
▁로서	-1232
▁원인	-1233
▁쪽	-1234
▁자산	-1235
▁기아	-1236
▁경쟁력	-1237
▁코리아	-1238
▁예방	-1239
▁죽	-1240
▁소득	-1241
▁통한	-1242
▁하이	-1243
▁홍보	-1244
▁노조	-1245
▁거쳐	-1246
▁성과	-1247
▁프리	-1248
▁베이	-1249
▁재정	-1250
▁헤	-1251
▁혈	-1252
▁차원	-1253
▁푸	-1254
▁방향	-1255
▁요청	-1256
▁시험	-1257
▁자원	-1258
▁개혁	-1259
▁법인	-1260
▁지지	-1261
▁프랑스	-1262
▁인식	-1263
▁청소	-1264
▁이제	-1265
▁이야기	-1266
▁mm	-1267
▁스포	-1268
▁기상	-1269
▁색	-1270
▁차이	-1271
▁영상	-1272
▁거리	-1273
▁그래	-1274
▁과거	-1275
▁쿠	-1276
▁쇼핑	-1277
▁감독	-1278
▁찬	-1279
▁이달	-1280
▁2005	-1281
▁중단	-1282
▁시켜	-1283
▁어느	-1284
▁내놓	-1285
▁탑	-1286
▁해도	-1287
▁H	-1288
▁비판	-1289
▁예술	-1290
▁려는	-1291
▁대신	-1292
▁중소기업	-1293
▁공원	-1294
▁규정	-1295
▁주의	-1296
▁가정	-1297
▁분위	-1298
▁선수	-1299
▁혜	-1300
▁사태	-1301
▁어떻	-1302
▁제외	-1303
▁논란	-1304
▁네트	-1305
▁불과	-1306
▁콘텐츠	-1307
▁결국	-1308
▁생명	-1309
▁현상	-1310
▁빈	-1311
스크	-1312
▁내부	-1313
▁으로써	-1314
▁날씨	-1315
▁남성	-1316
▁어렵	-1317
거리	-1318
▁최종	-1319
▁출신	-1320
▁전해	-1321
▁체결	-1322
▁만나	-1323
▁체계	-1324
▁불법	-1325
▁움직	-1326
▁반응	-1327
▁지분	-1328
▁삶	-1329
▁공무원	-1330
▁겪	-1331
▁몇	-1332
▁분위기	-1333
▁못했	-1334
▁지하	-1335
▁훈	-1336
▁주제	-1337
리스	-1338
▁냐	-1339
▁300	-1340
▁1000	-1341
▁잔	-1342
▁다만	-1343
▁택	-1344
▁비율	-1345
▁섬	-1346
▁마이	-1347
웨어	-1348
▁제출	-1349
▁타이	-1350
▁한다며	-1351
▁R	-1352
▁먼저	-1353
▁현실	-1354
▁시기	-1355
▁최소	-1356
▁형태	-1357
▁라이	-1358
▁맥	-1359
▁의회	-1360
▁가까	-1361
▁소재	-1362
▁질환	-1363
▁레이	-1364
▁오르	-1365
▁무엇	-1366
▁이러	-1367
▁공정	-1368
▁구체	-1369
▁찾아	-1370
▁전통	-1371
▁론	-1372
▁빌	-1373
▁연결	-1374
▁남북	-1375
▁무료	-1376
▁노인	-1377
▁스포츠	-1378
▁의장	-1379
▁작년	-1380
▁2004	-1381
▁전쟁	-1382
▁세대	-1383
▁애플	-1384
▁희망	-1385
▁유명	-1386
▁축제	-1387
▁나온	-1388
▁연구소	-1389
▁2006	-1390
▁비중	-1391
▁이미지	-1392
▁엔진	-1393
▁테러	-1394
▁텔레콤	-1395
▁속도	-1396
▁c	-1397
▁보장	-1398
▁슈	-1399
▁인근	-1400
▁징	-1401
▁조금	-1402
▁못한	-1403
▁디지	-1404
▁확산	-1405
▁사업자	-1406
▁대사	-1407
▁망	-1408
▁대변	-1409
어들	-1410
▁강력	-1411
▁목사	-1412
▁놀	-1413
▁벤	-1414
▁5000	-1415
요일	-1416
▁대체	-1417
▁사항	-1418
▁더라도	-1419
▁소식	-1420
▁무역	-1421
▁국방	-1422
▁경기도	-1423
▁주도	-1424
▁정신	-1425
▁심사	-1426
▁수상	-1427
▁체제	-1428
▁둔	-1429
▁절차	-1430
▁흥	-1431
▁인데	-1432
▁만든	-1433
▁오른	-1434
▁어떻게	-1435
▁호텔	-1436
▁보고서	-1437
▁웹	-1438
▁이렇	-1439
▁파악	-1440
▁했으나	-1441
▁비슷	-1442
▁여름	-1443
▁디지털	-1444
▁느냐	-1445
▁효율	-1446
▁매장	-1447
▁관한	-1448
▁충분	-1449
▁건물	-1450
▁증시	-1451
▁사전	-1452
▁PC	-1453
▁따라서	-1454
라크	-1455
▁작가	-1456
▁국립	-1457
▁너무	-1458
▁자치	-1459
▁32	-1460
▁나서	-1461
▁요금	-1462
▁조건	-1463
▁확정	-1464
▁가진	-1465
▁자세	-1466
워크	-1467
▁물질	-1468
▁하나님	-1469
▁첨	-1470
▁염	-1471
▁신용	-1472
▁2007	-1473
50	-1474
▁전날	-1475
▁목적	-1476
▁이어지	-1477
▁표현	-1478
▁콜	-1479
▁뉴욕	-1480
▁꼽	-1481
▁원장	-1482
▁인증	-1483
▁36	-1484
▁이루	-1485
▁시도	-1486
▁남부	-1487
▁라면	-1488
▁장비	-1489
▁인한	-1490
▁혜택	-1491
▁특징	-1492
▁에선	-1493
▁계기	-1494
▁나왔	-1495
▁연금	-1496
▁33	-1497
▁인간	-1498
▁거의	-1499
▁아야	-1500
▁제안	-1501
▁이하	-1502
▁제대로	-1503
▁낸	-1504
▁수행	-1505
머니	-1506
▁청소년	-1507
▁구입	-1508
▁2003	-1509
▁2008	-1510
▁졌	-1511
▁넘어	-1512
▁대화	-1513
소리	-1514
▁술	-1515
▁금지	-1516
▁소속	-1517
▁변경	-1518
▁스마트폰	-1519
▁90	-1520
▁끼	-1521
▁대우	-1522
▁감염	-1523
화점	-1524
▁의해	-1525
▁으로부터	-1526
▁종목	-1527
▁상반기	-1528
▁라인	-1529
▁깊	-1530
▁정확	-1531
▁서울시	-1532
BC	-1533
▁아무	-1534
▁올랐	-1535
▁젊	-1536
▁성능	-1537
루션	-1538
▁얼마	-1539
▁네트워크	-1540
▁균	-1541
자리	-1542
니스	-1543
▁차별	-1544
▁유엔	-1545
페인	-1546
▁아프	-1547
이드	-1548
▁나섰	-1549
▁진단	-1550
▁봉사	-1551
▁자기	-1552
▁점검	-1553
▁하반기	-1554
▁깨	-1555
▁무대	-1556
▁U	-1557
▁붙	-1558
▁보내	-1559
▁됩	-1560
▁인권	-1561
▁충남	-1562
▁프로젝	-1563
▁류	-1564
▁여전히	-1565
▁금액	-1566
▁됩니다	-1567
▁앞두	-1568
▁주로	-1569
▁투표	-1570
▁통과	-1571
▁뮤	-1572
▁솔루션	-1573
▁는데요	-1574
▁전남	-1575
▁기아차	-1576
▁바다	-1577
▁얘	-1578
▁대변인	-1579
▁등장	-1580
▁어려운	-1581
▁왜	-1582
▁향상	-1583
▁기구	-1584
▁나타나	-1585
▁매년	-1586
▁연간	-1587
▁사상	-1588
▁프로젝트	-1589
▁다소	-1590
▁우주	-1591
없이	-1592
▁흔	-1593
▁기초	-1594
▁감안	-1595
▁경북	-1596
▁이라크	-1597
▁공항	-1598
▁이란	-1599
▁얘기	-1600
▁시위	-1601
▁숙	-1602
▁냉	-1603
▁탐	-1604
▁슬	-1605
▁벗	-1606
▁오픈	-1607
▁매각	-1608
▁나갈	-1609
▁르	-1610
▁인구	-1611
▁기사	-1612
▁제주도	-1613
▁유가	-1614
므로	-1615
▁건축	-1616
▁밖에	-1617
▁늦	-1618
▁케이	-1619
▁추정	-1620
▁방지	-1621
▁졸	-1622
▁고급	-1623
▁싸	-1624
▁시각	-1625
▁2010	-1626
▁투입	-1627
▁강남	-1628
▁휴대폰	-1629
▁불구	-1630
▁주행	-1631
▁박사	-1632
▁t	-1633
▁미술	-1634
▁자본	-1635
▁땅	-1636
▁뇌	-1637
▁이렇게	-1638
▁오히	-1639
▁좌	-1640
▁준다	-1641
▁밝혀	-1642
▁이른	-1643
▁좀	-1644
▁총회	-1645
▁바탕	-1646
▁오히려	-1647
▁칼	-1648
▁백화점	-1649
▁고용	-1650
어난	-1651
▁익	-1652
▁경남	-1653
▁발언	-1654
▁W	-1655
▁심각	-1656
▁빨	-1657
▁그대로	-1658
▁컴퓨	-1659
▁이스	-1660
▁믿	-1661
▁근무	-1662
▁누구	-1663
▁부정	-1664
▁통화	-1665
▁법원	-1666
▁벌이	-1667
▁재산	-1668
▁품질	-1669
▁싱	-1670
▁울산	-1671
▁이용자	-1672
▁동해	-1673
▁촉구	-1674
▁셈	-1675
▁소송	-1676
▁34	-1677
▁운용	-1678
▁O	-1679
▁훈련	-1680
▁아울	-1681
▁얼굴	-1682
▁부품	-1683
▁V	-1684
▁공단	-1685
▁재판	-1686
▁배우	-1687
▁2002	-1688
▁서로	-1689
라우	-1690
고기	-1691
▁고속	-1692
▁설계	-1693
▁겨울	-1694
▁대선	-1695
▁군사	-1696
▁마지	-1697
▁옮	-1698
▁환율	-1699
▁넣	-1700
▁옥	-1701
리카	-1702
러운	-1703
▁값	-1704
디오	-1705
▁개국	-1706
▁늘어나	-1707
▁해소	-1708
▁전용	-1709
▁부처	-1710
▁45	-1711
▁웃	-1712
▁홀	-1713
▁물량	-1714
▁토론	-1715
▁달성	-1716
▁완화	-1717
▁친구	-1718
▁요인	-1719
▁스럽	-1720
▁버스	-1721
▁떨어지	-1722
▁멀	-1723
▁접근	-1724
▁기기	-1725
▁쌍	-1726
▁과제	-1727
▁라도	-1728
▁만족	-1729
▁세상	-1730
▁기독	-1731
▁획	-1732
▁국무	-1733
▁외환	-1734
▁세력	-1735
▁미디어	-1736
▁강한	-1737
▁투자자	-1738
▁월드	-1739
▁흡	-1740
▁꿈	-1741
▁임대	-1742
▁의혹	-1743
▁화학	-1744
▁상담	-1745
▁주말	-1746
▁마지막	-1747
▁행동	-1748
▁실제로	-1749
▁민주당	-1750
▁장치	-1751
▁신경	-1752
▁인하	-1753
▁선언	-1754
▁쯤	-1755
▁계열	-1756
▁보상	-1757
▁198	-1758
▁토지	-1759
수록	-1760
▁채권	-1761
▁주인	-1762
▁앤	-1763
▁이끌	-1764
▁단순	-1765
▁갤	-1766
▁위협	-1767
▁시청	-1768
▁목소리	-1769
▁양국	-1770
▁안보	-1771
스로	-1772
▁으로서	-1773
▁들어가	-1774
▁곧	-1775
▁화장	-1776
▁연속	-1777
▁해양	-1778
▁봄	-1779
▁당초	-1780
▁업종	-1781
▁특허	-1782
▁갑	-1783
▁연기	-1784
▁편의	-1785
산물	-1786
▁어려움	-1787
▁올림	-1788
▁검색	-1789
▁소리	-1790
▁춘	-1791
▁수석	-1792
스터	-1793
▁넓	-1794
▁신뢰	-1795
▁아울러	-1796
▁작용	-1797
▁외부	-1798
반도	-1799
▁접수	-1800
▁시킨	-1801
▁트럼	-1802
▁천만	-1803
▁주년	-1804
스코	-1805
▁진료	-1806
▁보조	-1807
▁교사	-1808
▁쌀	-1809
공사	-1810
▁국장	-1811
▁스타일	-1812
▁미세	-1813
가지	-1814
▁쏟	-1815
▁국정	-1816
▁원자	-1817
▁동물	-1818
▁부모	-1819
▁정비	-1820
▁기도	-1821
▁선진	-1822
▁트럼프	-1823
▁별도	-1824
▁거부	-1825
아들	-1826
▁히	-1827
▁나선	-1828
▁폴	-1829
▁골프	-1830
▁존재	-1831
▁정권	-1832
▁올리	-1833
▁통일	-1834
▁발사	-1835
▁기상청	-1836
▁스토	-1837
▁둘러	-1838
▁팬	-1839
▁여론	-1840
▁창업	-1841
▁점유	-1842
▁아래	-1843
▁등급	-1844
환경	-1845
▁정기	-1846
▁38	-1847
▁2009	-1848
▁초기	-1849
▁긍	-1850
▁근로	-1851
▁기여	-1852
버지	-1853
▁결혼	-1854
▁승인	-1855
▁흑	-1856
▁재단	-1857
▁형성	-1858
▁조합	-1859
▁꽃	-1860
▁질문	-1861
▁그것	-1862
▁조기	-1863
▁상장	-1864
▁불안	-1865
▁나이	-1866
▁웨	-1867
▁허용	-1868
▁배출	-1869
▁한반도	-1870
▁연계	-1871
▁특정	-1872
▁곡	-1873
▁엘	-1874
▁자녀	-1875
▁스트	-1876
▁육성	-1877
▁봤	-1878
▁인가	-1879
▁가입자	-1880
▁맑	-1881
▁짜	-1882
▁꾸준	-1883
▁위반	-1884
▁개편	-1885
▁선교	-1886
▁대기	-1887
▁줄이	-1888
▁시리	-1889
▁오염	-1890
▁제재	-1891
▁추천	-1892
▁일으	-1893
▁000	-1894
▁마리	-1895
▁컴퓨터	-1896
▁한미	-1897
▁농업	-1898
우스	-1899
▁미군	-1900
▁부대	-1901
▁걸쳐	-1902
▁앱	-1903
▁아름	-1904
▁법안	-1905
▁의지	-1906
▁올림픽	-1907
▁표시	-1908
▁독립	-1909
▁추세	-1910
▁제약	-1911
▁시켰	-1912
▁긍정	-1913
▁스스로	-1914
▁대중	-1915
▁시킬	-1916
▁프리미	-1917
▁맞춰	-1918
▁중부	-1919
▁지사	-1920
▁언급	-1921
▁빠르	-1922
▁이스라	-1923
▁원칙	-1924
▁갈등	-1925
▁집계	-1926
▁동기	-1927
▁다이	-1928
▁최저	-1929
▁이스라엘	-1930
▁출발	-1931
▁다르	-1932
▁끊	-1933
▁허가	-1934
▁패션	-1935
▁불편	-1936
▁의무	-1937
▁십	-1938
20	-1939
▁악화	-1940
▁곤	-1941
▁관측	-1942
▁협의회	-1943
린다	-1944
▁잇따	-1945
▁3000	-1946
▁지식	-1947
▁보수	-1948
세대	-1949
▁2012	-1950
▁석유	-1951
▁연말	-1952
▁반발	-1953
널리	-1954
▁이뤄지	-1955
시지	-1956
▁증상	-1957
▁잃	-1958
▁이곳	-1959
▁전면	-1960
▁주문	-1961
▁복합	-1962
▁발행	-1963
▁영어	-1964
▁고자	-1965
▁37	-1966
▁출연	-1967
▁FT	-1968
▁빚	-1969
▁회견	-1970
▁전북	-1971
▁소유	-1972
▁컬	-1973
▁텍	-1974
▁펼쳐	-1975
어지	-1976
▁전반	-1977
▁응답	-1978
▁전혀	-1979
▁지상	-1980
▁모집	-1981
▁미치	-1982
▁아동	-1983
▁실장	-1984
▁빼	-1985
▁성명	-1986
▁영하	-1987
▁당부	-1988
▁분명	-1989
▁척	-1990
메라	-1991
▁공유	-1992
▁배치	-1993
▁관광객	-1994
▁기독교	-1995
▁마무	-1996
▁모르	-1997
▁폰	-1998
▁덕	-1999
▁수용	-2000
▁집행	-2001
▁cm	-2002
▁힘들	-2003
▁고민	-2004
▁주력	-2005
▁번호	-2006
▁라면서	-2007
▁확장	-2008
▁플레이	-2009
▁입주	-2010
▁가져	-2011
▁시점	-2012
학교	-2013
▁구속	-2014
▁교류	-2015
▁충북	-2016
▁미사	-2017
▁자격	-2018
▁운전	-2019
▁생태	-2020
▁자는	-2021
▁영역	-2022
▁실험	-2023
▁죠	-2024
▁구간	-2025
▁!	-2026
▁늘어난	-2027
▁해석	-2028
▁지켜	-2029
▁마치	-2030
▁쌓	-2031
▁절반	-2032
▁심리	-2033
▁첨단	-2034
▁알리	-2035
▁개방	-2036
케이션	-2037
▁초청	-2038
▁반도	-2039
▁표준	-2040
▁졸업	-2041
▁베이징	-2042
▁개정안	-2043
▁종교	-2044
▁마무리	-2045
▁집단	-2046
▁쉬	-2047
▁맺	-2048
▁특성	-2049
▁달하	-2050
▁공모	-2051
한다	-2052
▁시내	-2053
니아	-2054
▁잘못	-2055
▁돕	-2056
▁밝히	-2057
▁돼야	-2058
▁부상	-2059
▁측면	-2060
머지	-2061
▁받아들	-2062
▁서울대	-2063
▁400	-2064
▁나머지	-2065
▁읽	-2066
▁부지	-2067
▁전력	-2068
▁초등	-2069
▁플랫	-2070
▁친환경	-2071
▁차관	-2072
▁공기	-2073
▁민족	-2074
▁촬	-2075
호사	-2076
▁경고	-2077
▁그림	-2078
▁해상	-2079
▁창출	-2080
▁바이오	-2081
▁촬영	-2082
▁프리미엄	-2083
▁모터	-2084
▁시리즈	-2085
▁직장	-2086
▁CJ	-2087
▁구글	-2088
▁법률	-2089
▁뜨	-2090
CD	-2091
▁새롭	-2092
▁위안	-2093
▁완성	-2094
▁아들	-2095
▁확실	-2096
▁헬	-2097
▁만드	-2098
▁이탈	-2099
▁점차	-2100
▁대폭	-2101
▁적자	-2102
▁비즈	-2103
▁배경	-2104
▁을까	-2105
▁대북	-2106
프라	-2107
▁롭	-2108
▁윈	-2109
▁움직임	-2110
총리	-2111
▁부과	-2112
▁내수	-2113
회사	-2114
▁연장	-2115
▁정당	-2116
▁남자	-2117
▁된다는	-2118
▁특수	-2119
▁비상	-2120
▁협약	-2121
▁근거	-2122
▁채널	-2123
▁고위	-2124
▁탑재	-2125
▁진입	-2126
▁겸	-2127
▁약속	-2128
▁마감	-2129
▁이명	-2130
회장	-2131
▁비난	-2132
▁43	-2133
▁일단	-2134
▁2011	-2135
▁묻	-2136
▁클라우	-2137
▁균형	-2138
▁서해	-2139
▁느낌	-2140
▁폐지	-2141
▁폼	-2142
▁팀장	-2143
드시	-2144
▁무기	-2145
▁대만	-2146
▁됐으며	-2147
▁시절	-2148
▁당선	-2149
▁휘	-2150
▁그런데	-2151
▁반드시	-2152
▁소장	-2153
▁부인	-2154
▁불리	-2155
▁반도체	-2156
▁듣	-2157
▁운행	-2158
▁제거	-2159
▁지점	-2160
▁즐길	-2161
▁의식	-2162
▁뒷	-2163
▁뮤지	-2164
▁밝힌	-2165
▁차단	-2166
▁선발	-2167
▁철저	-2168
▁채용	-2169
▁카메라	-2170
▁빛	-2171
▁강원도	-2172
▁소프트웨어	-2173
▁려면	-2174
▁궁	-2175
▁투명	-2176
▁페이	-2177
▁체육	-2178
▁X	-2179
▁단기	-2180
▁셔	-2181
▁코스닥	-2182
▁어제	-2183
▁세금	-2184
아가	-2185
▁65	-2186
먼지	-2187
▁엠	-2188
▁자율	-2189
▁범죄	-2190
▁불가	-2191
▁냈	-2192
▁클라우드	-2193
▁임금	-2194
▁통제	-2195
▁북부	-2196
▁인물	-2197
▁관람	-2198
▁부부	-2199
▁링	-2200
▁포털	-2201
▁이슬	-2202
▁단속	-2203
▁는가	-2204
▁곳곳	-2205
▁FTA	-2206
▁가스	-2207
▁범위	-2208
▁미세먼지	-2209
▁샤	-2210
세포	-2211
▁매출액	-2212
사장	-2213
BS	-2214
▁39	-2215
담회	-2216
▁42	-2217
민국	-2218
▁메시지	-2219
▁타임	-2220
▁44	-2221
▁48	-2222
▁대학교	-2223
▁동원	-2224
▁베트	-2225
▁시리아	-2226
▁들여	-2227
▁매입	-2228
▁봐	-2229
▁홍콩	-2230
▁훨	-2231
▁사라	-2232
▁새벽	-2233
▁여자	-2234
▁판결	-2235
▁인터뷰	-2236
▁부장	-2237
▁한국인	-2238
▁캐릭	-2239
▁총장	-2240
▁으면서	-2241
스타	-2242
▁150	-2243
▁미사일	-2244
▁요소	-2245
▁취업	-2246
▁캐릭터	-2247
▁폭발	-2248
▁빅	-2249
▁훨씬	-2250
▁결의	-2251
▁보통	-2252
▁2001	-2253
▁완료	-2254
▁그린	-2255
▁부회장	-2256
▁55	-2257
우디	-2258
▁베트남	-2259
▁매일	-2260
▁아이템	-2261
▁아버지	-2262
▁자사	-2263
▁2013	-2264
▁려고	-2265
▁행복	-2266
▁간담회	-2267
▁재미	-2268
▁순위	-2269
▁과장	-2270
▁하늘	-2271
▁브라	-2272
▁혹	-2273
▁국내외	-2274
▁대한민국	-2275
▁서버	-2276
▁모임	-2277
▁전해졌	-2278
▁후원	-2279
▁떨어진	-2280
▁kg	-2281
▁와인	-2282
▁실천	-2283
▁세트	-2284
▁검증	-2285
▁유리	-2286
▁아름다	-2287
▁선보이	-2288
▁2015	-2289
▁내렸	-2290
▁자주	-2291
▁41	-2292
▁청구	-2293
의원	-2294
▁수수	-2295
▁돌파	-2296
▁동의	-2297
▁김정	-2298
▁가을	-2299
▁심의	-2300
▁현금	-2301
▁평소	-2302
▁연주	-2303
▁호주	-2304
학생	-2305
▁강하	-2306
▁협정	-2307
▁태풍	-2308
▁그래서	-2309
▁본사	-2310
▁질병	-2311
▁요즘	-2312
▁나무	-2313
▁욕	-2314
▁안팎	-2315
▁느끼	-2316
▁긴급	-2317
▁부여	-2318
▁전하	-2319
▁장소	-2320
▁물가	-2321
▁정리	-2322
▁거듭	-2323
▁주주	-2324
▁런	-2325
▁실패	-2326
▁줬	-2327
▁처분	-2328
▁교체	-2329
▁197	-2330
▁2014	-2331
▁GM	-2332
▁구역	-2333
▁갖추	-2334
▁시범	-2335
▁상호	-2336
▁유출	-2337
▁노출	-2338
▁고요	-2339
▁엑	-2340
▁어디	-2341
▁이명박	-2342
▁합병	-2343
▁화재	-2344
▁노무	-2345
▁세기	-2346
▁바이러스	-2347
▁유입	-2348
▁바라	-2349
▁쏘	-2350
▁밑	-2351
▁인프라	-2352
▁예수	-2353
▁급증	-2354
▁학습	-2355
▁크기	-2356
▁실질	-2357
▁언제	-2358
▁머리	-2359
▁파트	-2360
▁걱	-2361
영상	-2362
▁딸	-2363
▁흐름	-2364
▁수립	-2365
▁모양	-2366
▁걱정	-2367
▁비즈니스	-2368
▁한다면	-2369
▁이슬람	-2370
▁넥	-2371
▁지자	-2372
▁의약	-2373
▁부진	-2374
▁파이	-2375
▁일자리	-2376
▁테스트	-2377
▁동반	-2378
▁청약	-2379
▁취임	-2380
▁빠른	-2381
▁예측	-2382
▁넷	-2383
직원	-2384
▁섭	-2385
▁포기	-2386
▁뮤지컬	-2387
▁적절	-2388
▁춘천	-2389
▁도서	-2390
▁세포	-2391
▁시즌	-2392
▁51	-2393
▁출범	-2394
비아	-2395
▁75	-2396
▁줄어들	-2397
▁설정	-2398
증권	-2399
▁철도	-2400
▁인공	-2401
▁채택	-2402
▁거주	-2403
플레이	-2404
▁융	-2405
▁MBC	-2406
▁저작	-2407
▁46	-2408
▁캠페인	-2409
▁메이	-2410
▁강세	-2411
▁전주	-2412
▁가동	-2413
▁벨	-2414
▁부시	-2415
▁헌법	-2416
▁교육청	-2417
▁틀	-2418
▁마찬	-2419
▁크리스	-2420
▁이것	-2421
▁도전	-2422
▁99	-2423
▁마찬가지	-2424
▁커피	-2425
▁비행	-2426
▁유도	-2427
▁성분	-2428
▁역량	-2429
뮤니	-2430
▁품목	-2431
▁연출	-2432
▁신설	-2433
▁달라	-2434
▁생기	-2435
▁유일	-2436
이스	-2437
▁지진	-2438
▁시술	-2439
▁커뮤니	-2440
▁주차	-2441
▁SW	-2442
▁이내	-2443
리드	-2444
▁소형	-2445
▁현행	-2446
▁주일	-2447
리지	-2448
▁의한	-2449
▁지하철	-2450
▁충청	-2451
▁에어	-2452
▁동영상	-2453
▁통계	-2454
▁지자체	-2455
▁상하	-2456
▁옷	-2457
▁판매량	-2458
▁임시	-2459
▁구름	-2460
▁미만	-2461
▁기다	-2462
▁삭	-2463
▁노래	-2464
▁BM	-2465
▁분리	-2466
▁이틀	-2467
▁테크	-2468
▁마이크	-2469
▁타이어	-2470
▁열린다	-2471
▁건립	-2472
▁나와	-2473
▁량	-2474
▁축소	-2475
▁보증	-2476
▁지도자	-2477
▁파업	-2478
▁스러운	-2479
▁찍	-2480
▁눈길	-2481
▁학원	-2482
▁뿌	-2483
▁양성	-2484
▁동일	-2485
▁진정	-2486
▁오래	-2487
▁침체	-2488
▁갖춘	-2489
▁600	-2490
▁내린	-2491
▁화면	-2492
▁결제	-2493
▁꾸준히	-2494
▁얼마나	-2495
티브	-2496
▁설비	-2497
▁47	-2498
▁52	-2499
▁실현	-2500
▁장점	-2501
▁포럼	-2502
▁노선	-2503
▁사이버	-2504
▁수정	-2505
라마	-2506
▁주최	-2507
▁상무	-2508
▁오바	-2509
▁북미	-2510
▁49	-2511
▁꼭	-2512
▁공부	-2513
▁작성	-2514
▁기금	-2515
▁손실	-2516
▁지배	-2517
▁바란	-2518
▁므로	-2519
▁자랑	-2520
▁재무	-2521
▁급등	-2522
▁져	-2523
▁53	-2524
▁기지	-2525
▁됨	-2526
리트	-2527
▁노무현	-2528
▁축구	-2529
▁공시	-2530
▁흘	-2531
▁모아	-2532
▁부위	-2533
▁오바마	-2534
▁개별	-2535
▁IS	-2536
▁지키	-2537
▁예비	-2538
▁노사	-2539
▁직후	-2540
▁기울	-2541
▁국토	-2542
▁여건	-2543
▁요리	-2544
▁수단	-2545
▁즐기	-2546
▁안내	-2547
▁저녁	-2548
▁임원	-2549
▁개념	-2550
▁변호사	-2551
▁발굴	-2552
▁감시	-2553
▁CE	-2554
▁머물	-2555
▁절감	-2556
▁본인	-2557
▁학년	-2558
▁청주	-2559
나무	-2560
▁전투	-2561
▁고기	-2562
▁선임	-2563
▁단위	-2564
▁농가	-2565
▁매매	-2566
▁이외	-2567
▁짓	-2568
▁부사장	-2569
▁벗어나	-2570
▁동아	-2571
이익	-2572
▁최선	-2573
▁청년	-2574
▁충분히	-2575
▁환경부	-2576
▁면적	-2577
▁누리	-2578
▁전개	-2579
▁객	-2580
▁충격	-2581
▁일상	-2582
▁사과	-2583
▁코드	-2584
▁운전자	-2585
▁벤처	-2586
▁어도	-2587
▁장착	-2588
▁도내	-2589
▁이행	-2590
▁는다고	-2591
▁도쿄	-2592
▁동부	-2593
▁살펴	-2594
▁게이	-2595
▁기부	-2596
▁무선	-2597
▁매도	-2598
▁고등	-2599
▁전시회	-2600
▁빠져	-2601
▁다운	-2602
▁로봇	-2603
▁BMW	-2604
▁분류	-2605
▁노트	-2606
▁네이	-2607
▁근로자	-2608
▁순간	-2609
▁바뀌	-2610
▁연대	-2611
▁논문	-2612
▁취약	-2613
▁갔	-2614
▁충돌	-2615
▁그만	-2616
▁제정	-2617
▁소방	-2618
▁아서	-2619
▁교환	-2620
▁총선	-2621
▁독자	-2622
▁재료	-2623
▁어요	-2624
▁극복	-2625
▁더불	-2626
▁개설	-2627
▁활발	-2628
▁로운	-2629
▁국방부	-2630
▁강릉	-2631
▁계열사	-2632
시스	-2633
▁불러	-2634
▁상승세	-2635
▁Y	-2636
▁일대	-2637
▁짧	-2638
▁사실상	-2639
▁회계	-2640
▁셀	-2641
▁실무	-2642
▁침해	-2643
▁800	-2644
▁이웃	-2645
▁4000	-2646
▁순이익	-2647
▁의약품	-2648
▁쇠	-2649
▁도착	-2650
▁조작	-2651
▁블랙	-2652
▁연료	-2653
▁취득	-2654
▁h	-2655
▁즈	-2656
▁단말	-2657
▁나눠	-2658
▁렌	-2659
▁가슴	-2660
▁결합	-2661
▁된다며	-2662
▁학부	-2663
▁민원	-2664
▁떠나	-2665
▁데이	-2666
▁가까이	-2667
▁차세대	-2668
▁거래소	-2669
▁뽑	-2670
▁벽	-2671
▁가졌	-2672
▁비전	-2673
▁선호	-2674
▁독도	-2675
▁위성	-2676
▁명예	-2677
▁변동	-2678
▁농협	-2679
▁그리스	-2680
▁저렴	-2681
▁J	-2682
▁가까운	-2683
▁i	-2684
▁기억	-2685
▁실내	-2686
건설	-2687
거운	-2688
▁정체	-2689
▁총괄	-2690
▁중동	-2691
▁54	-2692
▁건조	-2693
▁측정	-2694
▁성적	-2695
▁농도	-2696
▁수급	-2697
▁주간	-2698
▁무장	-2699
▁접속	-2700
카드	-2701
▁시사	-2702
▁으니	-2703
▁대체로	-2704
▁취지	-2705
▁미니	-2706
▁알려진	-2707
▁늘리	-2708
▁리더	-2709
▁묘	-2710
▁초과	-2711
운드	-2712
▁파워	-2713
▁박물	-2714
▁강제	-2715
▁56	-2716
▁말씀	-2717
▁냐는	-2718
▁보험료	-2719
용차	-2720
▁매체	-2721
▁불만	-2722
▁임명	-2723
▁문학	-2724
▁갤럭	-2725
▁모니	-2726
▁상징	-2727
이즈	-2728
▁수원	-2729
터리	-2730
▁LCD	-2731
▁갤럭시	-2732
▁개성	-2733
▁지표	-2734
▁폐기	-2735
▁줄기	-2736
▁의학	-2737
▁총재	-2738
▁치열	-2739
▁다니	-2740
▁슈퍼	-2741
▁알려져	-2742
▁소설	-2743
▁조차	-2744
▁임직원	-2745
▁어머니	-2746
▁한계	-2747
▁칭	-2748
▁유로	-2749
▁톤	-2750
▁제휴	-2751
▁구현	-2752
▁따뜻	-2753
▁바꾸	-2754
▁떨어졌	-2755
▁취재	-2756
▁유사	-2757
▁MS	-2758
▁내륙	-2759
▁이탈리아	-2760
▁는다는	-2761
▁투기	-2762
▁임상	-2763
▁위주	-2764
▁고유	-2765
▁보급	-2766
▁괴	-2767
▁피해자	-2768
▁추석	-2769
▁의심	-2770
▁기계	-2771
▁재개	-2772
▁아주	-2773
▁64	-2774
▁공략	-2775
레이드	-2776
▁써	-2777
▁고통	-2778
▁영양	-2779
로드	-2780
▁AP	-2781
▁해제	-2782
▁탁	-2783
▁조절	-2784
▁집회	-2785
▁박물관	-2786
▁폭력	-2787
▁미리	-2788
▁매력	-2789
▁드라마	-2790
▁주거	-2791
▁대안	-2792
▁57	-2793
▁선박	-2794
▁통상	-2795
▁필수	-2796
▁완전히	-2797
▁모니터	-2798
▁비서	-2799
▁접촉	-2800
▁굴	-2801
자기	-2802
▁쏟아	-2803
▁85	-2804
▁성인	-2805
티즌	-2806
▁작전	-2807
브리드	-2808
▁중간	-2809
▁취소	-2810
UV	-2811
▁부총리	-2812
▁꼬	-2813
▁이사장	-2814
▁줄어	-2815
일리	-2816
▁디스	-2817
▁신세	-2818
▁연방	-2819
▁화장품	-2820
▁당분	-2821
▁손해	-2822
▁최신	-2823
▁쌍용	-2824
▁학회	-2825
▁옛	-2826
▁수수료	-2827
▁감정	-2828
▁촉진	-2829
▁아이폰	-2830
▁승리	-2831
▁쓴	-2832
▁멘	-2833
▁분쟁	-2834
▁종류	-2835
▁일제	-2836
▁하이브리드	-2837
▁제일	-2838
▁인용	-2839
▁GS	-2840
▁들어간	-2841
▁터키	-2842
▁현황	-2843
▁컨설	-2844
버스	-2845
▁들어갔	-2846
▁챙	-2847
▁63	-2848
▁지시	-2849
▁58	-2850
▁a	-2851
▁커지	-2852
▁횡	-2853
▁풀이	-2854
▁적발	-2855
▁급여	-2856
▁브리	-2857
▁현안	-2858
▁예약	-2859
▁신한	-2860
▁드러났	-2861
▁62	-2862
▁주관	-2863
▁협조	-2864
▁창조	-2865
▁펼치	-2866
▁도심	-2867
▁덜	-2868
▁선보인다	-2869
▁엔터	-2870
▁98	-2871
▁아마	-2872
▁관객	-2873
▁파견	-2874
도로	-2875
▁그녀	-2876
▁강의	-2877
▁파트너	-2878
▁신속	-2879
▁네티즌	-2880
▁AI	-2881
▁물류	-2882
▁원주	-2883
▁낼	-2884
▁2016	-2885
▁산하	-2886
▁담배	-2887
▁인정받	-2888
가스	-2889
사자	-2890
▁6000	-2891
일보	-2892
▁무려	-2893
▁발효	-2894
▁이어질	-2895
▁태양	-2896
▁196	-2897
▁불가피	-2898
▁8000	-2899
▁디젤	-2900
▁95	-2901
▁700	-2902
▁아름다운	-2903
▁메뉴	-2904
▁SUV	-2905
▁일어나	-2906
▁메르	-2907
▁나누	-2908
▁실시간	-2909
▁연비	-2910
▁물리	-2911
▁화제	-2912
▁주의보	-2913
▁합리	-2914
▁당분간	-2915
▁주석	-2916
▁에스	-2917
▁통증	-2918
▁단말기	-2919
▁압박	-2920
▁교과	-2921
▁아프리카	-2922
▁대상자	-2923
▁여당	-2924
웨이	-2925
▁식사	-2926
▁걷	-2927
▁긴장	-2928
▁120	-2929
▁토록	-2930
피스	-2931
▁털	-2932
스탄	-2933
▁61	-2934
▁CEO	-2935
▁옆	-2936
▁대리	-2937
▁나타냈	-2938
▁형식	-2939
▁농촌	-2940
▁맞춤	-2941
▁경계	-2942
▁보완	-2943
▁각국	-2944
란드	-2945
▁여야	-2946
▁부작	-2947
입니다	-2948
▁다수	-2949
▁개막	-2950
▁저자	-2951
▁권리	-2952
▁저장	-2953
▁마저	-2954
▁통보	-2955
▁내다	-2956
▁보인다고	-2957
▁나타내	-2958
▁세미	-2959
▁진다	-2960
▁97	-2961
▁옵	-2962
▁나설	-2963
▁내세	-2964
싱턴	-2965
▁맨	-2966
▁이래	-2967
어진	-2968
▁택시	-2969
▁짜리	-2970
▁상임	-2971
▁가속	-2972
▁국세	-2973
▁꺼	-2974
▁대처	-2975
▁연휴	-2976
▁NH	-2977
▁보관	-2978
▁천안	-2979
▁문제점	-2980
▁인재	-2981
▁태국	-2982
▁파리	-2983
▁애널리	-2984
▁해안	-2985
▁증정	-2986
▁조달	-2987
▁사정	-2988
▁셋	-2989
▁의도	-2990
▁예고	-2991
▁족	-2992
▁주인공	-2993
▁지출	-2994
▁연극	-2995
▁59	-2996
▁연수	-2997
▁남편	-2998
▁잇따라	-2999
▁다리	-3000
▁앉	-3001
▁올렸	-3002
▁끌어	-3003
▁테마	-3004
▁인원	-3005
▁우승	-3006
▁자전	-3007
▁나온다	-3008
▁뱅	-3009
▁태도	-3010
▁성격	-3011
▁배당	-3012
▁카페	-3013
▁신차	-3014
▁가로	-3015
▁신임	-3016
▁거론	-3017
▁파일	-3018
직자	-3019
다른	-3020
▁광장	-3021
러리	-3022
▁수주	-3023
▁담보	-3024
▁학술	-3025
▁공화	-3026
▁처벌	-3027
▁입찰	-3028
TV	-3029
▁워싱턴	-3030
닉스	-3031
▁온도	-3032
▁한때	-3033
▁그렇게	-3034
▁무리	-3035
▁명령	-3036
▁컬러	-3037
▁66	-3038
▁스위	-3039
▁알아	-3040
▁보조금	-3041
공업	-3042
▁저지	-3043
▁선생	-3044
▁고교	-3045
▁풍부	-3046
▁경상	-3047
▁보입니다	-3048
▁개입	-3049
▁유발	-3050
▁정지	-3051
▁김영	-3052
▁힐	-3053
▁IP	-3054
▁심장	-3055
▁생존	-3056
▁자극	-3057
그룹	-3058
▁정착	-3059
▁중고	-3060
이너	-3061
▁청사	-3062
▁부작용	-3063
▁클래	-3064
▁희생	-3065
타인	-3066
▁플래	-3067
마스	-3068
▁탓	-3069
▁와이	-3070
▁기타	-3071
리오	-3072
▁합동	-3073
▁훼	-3074
▁재건	-3075
▁입법	-3076
▁인치	-3077
▁충전	-3078
▁내달	-3079
▁관세	-3080
▁탄생	-3081
▁권력	-3082
▁페이스	-3083
▁음성	-3084
▁결론	-3085
▁출판	-3086
▁최대한	-3087
▁짐	-3088
▁주재	-3089
▁빨리	-3090
▁답변	-3091
▁국산	-3092
▁절대	-3093
▁서민	-3094
▁정통	-3095
▁순환	-3096
▁PD	-3097
▁중대	-3098
▁투쟁	-3099
▁캠프	-3100
▁부실	-3101
▁관절	-3102
▁전원	-3103
▁애널리스트	-3104
▁단독	-3105
▁밥	-3106
▁지휘	-3107
▁토대	-3108
▁신호	-3109
▁정말	-3110
▁멀티	-3111
준다	-3112
나다	-3113
▁스테	-3114
▁예금	-3115
▁칠	-3116
▁상위	-3117
▁광역	-3118
라스	-3119
▁호소	-3120
▁수업	-3121
▁당장	-3122
▁오랜	-3123
▁닷	-3124
▁지주	-3125
▁대주	-3126
데이트	-3127
▁사안	-3128
▁업데이트	-3129
▁못해	-3130
▁계층	-3131
▁문서	-3132
▁도와	-3133
▁직업	-3134
▁일시	-3135
▁수치	-3136
▁부르	-3137
▁델	-3138
▁가수	-3139
▁아베	-3140
총장	-3141
▁데일리	-3142
▁점수	-3143
▁선고	-3144
▁연령	-3145
▁윤리	-3146
▁큐	-3147
▁할지	-3148
▁압력	-3149
리케이션	-3150
▁공학	-3151
▁버전	-3152
▁획득	-3153
▁그쳤	-3154
▁방사	-3155
▁스트레스	-3156
▁야당	-3157
▁68	-3158
▁정식	-3159
▁항목	-3160
30	-3161
평양	-3162
요타	-3163
▁줘	-3164
▁부서	-3165
▁착수	-3166
▁스님	-3167
▁급격	-3168
▁소통	-3169
▁마켓	-3170
▁클럽	-3171
▁둔화	-3172
▁자전거	-3173
▁신세계	-3174
▁참가자	-3175
▁굳	-3176
▁출입	-3177
▁숲	-3178
▁기후	-3179
▁수십	-3180
▁모색	-3181
▁이자	-3182
▁추구	-3183
▁배제	-3184
▁컨설팅	-3185
▁법무	-3186
IS	-3187
▁유기	-3188
▁동북	-3189
로그	-3190
▁옮겨	-3191
▁기소	-3192
▁선보였	-3193
▁셨	-3194
▁본다	-3195
▁정해	-3196
▁원가	-3197
▁트렌	-3198
▁반복	-3199
▁캐나다	-3200
▁91	-3201
▁아트	-3202
▁늘어났	-3203
▁쟁	-3204
▁청장	-3205
▁편리	-3206
▁유전자	-3207
▁을지	-3208
▁파괴	-3209
▁회관	-3210
▁여의	-3211
관리	-3212
▁세미나	-3213
▁67	-3214
▁7000	-3215
▁증권사	-3216
▁바람직	-3217
▁언어	-3218
▁제목	-3219
▁72	-3220
소득	-3221
▁임기	-3222
▁포항	-3223
▁천억	-3224
▁용품	-3225
▁나올	-3226
▁초대	-3227
▁이른바	-3228
▁블루	-3229
▁정의	-3230
▁실업	-3231
▁연합회	-3232
▁대거	-3233
▁한층	-3234
▁자문	-3235
▁비밀	-3236
▁죄	-3237
▁수집	-3238
▁노동자	-3239
▁경매	-3240
▁으려	-3241
▁대학생	-3242
▁실태	-3243
▁발급	-3244
▁선진국	-3245
▁필리	-3246
▁력	-3247
▁콩	-3248
▁가상	-3249
▁조언	-3250
▁살아	-3251
▁오토	-3252
▁장면	-3253
▁쓸	-3254
▁띄	-3255
▁그치	-3256
▁모여	-3257
▁생물	-3258
▁성형	-3259
▁예보	-3260
▁당연	-3261
▁제고	-3262
▁모으	-3263
항공	-3264
▁체포	-3265
대표	-3266
▁줄기세포	-3267
▁증거	-3268
▁천연	-3269
리어	-3270
▁화려	-3271
▁건수	-3272
▁올려	-3273
▁추위	-3274
▁Q	-3275
▁가르	-3276
▁워크	-3277
▁르노	-3278
▁이슈	-3279
키지	-3280
▁권한	-3281
▁구분	-3282
▁편성	-3283
▁완전	-3284
▁과세	-3285
▁고령	-3286
▁근본	-3287
▁외교부	-3288
▁EU	-3289
포르	-3290
▁사원	-3291
▁패키지	-3292
▁차종	-3293
▁맥주	-3294
▁마시	-3295
거래	-3296
▁살리	-3297
▁약세	-3298
▁느껴	-3299
▁뚜	-3300
▁96	-3301
▁호흡	-3302
▁인민	-3303
▁손상	-3304
▁부채	-3305
▁낭	-3306
▁발휘	-3307
▁쇼핑몰	-3308
▁포장	-3309
▁상업	-3310
▁부당	-3311
▁몽	-3312
▁국회의원	-3313
▁세우	-3314
▁확충	-3315
▁적합	-3316
▁인생	-3317
▁경주	-3318
▁영동	-3319
▁뛰어난	-3320
▁간부	-3321
▁휴가	-3322
▁승용차	-3323
▁보일	-3324
▁전형	-3325
▁원하	-3326
▁만난	-3327
▁엄마	-3328
▁원자력	-3329
▁불교	-3330
▁대학원	-3331
▁느낄	-3332
▁자고	-3333
▁필리핀	-3334
▁사무실	-3335
가포르	-3336
▁동력	-3337
▁개소	-3338
▁무게	-3339
▁혁명	-3340
▁달했	-3341
▁윈도	-3342
▁훼손	-3343
▁음료	-3344
▁농산물	-3345
▁과도	-3346
▁9000	-3347
▁혈액	-3348
▁양측	-3349
▁힘입	-3350
▁싱가포르	-3351
▁치료제	-3352
▁벌였	-3353
▁자살	-3354
▁한정	-3355
▁서명	-3356
▁쓰레	-3357
▁디스플레이	-3358
▁권고	-3359
▁버리	-3360
▁77	-3361
▁월드컵	-3362
▁앨	-3363
▁물결	-3364
▁경비	-3365
▁유동	-3366
▁74	-3367
▁쇠고기	-3368
회의	-3369
▁실정	-3370
▁복원	-3371
▁선출	-3372
▁복구	-3373
▁취하	-3374
▁극장	-3375
▁팩	-3376
▁강연	-3377
▁억제	-3378
▁즉각	-3379
▁엑스	-3380
▁최적	-3381
▁2017	-3382
▁낳	-3383
▁세부	-3384
▁상향	-3385
▁기대감	-3386
▁자국	-3387
▁폐쇄	-3388
▁면세	-3389
▁사망자	-3390
▁쓰레기	-3391
▁이중	-3392
▁공감	-3393
▁흉	-3394
▁표명	-3395
▁초점	-3396
▁아내	-3397
▁야구	-3398
▁브리핑	-3399
▁수리	-3400
▁76	-3401
▁사법	-3402
▁정밀	-3403
▁섭취	-3404
스티	-3405
▁박람	-3406
▁애플리케이션	-3407
▁편집	-3408
▁타임스	-3409
▁계산	-3410
▁지연	-3411
▁상용	-3412
▁서부	-3413
▁실행	-3414
▁소요	-3415
집트	-3416
▁떨어져	-3417
▁바란다고	-3418
▁이집트	-3419
▁턱	-3420
▁래	-3421
▁혹은	-3422
▁김치	-3423
▁조례	-3424
▁급락	-3425
▁진흥	-3426
▁네이버	-3427
▁공인	-3428
▁IC	-3429
▁파크	-3430
▁겨냥	-3431
▁식물	-3432
▁간단	-3433
▁목회	-3434
▁무상	-3435
▁플러스	-3436
▁88	-3437
▁78	-3438
▁외무	-3439
▁e	-3440
▁식당	-3441
사고	-3442
단지	-3443
▁원전	-3444
▁용인	-3445
▁잠재	-3446
▁단장	-3447
▁86	-3448
▁상품권	-3449
▁늘어날	-3450
▁기조	-3451
▁내릴	-3452
▁DM	-3453
▁일어	-3454
▁호남	-3455
▁연설	-3456
리티	-3457
▁아도	-3458
카오	-3459
▁69	-3460
▁교황	-3461
▁조만	-3462
▁71	-3463
▁아이디어	-3464
▁케이블	-3465
▁런던	-3466
▁산림	-3467
▁명품	-3468
▁예배	-3469
▁중순	-3470
▁바닥	-3471
▁펴	-3472
▁우리나라	-3473
▁뛰어	-3474
서트	-3475
▁돼지	-3476
▁스파	-3477
▁가공	-3478
▁메모	-3479
▁원유	-3480
▁높여	-3481
▁흑자	-3482
▁둘러싼	-3483
▁좁	-3484
▁배터리	-3485
▁의결	-3486
▁설문	-3487
▁백신	-3488
▁브라질	-3489
▁포스코	-3490
▁엄청	-3491
▁조만간	-3492
▁렉	-3493
▁출산	-3494
▁납부	-3495
▁블록	-3496
▁줄어든	-3497
▁나눔	-3498
▁선도	-3499
▁항공기	-3500
▁학부모	-3501
▁붕	-3502
▁94	-3503
▁부드	-3504
▁갑자기	-3505
▁누적	-3506
▁찬성	-3507
▁밴	-3508
▁맹	-3509
▁만약	-3510
▁유해	-3511
▁l	-3512
▁수지	-3513
▁위축	-3514
▁자회사	-3515
▁하우스	-3516
▁점포	-3517
▁승객	-3518
▁박람회	-3519
▁방어	-3520
▁대장	-3521
문화	-3522
▁끈	-3523
▁이뤄졌	-3524
▁폭탄	-3525
▁복귀	-3526
▁돌아가	-3527
▁원내	-3528
다가	-3529
▁법정	-3530
네시아	-3531
▁트리	-3532
▁경보	-3533
er	-3534
▁제네	-3535
▁세워	-3536
▁아르	-3537
▁서류	-3538
▁73	-3539
▁구호	-3540
▁가득	-3541
▁부각	-3542
▁리그	-3543
▁혼란	-3544
▁섬유	-3545
▁오프	-3546
▁세단	-3547
▁대사관	-3548
▁빗	-3549
▁81	-3550
▁사우디	-3551
▁출자	-3552
▁열렸	-3553
▁허리	-3554
▁뿌리	-3555
▁재배	-3556
▁진화	-3557
▁중공업	-3558
▁콘서트	-3559
▁경향	-3560
▁출마	-3561
▁동양	-3562
▁신장	-3563
▁명회	-3564
산업	-3565
▁완공	-3566
▁밸	-3567
▁이재	-3568
▁걸리	-3569
▁갈수록	-3570
▁초반	-3571
▁국민은행	-3572
▁문자	-3573
PG	-3574
▁동남	-3575
▁드라이	-3576
▁구청	-3577
▁대금	-3578
▁시가	-3579
▁주한	-3580
▁신체	-3581
▁고향	-3582
▁250	-3583
▁평양	-3584
▁수많	-3585
▁84	-3586
▁해졌	-3587
▁북측	-3588
▁논리	-3589
▁인도네시아	-3590
▁가시	-3591
▁근육	-3592
▁정원	-3593
▁상당히	-3594
▁항상	-3595
▁깔	-3596
▁종이	-3597
▁힘든	-3598
▁추첨	-3599
▁당뇨	-3600
▁토론회	-3601
▁여수	-3602
▁출력	-3603
▁화물	-3604
▁앙	-3605
▁농민	-3606
복지	-3607
▁사단	-3608
▁해킹	-3609
▁시인	-3610
▁경찰서	-3611
▁시중	-3612
▁생긴	-3613
▁텐	-3614
▁대주주	-3615
▁금강	-3616
▁마트	-3617
▁철학	-3618
▁83	-3619
▁차질	-3620
▁경찰청	-3621
▁이사회	-3622
▁치아	-3623
▁구상	-3624
바로	-3625
▁시상	-3626
▁만기	-3627
▁열차	-3628
른다	-3629
▁스카	-3630
▁기름	-3631
▁계좌	-3632
CC	-3633
▁고양	-3634
▁흔들	-3635
▁79	-3636
▁했었	-3637
▁점점	-3638
▁거대	-3639
▁폭염	-3640
▁마쳤	-3641
▁보전	-3642
▁피하	-3643
▁펜	-3644
▁웰	-3645
▁신중	-3646
▁900	-3647
▁녹색	-3648
▁입지	-3649
▁전공	-3650
▁도서관	-3651
▁공산	-3652
▁87	-3653
▁사무총장	-3654
▁적정	-3655
▁택지	-3656
▁복지부	-3657
▁지대	-3658
니까	-3659
▁깨끗	-3660
런스	-3661
▁이마트	-3662
▁응급	-3663
▁트렌드	-3664
▁경선	-3665
▁조명	-3666
▁용역	-3667
▁게시	-3668
▁철강	-3669
▁나노	-3670
▁융합	-3671
▁소화	-3672
▁남녀	-3673
▁해군	-3674
▁미칠	-3675
▁창립	-3676
▁감축	-3677
조합	-3678
▁일간	-3679
▁가전	-3680
▁상한	-3681
▁로써	-3682
▁형사	-3683
▁지도부	-3684
▁기다리	-3685
니어	-3686
▁동향	-3687
규직	-3688
▁난민	-3689
▁상당수	-3690
▁멕	-3691
▁흥원	-3692
▁상가	-3693
▁나타난	-3694
▁동맹	-3695
▁독특	-3696
▁동참	-3697
▁수백	-3698
▁게이머	-3699
▁시정	-3700
▁움직이	-3701
▁전후	-3702
▁묶	-3703
▁성경	-3704
▁분명히	-3705
▁고정	-3706
▁스피	-3707
▁최우	-3708
▁뷰	-3709
▁해명	-3710
단체	-3711
▁일환	-3712
▁기술력	-3713
▁스페인	-3714
▁추적	-3715
▁바꿔	-3716
▁올린	-3717
▁KTF	-3718
▁시티	-3719
▁해수	-3720
▁폭스	-3721
▁당첨	-3722
▁어울	-3723
▁대량	-3724
▁의존	-3725
▁비타	-3726
▁입원	-3727
▁빙	-3728
▁평년	-3729
▁대법	-3730
▁저축	-3731
▁82	-3732
▁그만큼	-3733
▁복음	-3734
▁프라이	-3735
▁시트	-3736
▁행정부	-3737
▁고발	-3738
▁션	-3739
▁경력	-3740
▁베스트	-3741
▁교정	-3742
▁약간	-3743
▁지난주	-3744
▁사업비	-3745
▁탄력	-3746
▁먼지	-3747
▁가리	-3748
연합	-3749
▁전제	-3750
▁복잡	-3751
▁국세청	-3752
▁사퇴	-3753
▁SM	-3754
▁몰려	-3755
▁샌	-3756
▁일까	-3757
▁재경	-3758
▁비리	-3759
▁프레	-3760
▁대행	-3761
▁램	-3762
▁가맹	-3763
▁났	-3764
▁조항	-3765
▁겁	-3766
▁소녀	-3767
▁칩	-3768
▁안개	-3769
르트	-3770
▁나아가	-3771
▁명확	-3772
▁증진	-3773
▁높였	-3774
▁의뢰	-3775
▁전선	-3776
▁무용	-3777
▁유력	-3778
▁경영자	-3779
▁단일	-3780
▁발달	-3781
▁판정	-3782
▁문화재	-3783
▁납치	-3784
▁회수	-3785
▁물건	-3786
▁전역	-3787
▁분당	-3788
▁대외	-3789
▁닭	-3790
▁이뤄진	-3791
▁타격	-3792
▁상공	-3793
▁돌입	-3794
▁CN	-3795
▁민감	-3796
▁의문	-3797
▁세종	-3798
▁일각	-3799
▁92	-3800
▁봐야	-3801
▁89	-3802
▁향해	-3803
▁양산	-3804
▁시급	-3805
▁보존	-3806
평균	-3807
▁중점	-3808
▁물러	-3809
▁g	-3810
▁안타	-3811
▁키우	-3812
▁전부	-3813
▁수렴	-3814
▁피아	-3815
▁똑	-3816
▁떠오	-3817
or	-3818
▁드리	-3819
시코	-3820
▁로드	-3821
▁딜	-3822
▁서해안	-3823
▁전기차	-3824
▁내비	-3825
▁개통	-3826
▁합격	-3827
▁구제	-3828
▁원활	-3829
▁사령	-3830
▁매물	-3831
▁해운	-3832
▁남해	-3833
▁대가	-3834
▁롤	-3835
▁유니	-3836
▁검출	-3837
▁소폭	-3838
▁입증	-3839
▁잊	-3840
▁보인	-3841
▁후속	-3842
▁태평양	-3843
▁오리	-3844
▁일반인	-3845
▁학과	-3846
▁금호	-3847
▁성장세	-3848
▁사무소	-3849
▁극대	-3850
▁개척	-3851
▁이어졌	-3852
▁스크	-3853
▁죽음	-3854
▁기증	-3855
▁유저	-3856
▁프라	-3857
▁차익	-3858
▁탄소	-3859
▁집권	-3860
키스탄	-3861
▁햇	-3862
▁핸	-3863
▁무시	-3864
▁상환	-3865
▁황사	-3866
▁모씨	-3867
▁여객	-3868
▁메일	-3869
▁면역	-3870
▁모드	-3871
▁강사	-3872
▁여의도	-3873
▁차기	-3874
▁의류	-3875
▁격차	-3876
로스	-3877
▁페이스북	-3878
▁신앙	-3879
▁투어	-3880
▁박스	-3881
▁스티	-3882
▁보육	-3883
▁지상파	-3884
▁NHN	-3885
▁전파	-3886
▁강경	-3887
▁면세점	-3888
▁노동당	-3889
▁흡수	-3890
▁93	-3891
데이	-3892
▁팔레스	-3893
▁팔레스타인	-3894
▁쏠	-3895
▁2018	-3896
▁재난	-3897
▁영남	-3898
▁춤	-3899
▁해진	-3900
고속	-3901
▁뼈	-3902
하우	-3903
▁함유	-3904
▁살펴보	-3905
▁공헌	-3906
▁상관	-3907
▁섹	-3908
▁훌	-3909
삼성	-3910
▁특보	-3911
▁보건복지	-3912
▁금감	-3913
▁쾌	-3914
▁재건축	-3915
▁휠	-3916
▁고도	-3917
▁배럴	-3918
▁칸	-3919
▁블로그	-3920
▁아예	-3921
▁할머니	-3922
▁밟	-3923
▁p	-3924
▁실력	-3925
▁거치	-3926
▁상처	-3927
▁두산	-3928
▁심화	-3929
▁일으키	-3930
▁저항	-3931
▁전담	-3932
▁모터쇼	-3933
친다	-3934
▁맞추	-3935
▁초래	-3936
▁성향	-3937
▁학자	-3938
지사	-3939
▁신화	-3940
▁도약	-3941
▁군수	-3942
▁노하우	-3943
▁부근	-3944
▁드러나	-3945
▁시세	-3946
▁설득	-3947
▁시군	-3948
▁내정	-3949
▁지침	-3950
▁장마	-3951
▁영향력	-3952
▁화성	-3953
▁사유	-3954
on	-3955
▁쥐	-3956
▁검진	-3957
▁떼	-3958
▁평창	-3959
▁묵	-3960
▁애니	-3961
▁아기	-3962
▁편안	-3963
나타	-3964
▁저소득	-3965
▁스러	-3966
▁숫	-3967
▁끝나	-3968
▁매달	-3969
▁야외	-3970
▁인텔	-3971
▁르노삼성	-3972
실험	-3973
▁갖춰	-3974
▁착용	-3975
▁이뤄질	-3976
▁환영	-3977
▁규칙	-3978
▁아웃	-3979
▁농림	-3980
▁돌려	-3981
▁여유	-3982
▁교실	-3983
▁매니	-3984
▁교육부	-3985
▁소외	-3986
▁멕시코	-3987
▁여러분	-3988
▁소스	-3989
▁고시	-3990
▁연락	-3991
▁마당	-3992
▁빌딩	-3993
DI	-3994
▁직전	-3995
▁입학	-3996
▁튀	-3997
▁전무	-3998
▁유전	-3999
▁지부	-4000
▁유형	-4001
▁약물	-4002
▁비디오	-4003
▁실종	-4004
BM	-4005
▁대대	-4006
▁교통부	-4007
▁선보일	-4008
▁놀이	-4009
스티벌	-4010
▁이론	-4011
▁소년	-4012
▁페스티벌	-4013
▁배상	-4014
▁공약	-4015
▁스키	-4016
로이드	-4017
▁고기압	-4018
▁승진	-4019
▁핵실험	-4020
▁놀라	-4021
▁증대	-4022
▁규명	-4023
▁당하	-4024
▁평생	-4025
▁역대	-4026
▁장학	-4027
▁CC	-4028
그레이드	-4029
▁업그레이드	-4030
▁하드	-4031
▁비타민	-4032
▁제조업	-4033
▁일자	-4034
▁과일	-4035
▁붕괴	-4036
▁내다봤	-4037
▁키워	-4038
▁벌어	-4039
▁계절	-4040
▁곧바로	-4041
▁맞이	-4042
스턴	-4043
▁호조	-4044
▁194	-4045
▁사양	-4046
▁경로	-4047
▁어려워	-4048
▁탑승	-4049
▁선보인	-4050
▁게재	-4051
▁학기	-4052
▁간접	-4053
▁축하	-4054
▁지향	-4055
▁달려	-4056
▁메르스	-4057
바다	-4058
▁테이	-4059
▁클린	-4060
▁박근	-4061
▁언론사	-4062
▁끝난	-4063
▁성남	-4064
▁극단	-4065
▁메모리	-4066
▁돋	-4067
▁관람객	-4068
▁커뮤니케이션	-4069
▁만화	-4070
▁중형	-4071
▁께서	-4072
▁유행	-4073
▁주체	-4074
▁숫자	-4075
▁순수	-4076
▁조지	-4077
▁즉시	-4078
▁단순히	-4079
다면	-4080
▁자제	-4081
▁보냈	-4082
▁임신	-4083
▁당일	-4084
▁기원	-4085
▁하락세	-4086
▁실수	-4087
▁덕분	-4088
▁조류	-4089
▁국경	-4090
▁그간	-4091
▁상상	-4092
▁모았	-4093
▁보건복지부	-4094
▁배포	-4095
▁감사원	-4096
▁습관	-4097
▁양상	-4098
▁제어	-4099
▁니까	-4100
▁통해서	-4101
▁보낸	-4102
▁개장	-4103
▁웨어	-4104
▁종료	-4105
▁책임자	-4106
▁이때	-4107
▁서구	-4108
▁멤	-4109
▁새해	-4110
ED	-4111
▁그때	-4112
정부	-4113
▁조각	-4114
▁뚜렷	-4115
스토	-4116
▁중계	-4117
▁처방	-4118
▁고등학교	-4119
▁못할	-4120
▁수능	-4121
▁닷컴	-4122
▁운항	-4123
▁심한	-4124
▁벌어지	-4125
▁줄여	-4126
▁완벽	-4127
교부	-4128
▁외신	-4129
▁위상	-4130
▁실용	-4131
▁단행	-4132
▁무더	-4133
▁연동	-4134
▁코스피	-4135
자원	-4136
▁선전	-4137
▁늘려	-4138
▁신학	-4139
▁급식	-4140
▁흡연	-4141
▁유아	-4142
▁도민	-4143
▁주기	-4144
▁내외	-4145
의자	-4146
▁철저히	-4147
▁배정	-4148
▁세무	-4149
교육	-4150
▁수학	-4151
▁선사	-4152
▁요원	-4153
▁마친	-4154
▁퇴직	-4155
▁도요타	-4156
▁당신	-4157
▁공제	-4158
▁들어오	-4159
▁지나치	-4160
▁DMB	-4161
▁카카오	-4162
▁발령	-4163
▁게다가	-4164
▁스토어	-4165
▁없애	-4166
▁매주	-4167
▁잠시	-4168
▁급속	-4169
▁문의	-4170
▁앞둔	-4171
▁아랍	-4172
▁멋	-4173
▁들어서	-4174
▁도청	-4175
▁착공	-4176
▁건교부	-4177
▁이기	-4178
▁전도	-4179
▁시선	-4180
버그	-4181
▁유의	-4182
▁캘	-4183
▁교과서	-4184
▁붉	-4185
▁짙	-4186
▁엄청난	-4187
▁백악	-4188
▁가질	-4189
트로	-4190
▁변수	-4191
▁여권	-4192
▁철회	-4193
▁마력	-4194
▁멈	-4195
▁원료	-4196
▁동북아	-4197
▁귀국	-4198
▁경품	-4199
▁커뮤니티	-4200
▁용량	-4201
▁인체	-4202
▁레드	-4203
▁수소	-4204
힌다	-4205
▁증명	-4206
▁김대	-4207
▁낮추	-4208
▁신약	-4209
▁안드	-4210
▁후반	-4211
▁한글	-4212
▁신선	-4213
▁부가	-4214
▁용지	-4215
▁더니	-4216
▁부산시	-4217
▁오피스	-4218
▁위생	-4219
▁셔야	-4220
게임	-4221
▁립	-4222
▁전세	-4223
▁어려울	-4224
페라	-4225
▁작동	-4226
▁2020	-4227
▁위탁	-4228
▁잉	-4229
▁박근혜	-4230
▁당했	-4231
▁김종	-4232
▁랜	-4233
▁듯이	-4234
▁케어	-4235
▁에이	-4236
▁골드	-4237
▁숨지	-4238
산시	-4239
▁강도	-4240
▁정하	-4241
▁사기	-4242
▁교도	-4243
▁증가세	-4244
▁만성	-4245
외선	-4246
▁단축	-4247
▁라이프	-4248
▁직무	-4249
▁프로세	-4250
▁골프장	-4251
▁옵션	-4252
os	-4253
▁다이어	-4254
▁준공	-4255
▁두드	-4256
▁듀	-4257
▁숨졌	-4258
바이	-4259
▁소지	-4260
▁스토리	-4261
▁용산	-4262
▁충족	-4263
▁중개	-4264
▁이민	-4265
본부	-4266
▁흘러	-4267
▁색상	-4268
▁섞	-4269
성장	-4270
▁한화	-4271
▁연예	-4272
▁백악관	-4273
▁반박	-4274
▁아우디	-4275
▁오브	-4276
▁공포	-4277
▁일요일	-4278
▁물품	-4279
▁굿	-4280
▁스위스	-4281
▁요건	-4282
▁국면	-4283
▁따로	-4284
심히	-4285
▁수시	-4286
▁연관	-4287
▁종전	-4288
▁느냐는	-4289
▁조화	-4290
▁앵	-4291
▁싼	-4292
▁혼자	-4293
▁공통	-4294
▁앓	-4295
▁허위	-4296
연구	-4297
▁레이저	-4298
▁지리	-4299
▁수산	-4300
▁한도	-4301
▁에서부터	-4302
▁공동체	-4303
▁락	-4304
▁견해	-4305
▁수질	-4306
▁1500	-4307
▁몬	-4308
▁중구	-4309
▁주차장	-4310
▁으므로	-4311
▁자민	-4312
자치	-4313
▁공정위	-4314
▁멜	-4315
셉트	-4316
디션	-4317
▁벌여	-4318
▁건의	-4319
▁앞장	-4320
▁진실	-4321
▁트위	-4322
▁살해	-4323
▁결코	-4324
▁올라가	-4325
▁누가	-4326
▁연다	-4327
▁쉐	-4328
▁영장	-4329
▁감각	-4330
▁동료	-4331
▁외환은행	-4332
▁재판부	-4333
▁닛	-4334
▁금속	-4335
가락	-4336
▁장악	-4337
▁리스크	-4338
▁밝혀졌	-4339
▁미술관	-4340
▁소셜	-4341
▁인류	-4342
▁창원	-4343
▁예전	-4344
▁깊이	-4345
▁갤러리	-4346
▁복제	-4347
▁적립	-4348
▁맞서	-4349
▁관점	-4350
주시	-4351
▁산업단지	-4352
▁노후	-4353
▁건전	-4354
▁공고	-4355
▁동남아	-4356
▁호전	-4357
▁상생	-4358
▁전일	-4359
센터	-4360
▁전당	-4361
▁강수	-4362
▁유학	-4363
▁당한	-4364
▁응답자	-4365
▁득	-4366
▁우위	-4367
▁감동	-4368
▁찾아가	-4369
▁부패	-4370
▁195	-4371
▁틈	-4372
▁반군	-4373
▁세제	-4374
▁이주	-4375
자부	-4376
▁핀	-4377
▁스탠	-4378
▁컸	-4379
▁재경부	-4380
사업	-4381
▁수상자	-4382
▁정수	-4383
▁집값	-4384
▁페이지	-4385
▁핑	-4386
▁마크	-4387
▁병행	-4388
▁재생	-4389
▁남쪽	-4390
▁조합원	-4391
▁주소	-4392
▁담긴	-4393
▁오페라	-4394
▁만남	-4395
▁포르	-4396
▁원래	-4397
▁가이드	-4398
▁중학교	-4399
▁목숨	-4400
▁과연	-4401
▁여서	-4402
▁관찰	-4403
▁달한다	-4404
▁차장	-4405
▁민주주의	-4406
▁고문	-4407
▁된다면	-4408
▁내장	-4409
▁발주	-4410
퍼런스	-4411
▁로스	-4412
▁은데	-4413
▁개발자	-4414
▁일방	-4415
▁호응	-4416
▁냄	-4417
▁끌어올	-4418
▁아무런	-4419
▁조심	-4420
▁납품	-4421
▁행진	-4422
▁등지	-4423
in	-4424
▁추락	-4425
란히	-4426
▁발전소	-4427
▁빠지	-4428
▁든지	-4429
▁양식	-4430
▁주사	-4431
▁모기	-4432
▁최소한	-4433
▁방해	-4434
▁연맹	-4435
타운	-4436
▁과학자	-4437
생활	-4438
▁선교사	-4439
▁업소	-4440
▁군인	-4441
▁경기장	-4442
▁대법원	-4443
▁명절	-4444
▁타결	-4445
레인	-4446
▁수영	-4447
▁일원	-4448
▁열정	-4449
▁가계	-4450
바겐	-4451
▁포트	-4452
▁재원	-4453
▁요양	-4454
▁주류	-4455
▁교섭	-4456
▁댄	-4457
▁책정	-4458
▁프린	-4459
▁코너	-4460
▁재고	-4461
▁부자	-4462
져야	-4463
▁회원국	-4464
▁덮	-4465
▁트위터	-4466
▁폭스바겐	-4467
▁눈물	-4468
▁수신	-4469
▁주위	-4470
▁라디오	-4471
▁원천	-4472
▁소수	-4473
▁진보	-4474
▁진전	-4475
▁부활	-4476
▁센서	-4477
▁저널	-4478
▁교통사고	-4479
▁멸	-4480
▁불량	-4481
▁더위	-4482
▁아프간	-4483
▁격려	-4484
▁내각	-4485
▁겁니다	-4486
▁야생	-4487
▁특화	-4488
▁이식	-4489
▁뜨거운	-4490
▁출근	-4491
▁신입	-4492
제품	-4493
▁1999	-4494
▁어깨	-4495
▁주자	-4496
▁간편	-4497
▁시원	-4498
▁항의	-4499
▁운송	-4500
▁나선다	-4501
▁왜곡	-4502
▁화합	-4503
운동	-4504
▁전송	-4505
▁바라보	-4506
▁전액	-4507
▁용기	-4508
▁노트북	-4509
▁단백	-4510
▁형제	-4511
상부	-4512
▁시달	-4513
▁겹	-4514
▁서초	-4515
▁1990	-4516
메일	-4517
▁소음	-4518
▁받아들이	-4519
▁원리	-4520
▁소매	-4521
▁넥슨	-4522
▁화이트	-4523
▁중도	-4524
모션	-4525
▁철수	-4526
▁널리	-4527
▁하향	-4528
▁면접	-4529
▁리콜	-4530
▁연습	-4531
러지	-4532
▁토크	-4533
▁징역	-4534
소시	-4535
▁한강	-4536
▁메인	-4537
▁포스트	-4538
▁오름	-4539
▁명칭	-4540
▁농장	-4541
▁표정	-4542
▁멤버	-4543
▁모니터링	-4544
▁130	-4545
▁이른다	-4546
▁지요	-4547
▁육군	-4548
▁담당자	-4549
▁파키스탄	-4550
▁혈관	-4551
▁디자이너	-4552
▁트럭	-4553
▁모자	-4554
▁열심히	-4555
▁주부	-4556
▁공세	-4557
▁가솔	-4558
▁면제	-4559
▁치러	-4560
▁전산	-4561
▁수여	-4562
▁감성	-4563
▁밴드	-4564
▁가솔린	-4565
▁통신사	-4566
▁액션	-4567
▁강점	-4568
▁심하	-4569
너스	-4570
▁높일	-4571
▁넘어섰	-4572
▁떠올	-4573
▁창작	-4574
▁다이어트	-4575
▁항공사	-4576
▁막대	-4577
▁강좌	-4578
시마	-4579
베이	-4580
▁유료	-4581
▁다운로드	-4582
▁기법	-4583
▁딱	-4584
▁터치	-4585
▁쏘나타	-4586
▁사업장	-4587
▁밀려	-4588
구역	-4589
▁발병	-4590
▁프로모션	-4591
▁신라	-4592
▁이메일	-4593
▁복용	-4594
▁지위	-4595
▁탈모	-4596
▁갖췄	-4597
무기	-4598
▁치솟	-4599
▁발간	-4600
▁숨진	-4601
▁연내	-4602
▁랜드	-4603
▁지닌	-4604
▁웅	-4605
▁말레이	-4606
▁탈레	-4607
▁엄격	-4608
▁b	-4609
▁거두	-4610
▁주당	-4611
▁별로	-4612
간다	-4613
매도	-4614
▁김성	-4615
▁취급	-4616
▁편지	-4617
▁판교	-4618
▁석방	-4619
▁탈레반	-4620
▁다루	-4621
▁조세	-4622
▁엇	-4623
▁대목	-4624
▁당국자	-4625
▁서식	-4626
▁임무	-4627
▁전월	-4628
▁심해	-4629
▁하이닉스	-4630
▁치매	-4631
▁헬스	-4632
▁교단	-4633
▁아카	-4634
▁만주	-4635
▁수면	-4636
▁에다	-4637
▁둘째	-4638
▁일종	-4639
▁단백질	-4640
▁웨이	-4641
▁최악	-4642
▁해질	-4643
▁츠	-4644
▁경영진	-4645
▁청정	-4646
▁신종	-4647
▁공천	-4648
▁질서	-4649
▁닥	-4650
▁레저	-4651
▁안보리	-4652
▁공군	-4653
▁행보	-4654
▁자라	-4655
▁푸드	-4656
▁삭제	-4657
▁장식	-4658
▁각별	-4659
EC	-4660
▁독점	-4661
▁촌	-4662
▁뱅크	-4663
▁쟁점	-4664
▁면담	-4665
▁한국은행	-4666
퍼스	-4667
▁일관	-4668
▁파티	-4669
욕장	-4670
▁별다른	-4671
▁동결	-4672
▁특파	-4673
▁110	-4674
▁콤	-4675
▁포스	-4676
▁수천	-4677
▁그래픽	-4678
▁시너지	-4679
▁강행	-4680
▁원내대표	-4681
▁ha	-4682
지어	-4683
호텔	-4684
▁소식통	-4685
▁잦	-4686
▁리조	-4687
▁HD	-4688
▁패턴	-4689
▁대륙	-4690
▁남해안	-4691
▁특파원	-4692
▁패널	-4693
▁중고차	-4694
▁벌써	-4695
리포	-4696
▁강남구	-4697
▁방치	-4698
▁가맹점	-4699
▁편입	-4700
▁암호	-4701
▁끊임	-4702
▁청문	-4703
▁탄핵	-4704
▁한방	-4705
▁감지	-4706
▁똑같	-4707
▁분산	-4708
▁우유	-4709
위원	-4710
▁경유	-4711
▁추산	-4712
▁수위	-4713
▁소환	-4714
▁최상	-4715
▁무슨	-4716
▁방통	-4717
▁비행기	-4718
80	-4719
▁학위	-4720
OS	-4721
▁방위	-4722
▁정서	-4723
▁거점	-4724
▁보좌	-4725
다수	-4726
▁특별법	-4727
▁말레이시아	-4728
▁헤드	-4729
▁한지	-4730
▁감상	-4731
he	-4732
▁인플	-4733
▁대원	-4734
▁180	-4735
▁저하	-4736
▁담겨	-4737
▁룸	-4738
▁만날	-4739
디아	-4740
대문	-4741
▁양도	-4742
▁산불	-4743
▁CD	-4744
들이	-4745
▁바르	-4746
▁응원	-4747
▁금연	-4748
트리	-4749
▁사역	-4750
▁대수	-4751
▁그럼	-4752
▁상원	-4753
▁썼	-4754
▁줄일	-4755
권자	-4756
▁내내	-4757
▁유연	-4758
▁소중	-4759
▁조리	-4760
▁생겨	-4761
▁고지	-4762
▁지명	-4763
▁배달	-4764
▁네오	-4765
▁냐고	-4766
▁리더십	-4767
▁구도	-4768
▁명단	-4769
▁리조트	-4770
▁이산	-4771
▁폐기물	-4772
▁표면	-4773
▁발레	-4774
▁지불	-4775
▁입국	-4776
▁즐거	-4777
▁느냐고	-4778
사이	-4779
▁안드로이드	-4780
▁IM	-4781
▁토요일	-4782
▁그랜드	-4783
▁과목	-4784
▁땀	-4785
▁ap	-4786
▁창의	-4787
▁예년	-4788
소시엄	-4789
▁받아들여	-4790
▁컨소시엄	-4791
▁구하	-4792
받침	-4793
▁채무	-4794
▁그려	-4795
▁당사자	-4796
▁휘발	-4797
▁소니	-4798
▁일치	-4799
▁금강산	-4800
▁산간	-4801
▁고수	-4802
▁아무리	-4803
▁장르	-4804
▁역임	-4805
▁한우	-4806
▁들어갈	-4807
▁팽	-4808
▁아닐	-4809
▁무너	-4810
▁평택	-4811
▁순매도	-4812
▁크루	-4813
▁타운	-4814
▁SBS	-4815
▁오프라인	-4816
▁배려	-4817
▁풍경	-4818
▁록	-4819
▁휩	-4820
▁중반	-4821
▁숙박	-4822
▁척추	-4823
페이스	-4824
▁스튜	-4825
▁고조	-4826
▁부도	-4827
▁개시	-4828
▁팝	-4829
TN	-4830
▁증세	-4831
▁감면	-4832
▁당기	-4833
▁부스	-4834
▁번역	-4835
▁참고	-4836
PS	-4837
▁흰	-4838
▁사흘	-4839
▁병력	-4840
▁비정	-4841
▁공익	-4842
▁파병	-4843
▁타워	-4844
▁건너	-4845
▁어치	-4846
▁영토	-4847
▁라인업	-4848
▁휴식	-4849
▁흔히	-4850
NS	-4851
랍니다	-4852
▁궤	-4853
▁다행	-4854
▁증자	-4855
▁apos	-4856
▁꼽히	-4857
▁참석자	-4858
주군	-4859
▁출하	-4860
▁벼	-4861
▁뒷받침	-4862
▁신분	-4863
메이션	-4864
은이	-4865
▁좌우	-4866
▁출전	-4867
▁원화	-4868
▁시위대	-4869
▁송파	-4870
▁주름	-4871
▁세일	-4872
▁수험	-4873
▁꼼	-4874
▁시공	-4875
▁그리스도	-4876
▁하천	-4877
▁신부	-4878
▁입력	-4879
▁우울	-4880
▁용도	-4881
NA	-4882
▁일선	-4883
▁고서	-4884
▁사라지	-4885
▁세웠	-4886
▁공업	-4887
▁부탁	-4888
▁핵무기	-4889
▁접종	-4890
▁무릎	-4891
▁부착	-4892
▁세월	-4893
▁비서관	-4894
▁벌금	-4895
▁올바	-4896
▁랩	-4897
▁재계	-4898
▁음주	-4899
▁세련	-4900
▁IBM	-4901
▁덩	-4902
▁장로	-4903
▁권위	-4904
▁덴	-4905
▁기분	-4906
▁자외선	-4907
▁샘	-4908
▁가벼	-4909
▁사내	-4910
▁퓨	-4911
▁아쉬	-4912
▁싸움	-4913
▁주유	-4914
▁흥미	-4915
▁재해	-4916
▁크리스마스	-4917
▁철거	-4918
▁1998	-4919
▁대립	-4920
▁이종	-4921
▁골자	-4922
▁탐사	-4923
▁럭	-4924
▁사후	-4925
▁클래식	-4926
▁진술	-4927
▁읍	-4928
▁신축	-4929
▁매수세	-4930
▁접목	-4931
▁매월	-4932
▁민영	-4933
▁체감	-4934
DP	-4935
▁포도	-4936
놀이	-4937
▁레벨	-4938
▁쉬운	-4939
▁종로	-4940
▁지능	-4941
▁시속	-4942
▁필립	-4943
▁줘야	-4944
▁열릴	-4945
▁대해선	-4946
▁방학	-4947
▁대표단	-4948
▁조속	-4949
▁심지어	-4950
▁디스크	-4951
▁인질	-4952
▁에게서	-4953
▁정통부	-4954
▁이뤄지지	-4955
바지	-4956
▁회의실	-4957
▁대단	-4958
▁MP	-4959
▁의료진	-4960
▁존중	-4961
▁확신	-4962
▁타당	-4963
▁동작	-4964
▁수송	-4965
▁명의	-4966
▁드러내	-4967
▁급격히	-4968
▁승부	-4969
▁린	-4970
▁변신	-4971
▁엉	-4972
주얼	-4973
▁징계	-4974
▁후쿠	-4975
톨릭	-4976
▁자발	-4977
▁비싼	-4978
▁성도	-4979
▁면허	-4980
▁교원	-4981
▁근처	-4982
▁들려	-4983
말로	-4984
▁생산량	-4985
▁판사	-4986
▁법무부	-4987
MC	-4988
▁중국인	-4989
▁원대	-4990
▁다녀	-4991
▁모금	-4992
▁꾼	-4993
▁찌	-4994
▁신형	-4995
▁회동	-4996
▁중복	-4997
▁대구시	-4998
▁구미	-4999
▁조용	-5000
▁국악	-5001
▁대다수	-5002
▁고소	-5003
▁김포	-5004
▁인테	-5005
▁자칫	-5006
▁뭐	-5007
▁피로	-5008
▁부적	-5009
▁거친	-5010
▁재발	-5011
▁중독	-5012
▁비자	-5013
▁생계	-5014
▁음식점	-5015
▁궁금	-5016
▁공기업	-5017
▁정치인	-5018
▁셰	-5019
▁비정규직	-5020
▁저소득층	-5021
웍스	-5022
▁모은	-5023
▁옹	-5024
▁성폭	-5025
▁댐	-5026
▁관행	-5027
▁방한	-5028
▁혈압	-5029
▁산정	-5030
▁통행	-5031
▁두려	-5032
▁한데	-5033
▁영입	-5034
▁대결	-5035
▁일본인	-5036
▁광주시	-5037
▁특유	-5038
총액	-5039
▁캡	-5040
▁분포	-5041
▁시가총액	-5042
▁방송사	-5043
▁추출	-5044
▁캔	-5045
▁약품	-5046
▁채취	-5047
▁YTN	-5048
▁부양	-5049
▁출간	-5050
▁울릉	-5051
▁로마	-5052
▁바랍니다	-5053
▁응모	-5054
▁분할	-5055
▁벌인	-5056
▁허브	-5057
▁파문	-5058
핵화	-5059
▁도달	-5060
▁고가	-5061
수수	-5062
▁비핵화	-5063
▁202	-5064
▁진영	-5065
▁돋보	-5066
▁앨범	-5067
▁유용	-5068
▁소나	-5069
▁길이	-5070
▁대답	-5071
레이션	-5072
▁명성	-5073
뜨리	-5074
▁단어	-5075
▁상인	-5076
▁군부	-5077
▁수당	-5078
▁편의점	-5079
▁단체장	-5080
▁중재	-5081
▁무관	-5082
▁크림	-5083
▁로비	-5084
어도	-5085
▁리비아	-5086
▁일어난	-5087
▁잠정	-5088
▁약화	-5089
▁합작	-5090
▁스크린	-5091
▁체크	-5092
리포니아	-5093
▁캘리포니아	-5094
스키	-5095
▁포드	-5096
▁체육관	-5097
▁떡	-5098
▁시상식	-5099
▁시신	-5100
▁요법	-5101
▁공영	-5102
▁야간	-5103
천시	-5104
▁스케	-5105
▁킹	-5106
▁랑	-5107
▁살인	-5108
▁슬로	-5109
▁클린턴	-5110
▁냄새	-5111
▁씻	-5112
▁국무부	-5113
▁백만	-5114
▁가톨릭	-5115
▁닫	-5116
▁이성	-5117
▁식량	-5118
▁정확히	-5119
▁삽	-5120
▁권역	-5121
▁정동	-5122
▁기에	-5123
미디어	-5124
▁선포	-5125
▁발매	-5126
▁엔지	-5127
▁플라	-5128
▁190	-5129
▁기울이	-5130
▁추모	-5131
▁이영	-5132
▁이정	-5133
르크	-5134
▁컵	-5135
▁해수욕장	-5136
▁명시	-5137
▁텀	-5138
▁사물	-5139
▁유산	-5140
▁유방	-5141
▁라이브	-5142
▁오를	-5143
▁일제히	-5144
▁350	-5145
▁위안부	-5146
관광	-5147
▁다섯	-5148
▁논쟁	-5149
▁몰리	-5150
▁젠	-5151
▁스웨	-5152
▁쏟아지	-5153
외과	-5154
▁상금	-5155
▁수분	-5156
▁호르	-5157
▁김태	-5158
▁앞당	-5159
es	-5160
▁공조	-5161
▁모발	-5162
▁그냥	-5163
▁곰	-5164
▁도구	-5165
▁생겼	-5166
▁불거	-5167
▁둘러싸	-5168
▁심판	-5169
개발	-5170
▁당내	-5171
▁등산	-5172
▁인테리어	-5173
▁됐으나	-5174
▁인명	-5175
르기	-5176
▁방역	-5177
▁고전	-5178
▁보건소	-5179
▁실리	-5180
▁조율	-5181
▁국적	-5182
▁내려가	-5183
▁체중	-5184
▁웃돌	-5185
▁사학	-5186
▁상정	-5187
▁만났	-5188
▁플래시	-5189
▁연세대	-5190
an	-5191
▁조종	-5192
▁시설물	-5193
▁웍스	-5194
▁획기	-5195
▁남아	-5196
병원	-5197
아지	-5198
▁둥	-5199
▁축산	-5200
▁도덕	-5201
▁대국	-5202
▁내놨	-5203
▁터널	-5204
▁여파	-5205
십자	-5206
▁입사	-5207
▁고성	-5208
라고	-5209
▁유권자	-5210
▁동성	-5211
▁d	-5212
으로	-5213
▁협업	-5214
▁끝내	-5215
▁금감원	-5216
▁감기	-5217
▁차체	-5218
▁콘셉트	-5219
▁고대	-5220
▁변하	-5221
▁황금	-5222
▁모레	-5223
▁진상	-5224
▁원자재	-5225
▁매니저	-5226
▁엘리	-5227
▁국무총리	-5228
▁장사	-5229
▁출석	-5230
▁캠퍼스	-5231
▁항만	-5232
▁깜	-5233
▁이력	-5234
▁세탁	-5235
▁과감	-5236
▁화폐	-5237
▁제네시스	-5238
▁띠	-5239
▁시행령	-5240
▁1997	-5241
▁얼음	-5242
▁엇갈	-5243
▁감자	-5244
▁빠진	-5245
▁되찾	-5246
▁중립	-5247
▁양해	-5248
▁140	-5249
▁흐르	-5250
▁안심	-5251
▁통장	-5252
▁어떠	-5253
▁배송	-5254
▁동포	-5255
▁가난	-5256
▁해역	-5257
▁호기	-5258
▁온실	-5259
▁틱	-5260
브로	-5261
▁미국인	-5262
덜란드	-5263
▁떠오르	-5264
▁벤츠	-5265
미터	-5266
▁지내	-5267
▁재활	-5268
▁부담금	-5269
▁열풍	-5270
▁MM	-5271
▁치과	-5272
▁버튼	-5273
▁네덜란드	-5274
▁소문	-5275
▁쿠폰	-5276
▁나타날	-5277
▁뮤직	-5278
▁휘발유	-5279
▁서쪽	-5280
▁유망	-5281
▁붙잡	-5282
▁사인	-5283
▁동구	-5284
▁만만	-5285
▁끄	-5286
▁튜	-5287
▁지목	-5288
▁조짐	-5289
▁세요	-5290
▁엑스포	-5291
▁벅	-5292
널드	-5293
▁양자	-5294
▁군대	-5295
▁오랫	-5296
▁과열	-5297
▁선두	-5298
▁공중	-5299
▁예외	-5300
▁공습	-5301
▁수록	-5302
▁집안	-5303
▁재미있	-5304
▁청문회	-5305
▁입시	-5306
▁통하	-5307
▁찰	-5308
▁공직	-5309
▁대피	-5310
▁국지	-5311
기부	-5312
▁에어컨	-5313
▁마비	-5314
▁출국	-5315
▁넘어서	-5316
▁유효	-5317
▁적응	-5318
▁세이	-5319
▁웰빙	-5320
▁윌	-5321
속기	-5322
▁로켓	-5323
▁되돌	-5324
▁마라	-5325
번에	-5326
▁김해	-5327
▁진로	-5328
▁서양	-5329
▁살려	-5330
▁악재	-5331
▁생성	-5332
▁횟	-5333
▁밀리	-5334
▁인접	-5335
바람	-5336
▁포괄	-5337
▁지법	-5338
▁1980	-5339
스트라	-5340
▁당뇨병	-5341
▁서귀	-5342
▁한파	-5343
조건	-5344
▁닛산	-5345
▁용의자	-5346
▁가중	-5347
▁오가	-5348
▁이를	-5349
▁재직	-5350
▁열기	-5351
▁제조사	-5352
▁북쪽	-5353
FP	-5354
▁터보	-5355
▁업자	-5356
▁여름철	-5357
▁빈곤	-5358
▁추억	-5359
▁전지	-5360
▁보여준다	-5361
▁직장인	-5362
▁연예인	-5363
▁웃음	-5364
▁장학금	-5365
▁대지	-5366
▁160	-5367
▁뚫	-5368
▁국채	-5369
▁원고	-5370
▁넘치	-5371
▁스카이	-5372
▁모듈	-5373
▁체납	-5374
▁체인	-5375
▁아닌가	-5376
▁입구	-5377
▁센트	-5378
40	-5379
▁첫날	-5380
▁총액	-5381
▁긴밀	-5382
▁김정일	-5383
▁통일부	-5384
▁전시장	-5385
▁금요일	-5386
▁자신감	-5387
▁마약	-5388
피아	-5389
▁료	-5390
▁강수량	-5391
▁살아가	-5392
▁중견	-5393
▁학계	-5394
▁플레이어	-5395
▁가하	-5396
나마	-5397
▁영광	-5398
▁서귀포	-5399
천군	-5400
▁화장실	-5401
▁오랫동안	-5402
▁결의안	-5403
▁알아보	-5404
▁올바른	-5405
▁범행	-5406
▁소나기	-5407
▁유족	-5408
▁젖	-5409
▁메가	-5410
▁느낀	-5411
▁김재	-5412
▁캄	-5413
90	-5414
▁꼴	-5415
▁돌리	-5416
▁스튜디오	-5417
▁톡	-5418
▁확률	-5419
▁연도	-5420
▁시계	-5421
▁사로	-5422
렉스	-5423
▁콜라	-5424
▁외교통	-5425
▁소득세	-5426
▁거세	-5427
미널	-5428
▁꼽힌다	-5429
▁관광지	-5430
▁한창	-5431
▁호르몬	-5432
▁공주	-5433
▁분노	-5434
▁상실	-5435
▁앵커	-5436
▁평등	-5437
▁도중	-5438
▁무산	-5439
▁탁월	-5440
▁소아	-5441
▁가끔	-5442
▁지켜보	-5443
셔널	-5444
▁공청	-5445
▁들이	-5446
▁호우	-5447
▁이승	-5448
▁이모	-5449
▁불황	-5450
▁LED	-5451
▁당선자	-5452
▁믿음	-5453
발전	-5454
▁시나	-5455
▁애니메이션	-5456
▁음반	-5457
▁인데요	-5458
▁s	-5459
루엔	-5460
▁사찰	-5461
▁곁	-5462
▁정세	-5463
▁우호	-5464
▁위장	-5465
▁아사	-5466
▁탕	-5467
▁창구	-5468
▁무력	-5469
▁넘겨	-5470
▁동화	-5471
▁낙찰	-5472
▁몽골	-5473
워드	-5474
▁는다면	-5475
▁젊은이	-5476
▁절약	-5477
▁수년	-5478
▁특구	-5479
▁주공	-5480
▁HP	-5481
▁그래도	-5482
▁낚	-5483
▁여지	-5484
▁가려	-5485
수기	-5486
▁만족도	-5487
▁멀티미디어	-5488
▁육박	-5489
▁스페	-5490
▁클래스	-5491
▁이수	-5492
▁내역	-5493
▁게시판	-5494
▁문구	-5495
▁챔	-5496
▁정성	-5497
▁정례	-5498
▁알레	-5499
▁실효	-5500
▁US	-5501
▁걸음	-5502
▁가해	-5503
▁축적	-5504
로운	-5505
▁냉장	-5506
▁외교통상부	-5507
▁고속도	-5508
10	-5509
▁하원	-5510
▁탱	-5511
▁전문의	-5512
▁징수	-5513
▁이끄	-5514
▁조회	-5515
▁강력히	-5516
▁일산	-5517
▁정작	-5518
▁유대	-5519
주택	-5520
▁고구	-5521
▁걸려	-5522
▁자식	-5523
▁희생자	-5524
▁전방	-5525
▁지원금	-5526
▁가게	-5527
러진	-5528
▁거짓	-5529
▁였으며	-5530
▁쫓	-5531
▁시청자	-5532
▁연봉	-5533
▁논술	-5534
▁형편	-5535
▁터미널	-5536
▁될지	-5537
▁떨어질	-5538
▁양극	-5539
언스	-5540
▁수혜	-5541
▁반전	-5542
▁원격	-5543
▁엔지니어	-5544
▁관할	-5545
▁배기	-5546
al	-5547
▁쓰이	-5548
▁청산	-5549
▁노벨	-5550
▁왼	-5551
▁영웅	-5552
▁행사장	-5553
▁우회	-5554
▁아우	-5555
북자	-5556
▁치유	-5557
▁오해	-5558
기금	-5559
▁재래	-5560
▁여겨	-5561
▁성사	-5562
▁동네	-5563
▁화상	-5564
▁룩	-5565
▁걸렸	-5566
▁국고	-5567
▁전격	-5568
로리	-5569
▁중지	-5570
▁유치원	-5571
▁누리꾼	-5572
60	-5573
▁소주	-5574
▁프랜	-5575
▁행장	-5576
▁개헌	-5577
▁앞세	-5578
▁소위	-5579
▁방북	-5580
▁각자	-5581
▁로버	-5582
▁리터	-5583
▁객관	-5584
다리	-5585
▁아메	-5586
▁구성원	-5587
▁당정	-5588
▁360	-5589
▁픽	-5590
▁다채	-5591
70	-5592
▁아산	-5593
경제	-5594
▁경위	-5595
고리	-5596
▁충실	-5597
▁드림	-5598
▁생길	-5599
▁금품	-5600
▁전경	-5601
▁양사	-5602
▁목격	-5603
▁헤어	-5604
▁미흡	-5605
▁챙기	-5606
▁앞장서	-5607
▁f	-5608
▁김진	-5609
▁통신부	-5610
▁마사	-5611
▁올릴	-5612
테크	-5613
▁지검	-5614
▁SNS	-5615
▁총무	-5616
▁적어도	-5617
▁딜러	-5618
▁고장	-5619
▁뒤늦	-5620
▁공방	-5621
▁리모	-5622
서스	-5623
▁하수	-5624
▁스페셜	-5625
▁SD	-5626
▁한류	-5627
▁채소	-5628
▁박차	-5629
▁목포	-5630
▁유상	-5631
▁심포	-5632
루엔자	-5633
▁파이낸	-5634
▁모터스	-5635
드름	-5636
▁경관	-5637
▁당원	-5638
▁몰아	-5639
▁인플루엔자	-5640
▁보좌관	-5641
▁프레스	-5642
▁산지	-5643
▁활약	-5644
▁동서	-5645
▁적당	-5646
▁압도	-5647
▁OS	-5648
플레이션	-5649
▁확고	-5650
▁전염	-5651
▁결함	-5652
▁우량	-5653
▁관내	-5654
▁드러냈	-5655
▁꺾	-5656
▁꼼꼼	-5657
▁표기	-5658
▁강풍	-5659
▁포착	-5660
▁구동	-5661
기술	-5662
▁즐거움	-5663
로지	-5664
체인	-5665
엑스	-5666
▁개관	-5667
시간	-5668
▁브레이	-5669
▁지지율	-5670
▁무조건	-5671
▁합성	-5672
▁영서	-5673
▁인천시	-5674
▁종사자	-5675
약청	-5676
▁고속도로	-5677
▁발송	-5678
▁마일	-5679
▁뛰어나	-5680
▁식약청	-5681
▁어우	-5682
▁뉴타운	-5683
▁공청회	-5684
▁선착	-5685
▁고려대	-5686
▁스프	-5687
▁이례	-5688
▁노동조합	-5689
교통	-5690
▁가방	-5691
▁캐피	-5692
▁훌륭	-5693
▁교역	-5694
▁일찍	-5695
▁한중	-5696
▁메디	-5697
▁이뤄지고	-5698
시장	-5699
▁지낸	-5700
▁감독원	-5701
▁종일	-5702
▁관해	-5703
연히	-5704
월드	-5705
▁파장	-5706
▁걸린	-5707
▁중시	-5708
▁리스	-5709
▁캐주얼	-5710
▁온실가스	-5711
▁한꺼	-5712
▁한꺼번에	-5713
▁작곡	-5714
▁잡지	-5715
다니	-5716
▁어린이집	-5717
▁입점	-5718
▁신흥	-5719
▁스토리지	-5720
마크	-5721
DA	-5722
▁신사	-5723
▁옮기	-5724
라리	-5725
▁나간	-5726
▁쇄	-5727
▁반기	-5728
▁마스크	-5729
▁여사	-5730
▁거기	-5731
▁도모	-5732
▁어른	-5733
▁다가오	-5734
▁사립	-5735
키아	-5736
▁호흡기	-5737
▁출원	-5738
▁비싸	-5739
▁민생	-5740
▁격리	-5741
▁휴양	-5742
▁진행할	-5743
▁실사	-5744
▁서기	-5745
▁호수	-5746
▁탈출	-5747
▁한마	-5748
▁재벌	-5749
▁노동부	-5750
▁바닷	-5751
▁신발	-5752
▁합류	-5753
▁공화국	-5754
▁회전	-5755
센티브	-5756
▁인센티브	-5757
▁청계	-5758
▁극심	-5759
▁출장	-5760
▁겉	-5761
▁야후	-5762
▁측근	-5763
▁보강	-5764
▁싸이	-5765
▁스타트	-5766
▁가짜	-5767
▁Δ	-5768
▁MB	-5769
▁분담	-5770
▁어선	-5771
▁코트	-5772
▁사각	-5773
▁끼리	-5774
▁걸어	-5775
▁나중	-5776
▁IPTV	-5777
▁무인	-5778
▁비트	-5779
위원회	-5780
▁의상	-5781
▁cc	-5782
▁톱	-5783
▁외면	-5784
지능	-5785
▁정국	-5786
▁염두	-5787
▁기해	-5788
▁공직자	-5789
▁며칠	-5790
사스	-5791
▁초콜	-5792
블릿	-5793
▁유럽연합	-5794
▁나스	-5795
▁겨울철	-5796
▁도발	-5797
▁스웨덴	-5798
에도	-5799
▁인공지능	-5800
▁지니	-5801
▁차관보	-5802
▁유선	-5803
▁에겐	-5804
▁양호	-5805
▁가볍	-5806
▁염증	-5807
▁한국어	-5808
▁오름세	-5809
▁외관	-5810
▁연평균	-5811
▁세운	-5812
ar	-5813
▁댄스	-5814
▁분열	-5815
▁과다	-5816
▁평형	-5817
▁요금제	-5818
▁태어난	-5819
▁돌아오	-5820
▁여드름	-5821
▁첫째	-5822
데미	-5823
▁과태	-5824
립니다	-5825
트롤	-5826
▁사로잡	-5827
▁균형발전	-5828
▁무척	-5829
▁청원	-5830
▁쳐	-5831
▁각서	-5832
▁다우	-5833
파이	-5834
▁수거	-5835
▁남기	-5836
▁팬택	-5837
▁과태료	-5838
▁팔리	-5839
▁처장	-5840
▁정면	-5841
▁오케	-5842
▁시한	-5843
▁진주	-5844
▁위즈	-5845
▁라운드	-5846
▁클리	-5847
▁이룬	-5848
▁손쉽	-5849
▁합쳐	-5850
▁오늘날	-5851
▁호재	-5852
▁휴일	-5853
▁현직	-5854
▁향한	-5855
▁불안감	-5856
▁미터	-5857
▁1200	-5858
▁민속	-5859
먼스	-5860
스토랑	-5861
▁레스토랑	-5862
▁점심	-5863
▁펼쳐진다	-5864
▁당사	-5865
▁직면	-5866
▁이건	-5867
▁성실	-5868
▁AFP	-5869
▁붐	-5870
▁아카데미	-5871
▁모토	-5872
▁몫	-5873
▁투신	-5874
▁플랜	-5875
▁잇따르	-5876
▁과잉	-5877
▁티켓	-5878
▁위로	-5879
▁상수	-5880
▁알코	-5881
▁김동	-5882
▁미분	-5883
▁공모전	-5884
▁계정	-5885
▁리서	-5886
▁고사	-5887
▁고개	-5888
▁수명	-5889
▁엿	-5890
▁익숙	-5891
OR	-5892
▁빼앗	-5893
▁사모	-5894
▁수강	-5895
▁빵	-5896
▁농어	-5897
▁가깝	-5898
▁매립	-5899
머리	-5900
▁김대중	-5901
▁어울리	-5902
▁걸릴	-5903
▁실망	-5904
▁결성	-5905
▁소모	-5906
머스	-5907
▁좌석	-5908
▁태안	-5909
▁화해	-5910
▁후임	-5911
▁돌풍	-5912
▁빌려	-5913
en	-5914
▁장병	-5915
▁태블릿	-5916
뉴스	-5917
▁봉사자	-5918
▁핫	-5919
▁본다고	-5920
▁유적	-5921
MA	-5922
▁초콜릿	-5923
리랑	-5924
▁빨라	-5925
IST	-5926
포먼스	-5927
▁동해안	-5928
▁장수	-5929
▁퍼포먼스	-5930
▁약국	-5931
▁대덕	-5932
▁복수	-5933
▁플라스	-5934
▁삼성증권	-5935
▁시아	-5936
▁정규	-5937
▁게임즈	-5938
IP	-5939
▁확립	-5940
▁리서치	-5941
▁용어	-5942
▁촛	-5943
원장	-5944
연대	-5945
▁치킨	-5946
▁2500	-5947
▁다각	-5948
▁패러	-5949
슬러	-5950
▁경찰관	-5951
▁음악회	-5952
▁신동	-5953
▁이념	-5954
▁벌어졌	-5955
▁역동	-5956
▁상하이	-5957
▁맞물	-5958
▁불신	-5959
▁독서	-5960
▁킬	-5961
▁대한항공	-5962
▁약한	-5963
▁헬기	-5964
▁항암	-5965
▁걸친	-5966
▁끊임없이	-5967
▁텍사스	-5968
▁데뷔	-5969
▁씨티	-5970
메달	-5971
▁경신	-5972
▁블룸	-5973
▁장기간	-5974
▁단가	-5975
▁재현	-5976
▁들어선	-5977
▁요르	-5978
리스트	-5979
▁얇	-5980
▁영리	-5981
▁모범	-5982
▁접어들	-5983
▁한낮	-5984
▁옥션	-5985
▁아끼	-5986
▁치르	-5987
▁동생	-5988
재단	-5989
▁응용	-5990
▁뛰어넘	-5991
▁경부	-5992
▁는다며	-5993
▁기쁨	-5994
▁카이	-5995
▁연안	-5996
징금	-5997
▁특위	-5998
▁깎	-5999
▁김용	-6000
▁할까	-6001
▁IMF	-6002
▁소금	-6003
▁멀리	-6004
▁119	-6005
▁론스타	-6006
▁무효	-6007
▁절실	-6008
▁벨트	-6009
▁도출	-6010
▁와이브로	-6011
▁제국	-6012
▁싫	-6013
▁내년도	-6014
▁분과	-6015
▁전사	-6016
▁색깔	-6017
▁증후	-6018
▁블록체인	-6019
▁부리	-6020
▁당연히	-6021
산부	-6022
▁CNN	-6023
▁흔적	-6024
▁시승	-6025
▁연초	-6026
▁한다면서	-6027
▁마르	-6028
▁193	-6029
학자	-6030
▁배분	-6031
▁본질	-6032
▁진짜	-6033
▁합창	-6034
▁넘기	-6035
▁건설사	-6036
▁유인	-6037
트라	-6038
▁코어	-6039
▁중기	-6040
▁안건	-6041
▁외국어	-6042
▁몇몇	-6043
낸다	-6044
▁수색	-6045
at	-6046
▁요르단	-6047
▁상자	-6048
▁훔	-6049
▁DB	-6050
▁롯데마트	-6051
▁자매	-6052
▁모래	-6053
▁속속	-6054
▁월요일	-6055
▁아빠	-6056
토리	-6057
▁비록	-6058
▁세균	-6059
▁프랜차	-6060
▁▦	-6061
▁출동	-6062
라클	-6063
산지	-6064
▁장례	-6065
▁서방	-6066
▁프랜차이즈	-6067
▁부추	-6068
▁손님	-6069
▁라이트	-6070
▁커졌	-6071
▁무한	-6072
▁이견	-6073
▁장려	-6074
▁공산당	-6075
▁사형	-6076
▁도널드	-6077
▁알코올	-6078
▁PS	-6079
▁남양	-6080
▁애초	-6081
▁군산	-6082
▁유예	-6083
▁노화	-6084
▁푸른	-6085
▁강해	-6086
▁필립스	-6087
▁가벼운	-6088
▁명분	-6089
▁익스	-6090
▁미분양	-6091
▁방사선	-6092
▁해고	-6093
▁미뤄	-6094
벤션	-6095
지수	-6096
어났	-6097
▁일어났	-6098
▁단점	-6099
▁그럼에도	-6100
▁제자	-6101
▁스런	-6102
▁증후군	-6103
▁베네	-6104
▁신생	-6105
▁대리점	-6106
▁침수	-6107
▁박수	-6108
니스탄	-6109
베이스	-6110
▁거래량	-6111
▁외모	-6112
▁홀로	-6113
협회	-6114
▁의제	-6115
▁선행	-6116
▁그럴	-6117
▁핸드	-6118
▁워낙	-6119
▁횟수	-6120
고속도로	-6121
▁뛰어들	-6122
▁더욱이	-6123
티지	-6124
▁기쁘	-6125
여금	-6126
▁독감	-6127
▁상세	-6128
▁미용	-6129
게이션	-6130
▁시연	-6131
▁코엑스	-6132
이크	-6133
▁벅스	-6134
모비스	-6135
▁조약	-6136
▁전문점	-6137
▁인제	-6138
테이너	-6139
▁강북	-6140
▁내비게이션	-6141
▁연일	-6142
▁컨벤션	-6143
ri	-6144
▁소극	-6145
▁폭우	-6146
매김	-6147
▁자리매김	-6148
▁반해	-6149
▁광범	-6150
▁현대모비스	-6151
▁고추	-6152
▁인형	-6153
▁즐겨	-6154
▁박정	-6155
▁연인	-6156
▁댓	-6157
▁블룸버그	-6158
▁오케스트라	-6159
▁보행	-6160
▁이혼	-6161
▁외출	-6162
▁상대방	-6163
▁지인	-6164
▁다름	-6165
▁울릉도	-6166
▁중앙은행	-6167
▁랭	-6168
▁정부군	-6169
영향	-6170
▁두루	-6171
▁시일	-6172
▁도우	-6173
▁거품	-6174
▁마라톤	-6175
처럼	-6176
행위	-6177
▁주둔	-6178
▁관여	-6179
▁이뤄지는	-6180
▁사명	-6181
▁빠졌	-6182
▁체류	-6183
투스	-6184
신저	-6185
▁부드러운	-6186
▁조업	-6187
▁맵	-6188
라비아	-6189
▁w	-6190
▁쿼	-6191
▁낙관	-6192
▁동계	-6193
▁생리	-6194
질랜드	-6195
▁네요	-6196
▁곤란	-6197
▁시큐	-6198
▁안동	-6199
▁의정	-6200
▁GB	-6201
▁기업체	-6202
▁촛불	-6203
▁크루즈	-6204
▁미얀	-6205
관위	-6206
▁닿	-6207
▁주어	-6208
▁고무	-6209
스트리트	-6210
▁제약사	-6211
관리본부	-6212
▁오류	-6213
▁단원	-6214
▁뉴질랜드	-6215
▁버렸	-6216
▁주파	-6217
밀리	-6218
▁μ	-6219
▁굵	-6220
▁법령	-6221
▁로이터	-6222
▁치료법	-6223
▁이뤘	-6224
▁우크	-6225
화문	-6226
▁상영	-6227
▁향하	-6228
ou	-6229
▁은퇴	-6230
▁국영	-6231
저우	-6232
▁사령관	-6233
▁월스트리트	-6234
▁질병관리본부	-6235
▁방영	-6236
보드	-6237
▁파이낸셜	-6238
▁나름	-6239
▁소홀	-6240
▁정유	-6241
▁느라	-6242
▁챔피	-6243
▁오락	-6244
▁영등	-6245
▁출고	-6246
▁꾀	-6247
▁기한	-6248
▁강구	-6249
▁유감	-6250
▁퍼블	-6251
▁약해	-6252
▁견인	-6253
▁외식	-6254
보레	-6255
▁파주	-6256
▁지혜	-6257
▁컨퍼런스	-6258
▁먹이	-6259
▁광범위	-6260
▁생생	-6261
▁응시	-6262
▁반환	-6263
▁기념식	-6264
▁장벽	-6265
▁건축물	-6266
가루	-6267
▁수시로	-6268
▁출품	-6269
▁시립	-6270
▁하드웨어	-6271
▁브레이크	-6272
▁할인점	-6273
▁노리	-6274
▁결승	-6275
▁합법	-6276
▁마침	-6277
▁인건	-6278
▁괜	-6279
▁협동	-6280
▁컨테이너	-6281
▁내정자	-6282
▁트래	-6283
▁주상	-6284
▁산학	-6285
방울	-6286
▁관료	-6287
▁폭행	-6288
▁커질	-6289
▁닉	-6290
▁유가증권	-6291
평가	-6292
▁신탁	-6293
▁인건비	-6294
▁대중교통	-6295
▁누군	-6296
아버지	-6297
▁고르	-6298
▁탐지	-6299
▁낭비	-6300
▁확진	-6301
▁장중	-6302
TE	-6303
▁뷰티	-6304
▁쏠리	-6305
▁타이틀	-6306
▁사료	-6307
▁재학	-6308
▁이루어지	-6309
▁..	-6310
▁이산화	-6311
▁후진	-6312
프리카	-6313
▁유보	-6314
▁바뀐	-6315
▁남겨	-6316
▁갱	-6317
▁경쟁사	-6318
▁폴리	-6319
▁조계	-6320
▁붓	-6321
▁정무	-6322
▁역설	-6323
▁농림부	-6324
▁증언	-6325
▁창고	-6326
래프트	-6327
▁대치	-6328
▁그나마	-6329
▁고스	-6330
▁우편	-6331
▁1995	-6332
▁주유소	-6333
▁끓	-6334
▁무더위	-6335
▁동쪽	-6336
▁무사	-6337
▁비치	-6338
▁케이스	-6339
▁황우	-6340
아내	-6341
▁한진	-6342
▁전직	-6343
▁해방	-6344
▁아프가	-6345
▁펼쳤	-6346
▁히트	-6347
▁머니	-6348
▁대하	-6349
▁비대	-6350
▁관심사	-6351
▁천문	-6352
플러스	-6353
▁컨트롤	-6354
▁일괄	-6355
▁공연장	-6356
▁교보	-6357
▁시달리	-6358
▁결심	-6359
▁맘	-6360
▁신상	-6361
▁아프가니스탄	-6362
▁벌일	-6363
▁정한	-6364
▁처지	-6365
▁한인	-6366
공항	-6367
▁해임	-6368
▁연상	-6369
▁연합뉴스	-6370
▁170	-6371
자원부	-6372
▁OE	-6373
셔리	-6374
▁SA	-6375
▁메신저	-6376
▁럭셔리	-6377
▁야스	-6378
▁각광	-6379
▁마스터	-6380
▁레이싱	-6381
사태	-6382
동강	-6383
국적	-6384
▁앞바다	-6385
▁이온	-6386
▁못지	-6387
▁선별	-6388
▁레인	-6389
▁192	-6390
▁산업자원부	-6391
▁트랙	-6392
▁진동	-6393
▁바란다	-6394
▁BBC	-6395
▁총격	-6396
▁수확	-6397
▁하위	-6398
▁취약점	-6399
먼트	-6400
▁진압	-6401
▁그루	-6402
▁안타까	-6403
▁예산안	-6404
패드	-6405
다란	-6406
▁외곽	-6407
▁해법	-6408
▁렌즈	-6409
니스트	-6410
▁거뒀	-6411
▁제이	-6412
▁붙여	-6413
▁달아	-6414
▁끈다	-6415
▁선착순	-6416
▁짝	-6417
▁클릭	-6418
▁인플레이션	-6419
▁시나리오	-6420
▁상표	-6421
▁최우선	-6422
▁배후	-6423
▁계곡	-6424
▁풍성	-6425
▁공로	-6426
▁던지	-6427
▁정화	-6428
▁한라	-6429
▁굽	-6430
▁고리	-6431
▁만찬	-6432
▁맞춘	-6433
▁숭	-6434
▁워크숍	-6435
▁상권	-6436
▁이루어	-6437
서리	-6438
시안	-6439
▁나쁜	-6440
▁오일	-6441
▁소감	-6442
▁즐거운	-6443
▁일체	-6444
▁해체	-6445
▁뒤집	-6446
▁독재	-6447
▁교장	-6448
▁플라스틱	-6449
▁와서	-6450
▁DNA	-6451
▁보드	-6452
▁건국	-6453
▁릴	-6454
▁푸틴	-6455
▁본점	-6456
▁인문	-6457
▁사냥	-6458
▁농축	-6459
▁비만	-6460
▁연구자	-6461
▁파격	-6462
▁베르	-6463
▁강당	-6464
▁간호사	-6465
▁흙	-6466
▁종가	-6467
▁달러화	-6468
▁한양	-6469
▁지냈	-6470
▁이어진	-6471
▁발목	-6472
▁신작	-6473
▁롱	-6474
▁탈북자	-6475
▁장성	-6476
▁든다	-6477
▁홈플러스	-6478
▁위해선	-6479
▁주방	-6480
▁지주회사	-6481
▁다짐	-6482
▁음식물	-6483
▁유관	-6484
▁보편	-6485
▁인연	-6486
▁드러난	-6487
▁참사	-6488
▁령	-6489
▁홍수	-6490
▁복무	-6491
NG	-6492
▁혼합	-6493
▁팅	-6494
▁취해	-6495
▁재판소	-6496
▁타입	-6497
▁메이크	-6498
▁베타	-6499
▁특강	-6500
▁사회단체	-6501
▁형상	-6502
▁전동	-6503
▁다국적	-6504
▁대강	-6505
▁렀	-6506
경북	-6507
▁CCTV	-6508
▁지장	-6509
▁손잡	-6510
▁피아노	-6511
▁파도	-6512
▁샵	-6513
▁이윤	-6514
▁행태	-6515
▁상사	-6516
▁순천	-6517
▁일으킨	-6518
▁폭넓	-6519
▁각계	-6520
▁견제	-6521
▁자궁	-6522
▁열악	-6523
▁중소형	-6524
▁람	-6525
▁1996	-6526
▁잠실	-6527
▁남측	-6528
▁튼	-6529
▁교차	-6530
▁모스크	-6531
▁준수	-6532
▁초등학생	-6533
▁포근	-6534
▁궤도	-6535
▁포상	-6536
▁우울증	-6537
▁좋아	-6538
▁쌀쌀	-6539
▁펼칠	-6540
▁산소	-6541
▁휴게	-6542
▁혼다	-6543
▁간판	-6544
▁점령	-6545
▁영원	-6546
▁여신	-6547
▁원조	-6548
▁굉	-6549
▁떠난	-6550
▁내전	-6551
▁아키	-6552
▁총기	-6553
▁믹	-6554
▁에버	-6555
▁명목	-6556
▁미얀마	-6557
▁정몽	-6558
▁들어온	-6559
▁항소	-6560
▁성금	-6561
▁태백	-6562
▁삭감	-6563
▁드라이브	-6564
교차	-6565
▁입체	-6566
▁천주	-6567
▁내려진	-6568
▁테일	-6569
▁우정	-6570
▁걸림	-6571
▁내걸	-6572
일랜드	-6573
▁전시관	-6574
▁그랜	-6575
▁참모	-6576
▁신한은행	-6577
▁컬렉	-6578
▁1970	-6579
▁자위	-6580
▁반성	-6581
▁과시	-6582
▁자마	-6583
▁이병	-6584
▁KA	-6585
이자	-6586
▁관장	-6587
박스	-6588
▁철원	-6589
▁우대	-6590
▁GDP	-6591
▁십자	-6592
▁총력	-6593
덩이	-6594
▁서서	-6595
기구	-6596
▁그곳	-6597
▁부합	-6598
▁제로	-6599
▁오스트	-6600
▁진료비	-6601
▁정관	-6602
▁수감	-6603
▁수습	-6604
▁분비	-6605
▁버린	-6606
▁누르	-6607
보험	-6608
▁게이트	-6609
▁근대	-6610
▁치안	-6611
▁부딪	-6612
▁체질	-6613
▁ID	-6614
▁링크	-6615
▁내세우	-6616
▁학대	-6617
▁분량	-6618
▁오라클	-6619
▁곽	-6620
▁신원	-6621
▁시킨다	-6622
▁일교차	-6623
▁유무	-6624
▁191	-6625
▁기압	-6626
▁번지	-6627
▁빠져나	-6628
▁안성	-6629
▁베이스	-6630
▁제동	-6631
▁브로	-6632
▁증설	-6633
▁소원	-6634
▁맛있	-6635
▁노총	-6636
▁2019	-6637
▁자립	-6638
▁욕구	-6639
▁자격증	-6640
▁챔피언	-6641
▁누군가	-6642
▁걸림돌	-6643
▁뚝	-6644
▁병사	-6645
▁밭	-6646
▁고생	-6647
▁레이스	-6648
▁검역	-6649
▁열대	-6650
▁학력	-6651
슬림	-6652
▁설교	-6653
▁탈당	-6654
▁쾌적	-6655
▁대조	-6656
▁댓글	-6657
▁무슬림	-6658
▁활력	-6659
셔츠	-6660
러져	-6661
▁김현	-6662
▁초미	-6663
▁상식	-6664
▁선점	-6665
▁물고기	-6666
▁자이	-6667
▁더블	-6668
▁액세	-6669
▁환수	-6670
▁위하	-6671
▁언론인	-6672
▁소유자	-6673
▁아반	-6674
▁첨가	-6675
▁송도	-6676
▁마찰	-6677
▁레바	-6678
▁티베	-6679
▁과징금	-6680
▁흐리	-6681
▁종종	-6682
▁상시	-6683
▁전장	-6684
▁영화제	-6685
▁한마디	-6686
▁CI	-6687
▁지문	-6688
▁고품	-6689
▁리스트	-6690
▁강동	-6691
▁김상	-6692
▁신기	-6693
르드	-6694
▁예선	-6695
▁진학	-6696
매매	-6697
▁불어	-6698
▁개원	-6699
▁강요	-6700
▁대전시	-6701
▁약정	-6702
▁차선	-6703
▁뭔	-6704
▁황우석	-6705
유럽	-6706
▁명백	-6707
▁아마존	-6708
▁볼보	-6709
▁변형	-6710
비드	-6711
▁드린	-6712
▁스코	-6713
▁급감	-6714
▁렉서스	-6715
▁부천	-6716
▁낙동강	-6717
▁켜	-6718
▁00	-6719
▁체력	-6720
▁마땅	-6721
▁보충	-6722
▁북서	-6723
▁다쳤	-6724
▁GT	-6725
병대	-6726
▁기준치	-6727
▁굳이	-6728
▁계단	-6729
▁실명	-6730
▁한쪽	-6731
릭스	-6732
의사	-6733
▁감리	-6734
아리	-6735
▁잠재력	-6736
▁상주	-6737
▁달할	-6738
▁홀딩	-6739
▁소액	-6740
▁뱅킹	-6741
▁아요	-6742
▁그라	-6743
▁원로	-6744
▁구원	-6745
▁명동	-6746
▁광복	-6747
▁가산	-6748
▁냉각	-6749
▁옳	-6750
▁상회	-6751
▁안양	-6752
▁꾸며	-6753
▁주권	-6754
▁비하	-6755
▁북구	-6756
▁횡령	-6757
▁돌아섰	-6758
▁유류	-6759
▁필터	-6760
▁신청서	-6761
▁브라운	-6762
▁자부	-6763
▁특별히	-6764
▁규격	-6765
▁보복	-6766
▁참배	-6767
▁치명	-6768
▁진지	-6769
▁여객기	-6770
▁밀집	-6771
▁바깥	-6772
▁나스닥	-6773
▁소망	-6774
▁채워	-6775
▁늘릴	-6776
▁법제	-6777
▁저감	-6778
▁보낼	-6779
▁동월	-6780
▁전신	-6781
▁승차	-6782
▁위조	-6783
▁이화	-6784
▁남동	-6785
▁플랫폼	-6786
▁서서히	-6787
▁퀴	-6788
▁기울여	-6789
▁자마자	-6790
▁트림	-6791
▁커다란	-6792
▁적십자	-6793
ve	-6794
▁무렵	-6795
▁남한	-6796
▁에디션	-6797
▁드렸	-6798
▁모기지	-6799
▁사막	-6800
가운	-6801
▁내보	-6802
▁품안	-6803
▁육상	-6804
▁셋째	-6805
▁1994	-6806
▁해커	-6807
▁영세	-6808
▁습니까	-6809
려야	-6810
▁제의	-6811
▁인쇄	-6812
▁쉐보레	-6813
▁선거법	-6814
▁신년	-6815
▁펼쳐지	-6816
▁취할	-6817
▁낚시	-6818
▁사옥	-6819
▁뉴시스	-6820
▁기어	-6821
▁김선	-6822
▁선거구	-6823
▁닮	-6824
▁김장	-6825
▁당첨자	-6826
▁헌신	-6827
▁부드럽	-6828
더스	-6829
▁부흥	-6830
어붙	-6831
▁광양	-6832
▁태어나	-6833
▁시력	-6834
▁SO	-6835
▁검거	-6836
구나	-6837
▁모른	-6838
▁끊이	-6839
▁볼거리	-6840
▁테크놀	-6841
둘러	-6842
▁수차	-6843
▁고백	-6844
▁산책	-6845
▁따져	-6846
▁낫	-6847
▁어업	-6848
▁여인	-6849
▁국정원	-6850
▁정교	-6851
▁손가락	-6852
▁만일	-6853
▁소집	-6854
▁맥스	-6855
▁정전	-6856
▁ST	-6857
▁아토	-6858
▁발길	-6859
▁추후	-6860
▁모른다	-6861
▁광화문	-6862
▁크로스	-6863
▁전철	-6864
▁순회	-6865
▁앞선	-6866
SA	-6867
▁자치구	-6868
▁성숙	-6869
지엄	-6870
▁도어	-6871
오롱	-6872
▁논평	-6873
▁심포지엄	-6874
▁이지	-6875
▁거절	-6876
▁동아시아	-6877
▁본회의	-6878
▁싱글	-6879
▁학문	-6880
▁육아	-6881
▁주파수	-6882
▁기승	-6883
▁장난	-6884
▁거래일	-6885
▁순서	-6886
시설	-6887
▁크라이	-6888
▁전라	-6889
▁캄보	-6890
▁퇴진	-6891
시험	-6892
▁갑작	-6893
▁입맛	-6894
▁통계청	-6895
▁할아버지	-6896
▁트레이	-6897
▁김경	-6898
▁악성	-6899
▁사들	-6900
▁호평	-6901
▁양보	-6902
▁공문	-6903
▁파산	-6904
▁테이블	-6905
▁코오롱	-6906
▁깜짝	-6907
스카	-6908
▁프라임	-6909
▁표지	-6910
▁450	-6911
▁학년도	-6912
▁사용자	-6913
▁영등포	-6914
전지	-6915
▁각오	-6916
▁진도	-6917
▁카르	-6918
▁냉장고	-6919
크스	-6920
▁레바논	-6921
▁선관위	-6922
남도	-6923
▁해진다	-6924
▁고인	-6925
▁내려졌	-6926
▁파란	-6927
▁결산	-6928
▁패밀리	-6929
▁아반떼	-6930
▁희귀	-6931
▁수석대표	-6932
▁주춤	-6933
▁치즈	-6934
▁컴퓨팅	-6935
구름	-6936
▁김정은	-6937
▁왼쪽	-6938
▁사연	-6939
▁토로	-6940
유산	-6941
▁베를	-6942
▁회의소	-6943
▁의하	-6944
▁나쁨	-6945
▁사임	-6946
▁기업인	-6947
▁텐데	-6948
▁안면	-6949
▁방화	-6950
▁적대	-6951
▁정선	-6952
▁프로세스	-6953
이도	-6954
▁역학	-6955
▁턴	-6956
▁벌어진	-6957
▁병역	-6958
▁회피	-6959
▁넘어선	-6960
▁102	-6961
우병	-6962
▁피자	-6963
▁흉터	-6964
▁표결	-6965
▁화산	-6966
버린	-6967
▁넘어가	-6968
▁꿈꾸	-6969
▁파라	-6970
▁충주	-6971
사관	-6972
▁나뉘	-6973
▁캄보디아	-6974
▁머무	-6975
▁접근성	-6976
▁홀딩스	-6977
▁기념관	-6978
▁인디	-6979
▁택배	-6980
▁CP	-6981
▁장군	-6982
▁나갔	-6983
▁뭉	-6984
▁티셔츠	-6985
▁도박	-6986
▁발의	-6987
▁가축	-6988
▁사이즈	-6989
▁아일랜드	-6990
▁당당	-6991
▁지형	-6992
▁백두	-6993
▁건설업	-6994
▁어두	-6995
▁목요일	-6996
▁호가	-6997
▁동호	-6998
▁다룬	-6999
▁확실히	-7000
▁깔끔	-7001
▁유방암	-7002
▁이색	-7003
▁양쪽	-7004
▁가죽	-7005
▁접하	-7006
▁들어간다	-7007
▁특사	-7008
▁발족	-7009
▁슬림	-7010
▁주총	-7011
▁노숙	-7012
▁뜨겁	-7013
▁매진	-7014
▁제치	-7015
▁림	-7016
자치부	-7017
▁초고	-7018
저히	-7019
▁짚	-7020
▁행정자치부	-7021
▁강진	-7022
▁고스란히	-7023
▁햄	-7024
▁간다	-7025
풀이	-7026
▁바른	-7027
▁스킨	-7028
▁관절염	-7029
▁운명	-7030
▁전경련	-7031
▁실버	-7032
▁운동장	-7033
▁비닐	-7034
▁CBS	-7035
▁해치	-7036
▁행자부	-7037
▁우라	-7038
▁표창	-7039
▁철폐	-7040
▁기재	-7041
▁자재	-7042
▁다행히	-7043
▁스파이	-7044
▁신용카드	-7045
▁잎	-7046
내셔널	-7047
▁저조	-7048
▁가르치	-7049
▁낸다	-7050
▁진통	-7051
▁감당	-7052
▁속초	-7053
▁의대	-7054
▁입자	-7055
▁검정	-7056
▁피고	-7057
▁이어져	-7058
▁소나무	-7059
▁활기	-7060
▁인터내셔널	-7061
▁버락	-7062
EA	-7063
▁인지도	-7064
▁덥	-7065
▁구리	-7066
▁닦	-7067
▁시판	-7068
▁농사	-7069
▁에코	-7070
티나	-7071
▁II	-7072
▁기각	-7073
▁전이	-7074
▁114	-7075
▁수산물	-7076
▁출생	-7077
▁스타트업	-7078
▁러닝	-7079
▁찬반	-7080
타르	-7081
지대	-7082
▁자진	-7083
▁시비	-7084
▁환급	-7085
▁바꿀	-7086
투자	-7087
▁부재	-7088
멘트	-7089
▁출판사	-7090
니지	-7091
어링	-7092
▁괜찮	-7093
▁한전	-7094
▁낮춰	-7095
▁수련	-7096
▁꽤	-7097
▁아름다움	-7098
▁마이클	-7099
▁굉장	-7100
▁헌재	-7101
▁ICT	-7102
▁멈추	-7103
▁유포	-7104
▁보름	-7105
▁액수	-7106
▁메이크업	-7107
▁야기	-7108
▁카운	-7109
▁탄탄	-7110
전력	-7111
▁영유	-7112
일으	-7113
▁불러일으	-7114
▁외화	-7115
▁외상	-7116
▁대우건설	-7117
▁수차례	-7118
▁스팸	-7119
파크	-7120
▁한가	-7121
▁납세	-7122
▁AM	-7123
▁겨우	-7124
▁충당	-7125
▁재산세	-7126
▁안경	-7127
▁보인다며	-7128
▁사설	-7129
▁침입	-7130
▁천주교	-7131
▁1300	-7132
▁동국	-7133
폴리오	-7134
러스터	-7135
▁일간지	-7136
▁알레르기	-7137
▁포트폴리오	-7138
re	-7139
▁인종	-7140
▁조립	-7141
▁임대료	-7142
▁생체	-7143
▁인삼	-7144
▁당선인	-7145
▁웨딩	-7146
▁골라	-7147
▁가이드라인	-7148
▁우세	-7149
▁클러스터	-7150
▁보증금	-7151
▁가뭄	-7152
▁농지	-7153
▁낯	-7154
▁유물	-7155
▁편하	-7156
공정	-7157
▁친화	-7158
▁넉	-7159
▁근접	-7160
▁모닝	-7161
금리	-7162
▁어려웠	-7163
om	-7164
▁모인	-7165
▁원산지	-7166
▁그릴	-7167
▁KB	-7168
▁노르	-7169
▁리얼	-7170
▁스쿨	-7171
▁형평	-7172
▁구멍	-7173
▁꼬집	-7174
▁동행	-7175
▁컬렉션	-7176
▁남겼	-7177
▁농어촌	-7178
▁스피드	-7179
▁살아남	-7180
▁복권	-7181
▁털어	-7182
▁전교	-7183
▁중증	-7184
▁자영	-7185
▁남미	-7186
▁산업은행	-7187
▁취향	-7188
▁험	-7189
▁닝	-7190
▁교육감	-7191
SI	-7192
RI	-7193
▁웃도	-7194
이즈미	-7195
▁여력	-7196
ORPG	-7197
▁매치	-7198
▁티베트	-7199
▁바위	-7200
▁묘사	-7201
▁종로구	-7202
▁뇌물	-7203
면적	-7204
에이	-7205
▁전설	-7206
▁습지	-7207
▁여전	-7208
▁툴	-7209
▁잠수	-7210
▁나흘	-7211
▁간주	-7212
리자	-7213
▁헌혈	-7214
▁수니	-7215
▁수령	-7216
▁고이즈미	-7217
긴다	-7218
악산	-7219
▁원작	-7220
▁태양광	-7221
▁명소	-7222
▁근절	-7223
▁사령부	-7224
▁미미	-7225
▁감추	-7226
랑이	-7227
▁자정	-7228
▁공감대	-7229
▁탈락	-7230
▁임용	-7231
▁동성애	-7232
▁105	-7233
▁퇴출	-7234
▁신조	-7235
▁젤	-7236
▁유공	-7237
▁선원	-7238
▁교부	-7239
▁열려	-7240
▁위대	-7241
▁법조	-7242
나항공	-7243
▁헤지	-7244
▁삼성그룹	-7245
▁관계없이	-7246
▁양양	-7247
▁김기	-7248
▁회생	-7249
▁mg	-7250
▁LA	-7251
▁프로세서	-7252
▁책임지	-7253
튜브	-7254
▁시카	-7255
▁유튜브	-7256
▁연체	-7257
▁아시아나항공	-7258
▁°	-7259
▁갚	-7260
▁미친	-7261
▁과반	-7262
▁회복세	-7263
▁장애인	-7264
▁뻔	-7265
▁퀘	-7266
▁개봉	-7267
▁공안	-7268
▁마주	-7269
▁폭설	-7270
▁미쳤	-7271
▁규탄	-7272
▁그랜저	-7273
▁오마	-7274
▁사격	-7275
▁연중	-7276
구리	-7277
▁설사	-7278
▁투여	-7279
▁커플	-7280
▁성형외과	-7281
금속	-7282
▁막판	-7283
▁먹거리	-7284
▁배아	-7285
▁브라우	-7286
▁온천	-7287
▁소각	-7288
본다	-7289
ll	-7290
▁산자부	-7291
▁월간	-7292
▁문명	-7293
▁환상	-7294
▁돌아온	-7295
▁전임	-7296
북도	-7297
▁대용	-7298
▁온난	-7299
▁관리자	-7300
▁감수	-7301
▁아름답	-7302
▁추이	-7303
▁트랜	-7304
우리	-7305
▁세율	-7306
▁지방세	-7307
▁여행사	-7308
▁한은	-7309
▁미소	-7310
▁력사	-7311
▁선배	-7312
루미	-7313
▁해져	-7314
▁까다	-7315
▁국비	-7316
▁인턴	-7317
▁창업자	-7318
▁에볼	-7319
▁로고	-7320
▁마진	-7321
▁클리닉	-7322
▁OECD	-7323
▁떠났	-7324
▁범인	-7325
▁대구경북	-7326
▁화두	-7327
▁해변	-7328
▁가급	-7329
▁챙겨	-7330
▁무단	-7331
▁권유	-7332
▁데이터베이스	-7333
이치	-7334
▁오사	-7335
▁신자	-7336
▁공예	-7337
▁HS	-7338
▁비준	-7339
▁교도소	-7340
▁입양	-7341
하이	-7342
▁방문객	-7343
▁농약	-7344
▁달해	-7345
▁효능	-7346
▁나란히	-7347
▁통치	-7348
▁청계천	-7349
▁트로	-7350
포트	-7351
PC	-7352
▁일보	-7353
▁북상	-7354
▁수요일	-7355
아웃	-7356
관계	-7357
▁갯	-7358
모닝	-7359
규모	-7360
▁의자	-7361
▁사외	-7362
▁해경	-7363
▁발판	-7364
▁시켜야	-7365
▁CT	-7366
▁아티	-7367
▁느꼈	-7368
▁쿨	-7369
▁솔직	-7370
▁발표회	-7371
▁펼친다	-7372
▁자세히	-7373
▁초미세	-7374
▁101	-7375
▁굿모닝	-7376
▁차입	-7377
▁광우병	-7378
▁궁극	-7379
▁뒀	-7380
▁재즈	-7381
▁송금	-7382
▁데스크	-7383
▁찜	-7384
▁이노	-7385
▁추기	-7386
▁고양이	-7387
생산	-7388
▁신도	-7389
▁PDP	-7390
▁순익	-7391
▁킨	-7392
▁탱크	-7393
▁만료	-7394
▁찾아오	-7395
▁로버트	-7396
▁후배	-7397
▁고집	-7398
▁은행장	-7399
▁회화	-7400
▁아라	-7401
▁SS	-7402
▁악기	-7403
▁구두	-7404
▁그칠	-7405
겨진	-7406
▁스틸	-7407
▁아이패드	-7408
▁울산시	-7409
▁발명	-7410
▁상륙	-7411
▁석탄	-7412
▁다를	-7413
▁너무나	-7414
▁의료비	-7415
▁피할	-7416
▁수첩	-7417
▁비해서	-7418
▁워치	-7419
▁가급적	-7420
▁드레스	-7421
▁도시락	-7422
▁꺼내	-7423
▁수니파	-7424
▁접한	-7425
▁포토	-7426
▁결혼식	-7427
▁남용	-7428
▁패스	-7429
▁눈치	-7430
▁증서	-7431
▁외형	-7432
pm	-7433
▁쿠페	-7434
▁커버	-7435
▁민영화	-7436
▁몰랐	-7437
▁강서	-7438
▁흥행	-7439
▁수출입	-7440
▁송파구	-7441
▁머물렀	-7442
▁통로	-7443
▁미션	-7444
▁봇	-7445
▁분배	-7446
▁보석	-7447
▁이용객	-7448
다드	-7449
▁영혼	-7450
▁무난	-7451
▁신문사	-7452
▁은혜	-7453
▁서초구	-7454
▁전수	-7455
▁마늘	-7456
▁인피	-7457
▁낙폭	-7458
▁남구	-7459
▁기미	-7460
▁대세	-7461
▁깃	-7462
▁MMORPG	-7463
▁번개	-7464
▁각지	-7465
▁해산	-7466
▁바퀴	-7467
▁토요타	-7468
▁결핵	-7469
▁결단	-7470
▁성당	-7471
▁산악	-7472
만금	-7473
▁추기경	-7474
연구소	-7475
▁딩	-7476
▁이목	-7477
▁민심	-7478
▁바그	-7479
▁아닙	-7480
▁다지	-7481
▁나빠	-7482
줄기	-7483
▁비결	-7484
▁열매	-7485
▁가파	-7486
▁유세	-7487
▁정했	-7488
▁일일	-7489
▁일어날	-7490
▁이어진다	-7491
▁새만금	-7492
▁즐겁	-7493
▁북동	-7494
▁이득	-7495
▁걸맞	-7496
▁해결책	-7497
▁배추	-7498
▁한테	-7499
▁전립	-7500
▁탈퇴	-7501
▁계승	-7502
▁폴란드	-7503
▁112	-7504
▁소규모	-7505
▁관건	-7506
▁양도세	-7507
▁채우	-7508
▁감귤	-7509
▁봉쇄	-7510
▁냉동	-7511
▁밸리	-7512
▁머들	-7513
▁자영업	-7514
▁외치	-7515
▁안타깝	-7516
▁재정부	-7517
▁서브	-7518
▁련	-7519
▁싸우	-7520
▁통사	-7521
▁흑인	-7522
▁악용	-7523
라이트	-7524
으니	-7525
▁본선	-7526
▁수법	-7527
▁문화부	-7528
▁날개	-7529
▁Z	-7530
▁농수	-7531
▁축사	-7532
▁흡입	-7533
▁사운드	-7534
▁협박	-7535
▁드물	-7536
▁UCC	-7537
▁변호	-7538
▁준다는	-7539
▁총생산	-7540
▁마이너스	-7541
▁평범	-7542
▁오찬	-7543
▁오디오	-7544
▁에이즈	-7545
▁두께	-7546
▁장거리	-7547
▁동급	-7548
집니다	-7549
▁가사	-7550
▁폭락	-7551
▁갑작스	-7552
▁오른쪽	-7553
▁거둔	-7554
바닥	-7555
▁의정부	-7556
▁식민	-7557
▁현대증권	-7558
▁경연	-7559
▁항생	-7560
▁동대문	-7561
▁연쇄	-7562
▁파생	-7563
▁바이어	-7564
▁민자	-7565
▁사범	-7566
▁찬양	-7567
▁대교	-7568
▁반사	-7569
▁종업	-7570
▁아세	-7571
▁사업단	-7572
▁파손	-7573
▁썬	-7574
▁제철	-7575
▁유수	-7576
▁현물	-7577
▁맥락	-7578
▁권장	-7579
▁나아	-7580
▁토양	-7581
오스	-7582
▁사라졌	-7583
▁수요자	-7584
▁소련	-7585
▁최장	-7586
▁심혈	-7587
▁언제나	-7588
▁권단	-7589
▁광산	-7590
▁사드	-7591
▁메이커	-7592
▁실리콘	-7593
▁세수	-7594
적으로	-7595
▁연이	-7596
▁수장	-7597
▁해운대	-7598
▁음원	-7599
▁공작	-7600
▁싣	-7601
▁보여준	-7602
▁쌓이	-7603
▁절상	-7604
▁빨간	-7605
▁객실	-7606
▁주시	-7607
▁액세서리	-7608
▁수호	-7609
▁어르	-7610
▁사면	-7611
▁과천	-7612
▁위법	-7613
▁정동영	-7614
▁몸매	-7615
▁재킷	-7616
▁패배	-7617
▁합격자	-7618
▁밀접	-7619
▁경사	-7620
▁외무성	-7621
▁아토피	-7622
▁존경	-7623
방송	-7624
▁도매	-7625
▁성남시	-7626
▁모건	-7627
▁품종	-7628
▁성폭행	-7629
▁등기	-7630
▁이듬	-7631
▁보령	-7632
▁바이올	-7633
▁지붕	-7634
▁개막식	-7635
▁자회	-7636
▁보험금	-7637
▁더구나	-7638
▁영구	-7639
▁배우자	-7640
▁함량	-7641
니티	-7642
▁특검	-7643
▁홍삼	-7644
우드	-7645
포츠	-7646
▁내다보	-7647
▁시진	-7648
▁고래	-7649
it	-7650
▁중개업	-7651
▁헐	-7652
운용	-7653
▁사이언스	-7654
▁한국전력	-7655
▁실물	-7656
▁놀라운	-7657
▁테크노	-7658
▁들어와	-7659
▁김수	-7660
▁답답	-7661
▁부상자	-7662
철수	-7663
▁색소	-7664
▁타깃	-7665
▁특이	-7666
▁한결	-7667
▁나타난다	-7668
▁메리	-7669
▁달라지	-7670
▁시내버스	-7671
▁카트	-7672
▁서둘러	-7673
몬드	-7674
타이	-7675
어내	-7676
▁워터	-7677
▁the	-7678
쿠니	-7679
▁우라늄	-7680
▁성령	-7681
▁계란	-7682
▁발탁	-7683
▁종업원	-7684
▁220	-7685
▁굉장히	-7686
▁일일이	-7687
마토	-7688
▁펠	-7689
ID	-7690
▁붙이	-7691
▁된다면서	-7692
▁후유	-7693
▁엽	-7694
▁법인세	-7695
▁가세	-7696
▁꼬리	-7697
▁못한다	-7698
▁염려	-7699
▁성매매	-7700
▁구로	-7701
▁베를린	-7702
▁밑돌	-7703
▁증여	-7704
도어	-7705
▁녹지	-7706
▁황제	-7707
▁시진핑	-7708
공단	-7709
▁일기	-7710
▁아픔	-7711
▁시카고	-7712
▁사우디아	-7713
▁탐방	-7714
▁이듬해	-7715
▁연루	-7716
▁박상	-7717
▁구청장	-7718
▁돼지고기	-7719
▁양육	-7720
▁수해	-7721
▁삽입	-7722
▁뇌졸	-7723
▁그레이	-7724
▁홍성	-7725
지리아	-7726
▁였으나	-7727
▁중화	-7728
▁월급	-7729
거래위	-7730
▁공정거래위	-7731
▁자면	-7732
▁김형	-7733
▁나이지리아	-7734
▁로열	-7735
▁몬스터	-7736
▁서비스업	-7737
커스	-7738
▁잇달	-7739
▁국군	-7740
ew	-7741
▁여주	-7742
▁압축	-7743
▁돋보이	-7744
▁연면적	-7745
그인	-7746
▁자선	-7747
▁약하	-7748
▁원금	-7749
▁간격	-7750
▁약사	-7751
▁준다고	-7752
▁야채	-7753
▁불참	-7754
▁고구려	-7755
란트	-7756
▁마포	-7757
▁국외	-7758
▁흔들리	-7759
▁모스크바	-7760
▁상속	-7761
운전	-7762
▁단호	-7763
▁대여	-7764
▁240	-7765
바이트	-7766
▁정규직	-7767
▁일으킬	-7768
티스	-7769
▁쿠르드	-7770
법인	-7771
▁어르신	-7772
기에	-7773
▁오렌	-7774
▁선명	-7775
▁절개	-7776
▁푸조	-7777
▁남긴	-7778
▁타협	-7779
▁중산	-7780
▁추측	-7781
셀러	-7782
▁벤치	-7783
▁피력	-7784
▁재선	-7785
▁상해	-7786
▁눌	-7787
▁증인	-7788
▁중남	-7789
▁면밀	-7790
▁직영	-7791
물산	-7792
▁교향	-7793
▁날아	-7794
▁기장	-7795
▁으려는	-7796
▁뭔가	-7797
▁상관없이	-7798
▁러브	-7799
▁입건	-7800
임스	-7801
▁브루	-7802
▁재차	-7803
▁써야	-7804
▁시책	-7805
▁경과	-7806
▁원회	-7807
▁조계종	-7808
▁그친	-7809
나이	-7810
▁전립선	-7811
▁벡	-7812
▁그저	-7813
▁임상시험	-7814
▁지나친	-7815
▁위촉	-7816
▁인포	-7817
▁톡톡	-7818
▁순차	-7819
▁보상금	-7820
▁노키아	-7821
▁순방	-7822
▁박성	-7823
▁듀얼	-7824
▁누릴	-7825
▁급속히	-7826
허가	-7827
▁바쁜	-7828
▁브로드	-7829
▁데이비드	-7830
▁유성	-7831
다보	-7832
▁항구	-7833
▁사자	-7834
▁악영향	-7835
▁관영	-7836
▁시아파	-7837
▁룰	-7838
▁뇌졸중	-7839
▁지리산	-7840
▁삼국	-7841
▁맞물려	-7842
▁원단	-7843
▁조속히	-7844
라는	-7845
▁선보여	-7846
▁피랍	-7847
▁칠레	-7848
▁휴전	-7849
▁야스쿠니	-7850
▁파고	-7851
▁삼성물산	-7852
▁항생제	-7853
▁따지	-7854
▁앤드	-7855
▁파급	-7856
▁새끼	-7857
▁살짝	-7858
▁풀리	-7859
▁여종	-7860
▁이양	-7861
▁심정	-7862
▁케리	-7863
센트	-7864
▁대개	-7865
▁통신망	-7866
▁기적	-7867
▁사우디아라비아	-7868
▁여행객	-7869
▁벌인다	-7870
▁본문	-7871
▁어쩔	-7872
▁마니아	-7873
▁거액	-7874
▁오렌지	-7875
▁맡기	-7876
▁친절	-7877
▁부풀	-7878
▁김병	-7879
▁춥	-7880
▁분해	-7881
▁내세워	-7882
▁교재	-7883
▁UN	-7884
▁영유권	-7885
▁스노	-7886
▁국책	-7887
▁주어진다	-7888
▁담합	-7889
▁임의	-7890
▁지나가	-7891
▁조선일보	-7892
▁출혈	-7893
생명	-7894
▁갈라	-7895
▁태권	-7896
▁카지	-7897
▁테크놀로지	-7898
▁퍼블리	-7899
▁갓	-7900
▁철새	-7901
▁네이트	-7902
▁대검	-7903
▁총수	-7904
▁왔으며	-7905
▁배수	-7906
▁곱	-7907
▁파운드	-7908
▁고부	-7909
▁필지	-7910
▁태세	-7911
▁마구	-7912
▁색다른	-7913
▁자산운용	-7914
야마	-7915
▁정액	-7916
▁비례	-7917
▁십자가	-7918
▁요령	-7919
▁LPG	-7920
▁공보	-7921
▁닌	-7922
▁파동	-7923
▁영월	-7924
▁난다	-7925
▁문건	-7926
▁융자	-7927
▁비춰	-7928
▁해온	-7929
▁정립	-7930
▁목록	-7931
출산	-7932
▁난자	-7933
▁108	-7934
▁기하	-7935
▁법규	-7936
▁오버	-7937
▁스캔	-7938
▁퍼시	-7939
▁입소	-7940
▁장인	-7941
▁아스	-7942
▁유비	-7943
▁도우미	-7944
▁배양	-7945
▁강국	-7946
▁x	-7947
▁이마	-7948
▁보스	-7949
▁MO	-7950
▁바꾼	-7951
▁유기농	-7952
▁모이	-7953
▁전적	-7954
▁한두	-7955
▁물러나	-7956
▁전복	-7957
▁벨기에	-7958
▁웬	-7959
래곤	-7960
▁대항	-7961
▁유독	-7962
▁주역	-7963
▁앞세워	-7964
▁날짜	-7965
▁경인	-7966
▁늘렸	-7967
▁금메달	-7968
▁국도	-7969
▁문재	-7970
▁아쉬움	-7971
▁수익금	-7972
▁이송	-7973
▁줄였	-7974
으면	-7975
▁주교	-7976
▁탄압	-7977
▁오직	-7978
▁주입	-7979
▁크리	-7980
▁명확히	-7981
▁산출	-7982
자유	-7983
▁제품군	-7984
▁대국민	-7985
▁받아들일	-7986
ing	-7987
▁극히	-7988
▁지지자	-7989
▁이원	-7990
▁이스트	-7991
▁토종	-7992
▁일으켰	-7993
▁간사	-7994
▁프레임	-7995
▁속하	-7996
▁제임스	-7997
▁우체	-7998
▁지체	-7999
▁보합	-8000
▁호스	-8001
▁핑크	-8002
▁전락	-8003
▁쥬	-8004
▁111	-8005
▁용이	-8006
▁기피	-8007
▁공판	-8008
▁흘리	-8009
▁SC	-8010
▁자민련	-8011
▁실습	-8012
▁꼼꼼히	-8013
▁잭	-8014
▁트레	-8015
▁페어	-8016
▁줄어드	-8017
▁모형	-8018
▁간염	-8019
▁프란	-8020
▁교대	-8021
▁마산	-8022
▁유혹	-8023
▁115	-8024
▁후쿠시마	-8025
▁입수	-8026
▁경색	-8027
▁시동	-8028
▁얽	-8029
▁덤	-8030
▁절제	-8031
▁숍	-8032
▁브라우저	-8033
▁가요	-8034
▁에볼라	-8035
▁필름	-8036
▁섹션	-8037
수증	-8038
겨레	-8039
▁익명	-8040
▁지원자	-8041
▁저희	-8042
▁착륙	-8043
▁상거래	-8044
▁최우수	-8045
▁영문	-8046
▁메이저	-8047
▁미끄	-8048
▁운수	-8049
▁구사	-8050
▁변함	-8051
▁약자	-8052
▁단기간	-8053
▁재능	-8054
▁마인	-8055
▁아나	-8056
여행	-8057
▁다큐	-8058
▁내주	-8059
▁한겨레	-8060
안전	-8061
▁어떨	-8062
▁삭스	-8063
워하	-8064
▁조종사	-8065
▁세븐	-8066
케인	-8067
봐야	-8068
▁유공자	-8069
▁천둥	-8070
▁장시간	-8071
▁시골	-8072
▁넓히	-8073
▁어민	-8074
▁강변	-8075
▁휩싸	-8076
▁MI	-8077
▁KTX	-8078
▁성명서	-8079
▁업적	-8080
▁멋진	-8081
▁끌어들	-8082
▁반정부	-8083
▁라스	-8084
▁신인	-8085
▁정산	-8086
▁거둘	-8087
▁for	-8088
▁각별히	-8089
▁자본금	-8090
▁아메리카	-8091
▁워킹	-8092
▁기운	-8093
▁행운	-8094
▁후유증	-8095
▁재편	-8096
▁시큐리티	-8097
▁벚	-8098
▁APEC	-8099
▁팔렸	-8100
▁구단	-8101
▁신비	-8102
두르	-8103
▁LTE	-8104
▁봐도	-8105
▁냐며	-8106
▁구별	-8107
▁이경	-8108
▁랠	-8109
▁유한	-8110
▁장단	-8111
▁가라	-8112
타오	-8113
▁장터	-8114
관광부	-8115
▁하마스	-8116
▁소독	-8117
▁카지노	-8118
▁제보	-8119
러졌	-8120
▁곤충	-8121
▁아닙니다	-8122
▁춘천시	-8123
▁간호	-8124
▁당해	-8125
처분	-8126
▁대역	-8127
▁중심지	-8128
루미늄	-8129
▁문화관광부	-8130
▁일수록	-8131
▁윌리	-8132
▁공지	-8133
행사	-8134
▁이태	-8135
▁밝힐	-8136
▁전작	-8137
▁대두	-8138
▁생선	-8139
▁지질	-8140
▁방제	-8141
▁살균	-8142
▁푸르	-8143
▁특례	-8144
▁신청자	-8145
스크림	-8146
▁시뮬	-8147
▁경차	-8148
▁양심	-8149
▁초중	-8150
▁고립	-8151
▁전한	-8152
▁한눈	-8153
▁해설	-8154
▁경호	-8155
▁불공정	-8156
▁103	-8157
▁농구	-8158
▁템	-8159
▁놓여	-8160
▁죽이	-8161
▁이룰	-8162
테일	-8163
시경	-8164
▁수성	-8165
▁1600	-8166
▁퇴근	-8167
▁1960	-8168
▁차차	-8169
▁한약	-8170
▁고난	-8171
▁인권위	-8172
▁머신	-8173
젤레스	-8174
▁서면	-8175
▁PB	-8176
▁넓혀	-8177
▁폐암	-8178
▁인승	-8179
▁아이스크림	-8180
▁라이스	-8181
ic	-8182
▁쉼	-8183
▁바지	-8184
▁비스	-8185
▁하버	-8186
▁녀	-8187
▁등락	-8188
▁종양	-8189
▁목욕	-8190
가리	-8191
경제부	-8192
▁촉발	-8193
▁포부	-8194
▁여대	-8195
oT	-8196
터카	-8197
▁예매	-8198
▁단단	-8199
▁오피스텔	-8200
▁알루미늄	-8201
▁잔치	-8202
▁긴축	-8203
▁남산	-8204
▁그야	-8205
▁정황	-8206
▁렌터카	-8207
▁삼성동	-8208
▁화요일	-8209
▁널	-8210
▁평일	-8211
▁개체	-8212
▁박종	-8213
▁월평균	-8214
어리	-8215
▁잘라	-8216
▁가져올	-8217
둥이	-8218
▁세로	-8219
▁녹차	-8220
▁느냐며	-8221
▁2030	-8222
▁퍼시픽	-8223
▁재정경제부	-8224
▁표적	-8225
▁민노	-8226
▁정형	-8227
NI	-8228
▁달콤	-8229
▁할부	-8230
▁DS	-8231
▁제네바	-8232
▁바디	-8233
▁운반	-8234
▁아사히	-8235
▁경희	-8236
자유구역	-8237
▁학술지	-8238
맥스	-8239
원지	-8240
데스	-8241
▁아이스	-8242
▁통영	-8243
▁오존	-8244
▁후지	-8245
▁미주	-8246
▁로드맵	-8247
▁PM	-8248
▁AT	-8249
▁기도회	-8250
▁페르	-8251
▁질의	-8252
터스	-8253
▁딸기	-8254
▁끌어올리	-8255
▁부통령	-8256
▁녹음	-8257
▁독성	-8258
▁처한	-8259
▁정계	-8260
▁창설	-8261
▁경제자유구역	-8262
▁DV	-8263
▁국감	-8264
▁연소	-8265
▁월가	-8266
▁미루	-8267
▁비료	-8268
▁104	-8269
▁둘러보	-8270
▁성장률	-8271
▁DD	-8272
▁SDI	-8273
▁크로	-8274
▁전염병	-8275
▁제작사	-8276
▁자생	-8277
아이	-8278
▁독거	-8279
▁우크라	-8280
▁230	-8281
▁군민	-8282
▁속출	-8283
▁띈	-8284
▁외래	-8285
▁캐피탈	-8286
▁되풀이	-8287
▁미달	-8288
▁항해	-8289
▁스러워	-8290
▁신생아	-8291
▁이겨	-8292
▁솜	-8293
▁서한	-8294
타페	-8295
▁다스	-8296
▁이뤄져	-8297
▁동문	-8298
▁자존	-8299
▁타인	-8300
▁109	-8301
▁그야말로	-8302
▁지하수	-8303
▁톰	-8304
▁때로	-8305
▁함정	-8306
▁해지	-8307
▁변속기	-8308
틸리티	-8309
▁초고속	-8310
▁1992	-8311
▁01	-8312
▁크라이슬러	-8313
▁농성	-8314
▁볶	-8315
▁용적	-8316
▁명문	-8317
▁광역시	-8318
▁연료전지	-8319
▁아태	-8320
▁찾아내	-8321
▁1400	-8322
▁가자	-8323
▁125	-8324
▁IoT	-8325
▁유틸리티	-8326
▁사이드	-8327
▁KAIST	-8328
▁환매	-8329
▁탐구	-8330
▁두피	-8331
▁역전	-8332
▁강렬	-8333
비전	-8334
▁혹시	-8335
▁석사	-8336
▁광부	-8337
▁학살	-8338
▁들어왔	-8339
▁공대	-8340
▁퇴임	-8341
▁과실	-8342
▁저출산	-8343
▁기차	-8344
▁생일	-8345
▁향기	-8346
▁순찰	-8347
▁멘토	-8348
▁그릇	-8349
▁이럴	-8350
▁최다	-8351
▁컨버	-8352
▁깨달	-8353
▁나비	-8354
▁남서	-8355
▁선제	-8356
▁일행	-8357
▁일렉	-8358
▁단풍	-8359
▁경감	-8360
▁후보지	-8361
▁테라	-8362
▁넉넉	-8363
▁특혜	-8364
▁수반	-8365
▁썰	-8366
부인	-8367
▁불꽃	-8368
중독	-8369
▁과자	-8370
▁역점	-8371
▁국유	-8372
▁멸종	-8373
▁정해진	-8374
▁버려	-8375
쿠스	-8376
▁다중	-8377
▁샐	-8378
▁쿠데	-8379
다임	-8380
▁패치	-8381
▁하도	-8382
▁3500	-8383
▁원정	-8384
▁패러다임	-8385
▁이뤄져야	-8386
▁감염자	-8387
▁오스트리아	-8388
▁미스트	-8389
▁키워드	-8390
▁퀄	-8391
▁발상	-8392
스테	-8393
▁날리	-8394
▁국제공항	-8395
▁1993	-8396
▁공백	-8397
▁약관	-8398
▁바꿨	-8399
▁온갖	-8400
▁코란	-8401
▁샷	-8402
형물	-8403
▁서귀포시	-8404
▁급성장	-8405
▁침대	-8406
▁안티	-8407
▁득표	-8408
▁일축	-8409
▁껍	-8410
▁돌아왔	-8411
▁n	-8412
▁양념	-8413
▁클로	-8414
▁가처분	-8415
▁화석	-8416
▁숙소	-8417
▁쿠바	-8418
▁팜	-8419
CA	-8420
▁랠리	-8421
▁권익	-8422
▁정년	-8423
▁성원	-8424
▁화소	-8425
▁되살	-8426
▁셔츠	-8427
▁반입	-8428
생물	-8429
▁블라	-8430
디스	-8431
▁출제	-8432
▁추운	-8433
▁골드만	-8434
▁지났	-8435
▁침몰	-8436
▁땐	-8437
▁환원	-8438
▁WT	-8439
▁장세	-8440
걸음	-8441
▁퍼지	-8442
▁한동안	-8443
지역	-8444
▁고온	-8445
▁에르	-8446
▁식중독	-8447
▁연구회	-8448
▁갇	-8449
▁상임위	-8450
▁앰	-8451
▁슬로건	-8452
▁차등	-8453
▁그날	-8454
▁고위급	-8455
▁NA	-8456
▁기압골	-8457
배우	-8458
▁박영	-8459
▁열대야	-8460
▁현역	-8461
▁말라	-8462
▁국왕	-8463
▁하이트	-8464
▁민중	-8465
▁기점	-8466
▁쿠데타	-8467
▁합창단	-8468
과학	-8469
▁박용	-8470
▁시야	-8471
▁밀도	-8472
▁실체	-8473
▁대관	-8474
▁문장	-8475
▁본래	-8476
퇴근	-8477
▁스터	-8478
▁원형	-8479
퍼니	-8480
▁납입	-8481
내리	-8482
▁하얀	-8483
▁고양시	-8484
▁홍천	-8485
▁인과	-8486
▁고령화	-8487
▁증폭	-8488
▁골목	-8489
▁부유	-8490
▁돼서	-8491
▁펄	-8492
▁후진타오	-8493
어져	-8494
▁AS	-8495
▁깨닫	-8496
▁풋	-8497
▁로라	-8498
▁공룡	-8499
▁도로공사	-8500
▁양재	-8501
▁들어설	-8502
▁휴게소	-8503
▁전투기	-8504
▁면역력	-8505
헨티나	-8506
▁계약서	-8507
▁수료	-8508
▁더라	-8509
▁내게	-8510
런트	-8511
▁좋아하	-8512
▁학업	-8513
▁금일	-8514
앤젤레스	-8515
▁아르헨티나	-8516
▁로스앤젤레스	-8517
▁드로	-8518
▁각료	-8519
▁터져	-8520
▁난방	-8521
▁예술가	-8522
버리	-8523
▁오키	-8524
▁활발히	-8525
리안	-8526
▁태극	-8527
▁외교관	-8528
▁컴퍼니	-8529
▁해요	-8530
▁휩쓸	-8531
▁던전	-8532
▁광명	-8533
▁보류	-8534
▁대림	-8535
▁사육	-8536
▁가꾸	-8537
▁애정	-8538
▁아쉽	-8539
▁왕자	-8540
▁체내	-8541
▁일본군	-8542
민주	-8543
▁첼	-8544
▁포지	-8545
▁고액	-8546
▁기술원	-8547
▁감소세	-8548
▁부위원장	-8549
마블	-8550
▁아모	-8551
▁우산	-8552
▁무너지	-8553
▁한림	-8554
▁넷마블	-8555
▁그렇지만	-8556
▁골든	-8557
▁피부과	-8558
▁스미	-8559
▁청취	-8560
▁토마토	-8561
RB	-8562
▁매트	-8563
▁안철수	-8564
gh	-8565
▁소행	-8566
▁거듭나	-8567
▁거짓말	-8568
▁아티스트	-8569
▁그랬	-8570
▁떠올랐	-8571
연구원	-8572
수수색	-8573
▁찾아보	-8574
▁분자	-8575
▁연탄	-8576
▁압수수색	-8577
▁발라	-8578
▁땅값	-8579
▁환승	-8580
▁과학부	-8581
선스	-8582
▁침략	-8583
▁시드	-8584
▁05	-8585
▁아리랑	-8586
▁우체국	-8587
▁고품질	-8588
공원	-8589
▁참전	-8590
▁출퇴근	-8591
▁동아리	-8592
▁라이선스	-8593
▁상수도	-8594
기지	-8595
▁소형차	-8596
▁초안	-8597
▁무분	-8598
▁신성	-8599
▁189	-8600
▁손꼽	-8601
▁내비쳤	-8602
▁관련자	-8603
▁옛날	-8604
▁두려움	-8605
▁김창	-8606
▁알파	-8607
▁저해	-8608
▁빗방울	-8609
▁문화유산	-8610
▁박모	-8611
▁태어났	-8612
▁기종	-8613
▁아바	-8614
▁흠	-8615
▁중년	-8616
▁세관	-8617
▁낡	-8618
▁해피	-8619
▁콧	-8620
꺼풀	-8621
러드	-8622
▁놓치	-8623
▁노란	-8624
▁카다	-8625
▁스피커	-8626
▁버블	-8627
▁재검	-8628
▁유래	-8629
Hz	-8630
▁인선	-8631
▁전매	-8632
▁기부금	-8633
▁표방	-8634
▁테이프	-8635
▁MC	-8636
▁샴	-8637
▁750	-8638
▁보호법	-8639
▁성수기	-8640
▁데이콤	-8641
▁려던	-8642
▁덴마크	-8643
▁시멘트	-8644
▁상의	-8645
▁윌리엄	-8646
▁당진	-8647
▁자아	-8648
▁라마	-8649
▁조국	-8650
▁아이디	-8651
▁중남미	-8652
▁수량	-8653
▁독려	-8654
▁옴	-8655
▁반등	-8656
거나	-8657
▁마침내	-8658
▁포티	-8659
▁정장	-8660
▁믹스	-8661
▁캐시	-8662
▁알렉	-8663
▁일련	-8664
▁한식	-8665
▁초보	-8666
▁320	-8667
▁멜라	-8668
▁1800	-8669
▁연주회	-8670
▁싼타페	-8671
▁야심	-8672
▁경제학	-8673
▁사용량	-8674
▁비극	-8675
▁주고	-8676
나와	-8677
▁관제	-8678
▁ml	-8679
▁톈	-8680
▁구경	-8681
▁카타르	-8682
▁적잖	-8683
▁여학생	-8684
▁바겐	-8685
▁김지	-8686
▁흩	-8687
▁둬	-8688
▁CA	-8689
▁헝	-8690
▁점진	-8691
▁곡선	-8692
▁서점	-8693
▁예의	-8694
▁부결	-8695
▁상류	-8696
▁대략	-8697
▁방출	-8698
▁민간인	-8699
가족	-8700
▁공존	-8701
▁텍스	-8702
▁원부	-8703
▁무주택	-8704
▁시그	-8705
▁1991	-8706
▁높인	-8707
▁조망	-8708
▁즉석	-8709
▁전진	-8710
▁훌쩍	-8711
▁가결	-8712
▁환불	-8713
▁히로	-8714
▁얹	-8715
▁윗	-8716
시오	-8717
▁CS	-8718
▁스티븐	-8719
▁번영	-8720
▁초연	-8721
▁용서	-8722
▁위임	-8723
▁내시경	-8724
▁연골	-8725
▁스페이스	-8726
▁MD	-8727
▁그쳐	-8728
▁신혼	-8729
▁왕복	-8730
▁부끄	-8731
▁중국어	-8732
▁전량	-8733
▁볼륨	-8734
▁힐러리	-8735
까요	-8736
▁남북한	-8737
▁종부	-8738
▁오른다	-8739
▁혈당	-8740
▁교직원	-8741
▁뒤따	-8742
▁반짝	-8743
▁플랜트	-8744
화물	-8745
▁잔액	-8746
▁미생물	-8747
▁등록금	-8748
▁106	-8749
▁SDS	-8750
▁저지른	-8751
▁내구	-8752
▁RF	-8753
▁안산	-8754
▁성폭력	-8755
▁정몽구	-8756
▁판촉	-8757
▁단식	-8758
▁석면	-8759
▁보훈	-8760
▁에버랜드	-8761
▁꼽혔	-8762
▁립식	-8763
▁설탕	-8764
▁무서	-8765
et	-8766
▁혼잡	-8767
▁안쪽	-8768
▁곁들	-8769
▁을수록	-8770
▁윤곽	-8771
▁달라진	-8772
▁도래	-8773
▁열람	-8774
▁화웨이	-8775
▁카스	-8776
▁이젠	-8777
▁신주	-8778
▁망명	-8779
▁방사성	-8780
▁대용량	-8781
▁실감	-8782
▁인피니티	-8783
▁허락	-8784
▁시뮬레이션	-8785
▁벚꽃	-8786
조사	-8787
▁주저	-8788
▁면치	-8789
걸이	-8790
▁케냐	-8791
▁띈다	-8792
▁칭찬	-8793
▁어긋	-8794
▁레이더	-8795
▁개조	-8796
▁예멘	-8797
▁필자	-8798
▁생애	-8799
지구	-8800
무소	-8801
▁투자가	-8802
부상	-8803
베리	-8804
▁효력	-8805
▁창단	-8806
▁이해관계	-8807
▁트래픽	-8808
▁드라이빙	-8809
베이터	-8810
▁정문	-8811
▁재임	-8812
▁후세	-8813
▁신재	-8814
▁노르웨이	-8815
노이	-8816
▁침투	-8817
▁아픈	-8818
▁사제	-8819
▁생긴다	-8820
▁교인	-8821
▁모빌	-8822
▁태우	-8823
▁근원	-8824
▁민사	-8825
▁약식	-8826
▁통폐	-8827
▁만점	-8828
▁딴	-8829
▁모의	-8830
▁옥수수	-8831
대교	-8832
▁마취	-8833
릿수	-8834
▁후기	-8835
▁김일	-8836
▁으려면	-8837
▁선호도	-8838
▁모하	-8839
▁어떨까	-8840
▁은평	-8841
▁창당	-8842
▁피고인	-8843
▁풀려	-8844
▁마사지	-8845
▁농심	-8846
▁불우	-8847
코드	-8848
▁상선	-8849
▁케이크	-8850
▁디바	-8851
▁달린	-8852
▁로선	-8853
▁협동조합	-8854
ed	-8855
▁국어	-8856
▁팟	-8857
▁다이아	-8858
▁성모	-8859
▁담임	-8860
▁피터	-8861
▁축복	-8862
▁반려	-8863
▁뽐	-8864
▁부적절	-8865
▁분화	-8866
▁팔려	-8867
▁크리스천	-8868
▁계획서	-8869
▁고점	-8870
▁가늠	-8871
▁오토바이	-8872
▁y	-8873
▁웅진	-8874
HO	-8875
▁무이자	-8876
▁성동	-8877
▁삼척	-8878
▁수목	-8879
▁카테	-8880
▁심층	-8881
슬라	-8882
▁출현	-8883
▁승무원	-8884
▁기관장	-8885
▁칼럼	-8886
▁등재	-8887
▁정정	-8888
▁128	-8889
▁합병증	-8890
시스코	-8891
▁피지	-8892
▁노스	-8893
▁쌓여	-8894
곡동	-8895
▁투데이	-8896
▁헤이	-8897
is	-8898
네스	-8899
▁호랑이	-8900
▁오사카	-8901
▁포로	-8902
추어	-8903
▁추방	-8904
▁AR	-8905
▁kW	-8906
▁순조	-8907
▁작곡가	-8908
▁공관	-8909
▁실린	-8910
작물	-8911
소연	-8912
▁평론	-8913
▁o	-8914
▁피서	-8915
▁도지사	-8916
▁청주시	-8917
▁방사능	-8918
▁화랑	-8919
▁부의	-8920
▁올리브	-8921
▁장교	-8922
▁어쩌	-8923
▁우즈	-8924
▁애국	-8925
▁전처	-8926
▁330	-8927
▁키즈	-8928
어날	-8929
▁행성	-8930
▁타이완	-8931
▁게임기	-8932
▁리듬	-8933
▁원서	-8934
온다	-8935
▁펑	-8936
악단	-8937
▁반기문	-8938
▁못지않	-8939
▁펌	-8940
▁징후	-8941
▁구강	-8942
▁훈장	-8943
▁대설	-8944
▁매직	-8945
▁진심	-8946
▁금전	-8947
▁동탄	-8948
▁입술	-8949
▁쉴	-8950
▁재테크	-8951
▁전교조	-8952
▁산림청	-8953
▁세액	-8954
▁양질	-8955
▁막바지	-8956
▁할당	-8957
▁MOU	-8958
바라	-8959
▁통폐합	-8960
▁크레	-8961
▁연주자	-8962
▁승계	-8963
▁디아	-8964
▁흰색	-8965
▁주고받	-8966
▁거든	-8967
▁오디션	-8968
▁가담	-8969
▁카다피	-8970
▁수자원	-8971
▁여고	-8972
▁고심	-8973
▁추격	-8974
프레	-8975
▁제주시	-8976
▁곤두	-8977
▁피트	-8978
▁ET	-8979
▁어두운	-8980
▁구제역	-8981
▁지휘자	-8982
▁후원금	-8983
▁샀	-8984
▁EBS	-8985
▁고속철	-8986
▁욕심	-8987
차림	-8988
▁카자	-8989
▁퀴즈	-8990
▁사각지대	-8991
▁흐려	-8992
마드	-8993
▁침묵	-8994
즈니	-8995
▁전청	-8996
▁구매자	-8997
▁하버드	-8998
▁안전성	-8999
▁눈앞	-9000
▁김승	-9001
▁햇볕	-9002
▁화가	-9003
▁힘쓰	-9004
▁270	-9005
▁한번	-9006
오르	-9007
▁복사	-9008
▁담화	-9009
▁성지	-9010
릅니다	-9011
▁옮겼	-9012
▁지회	-9013
마켓	-9014
▁보습	-9015
▁대명	-9016
▁성탄	-9017
▁한자	-9018
▁잣	-9019
▁좀처럼	-9020
▁파이어	-9021
▁후퇴	-9022
▁순례	-9023
▁양대	-9024
▁오마이	-9025
▁비유	-9026
▁롬	-9027
구니	-9028
▁줄곧	-9029
▁다툼	-9030
▁나미	-9031
▁위헌	-9032
▁사무국	-9033
RA	-9034
▁일조	-9035
▁1989	-9036
▁주지사	-9037
▁창문	-9038
▁컨텐츠	-9039
▁현대인	-9040
▁사회주의	-9041
ion	-9042
▁나쁘	-9043
▁프린터	-9044
▁간섭	-9045
▁동굴	-9046
▁꿀	-9047
▁닥터	-9048
▁찾아볼	-9049
▁무제	-9050
프란	-9051
▁돌보	-9052
▁r	-9053
태평양	-9054
▁좌파	-9055
▁민관	-9056
▁시킨다는	-9057
▁나눈	-9058
PA	-9059
▁가까워	-9060
▁입금	-9061
▁시집	-9062
▁이건희	-9063
▁남아공	-9064
혈압	-9065
▁획기적으로	-9066
▁몰래	-9067
▁반납	-9068
▁서산	-9069
▁비관	-9070
▁치우	-9071
▁풍속	-9072
▁그게	-9073
▁원주시	-9074
▁아크	-9075
▁앞당겨	-9076
▁DVD	-9077
▁신속히	-9078
▁상설	-9079
▁내세운	-9080
맞이	-9081
▁빈번	-9082
▁조장	-9083
▁사표	-9084
▁TF	-9085
▁시스코	-9086
▁코레	-9087
▁독창	-9088
▁스톡	-9089
▁조사단	-9090
▁어찌	-9091
▁대의원	-9092
▁만끽	-9093
▁안겨	-9094
▁말리	-9095
부르크	-9096
▁1100	-9097
▁가라앉	-9098
▁보리	-9099
살렘	-9100
시다	-9101
▁긴장감	-9102
▁본관	-9103
루살렘	-9104
▁아웃도어	-9105
▁단과	-9106
▁반문	-9107
▁견학	-9108
▁개인전	-9109
▁식수	-9110
▁CF	-9111
▁부임	-9112
▁김근	-9113
▁1988	-9114
▁램프	-9115
▁자택	-9116
▁실수요	-9117
▁정점	-9118
▁PE	-9119
▁불렀	-9120
▁카자흐	-9121
▁별개	-9122
▁특산물	-9123
케이	-9124
변속기	-9125
▁저질	-9126
▁QM	-9127
▁억류	-9128
▁마인드	-9129
▁스포츠카	-9130
▁임박	-9131
▁지음	-9132
컨대	-9133
▁초음	-9134
호우	-9135
눅스	-9136
▁엔지니어링	-9137
la	-9138
▁차츰	-9139
▁교전	-9140
▁화보	-9141
▁능동	-9142
▁증액	-9143
▁정자	-9144
▁EV	-9145
▁민노당	-9146
▁국보	-9147
▁방송위	-9148
▁탄도	-9149
▁최저치	-9150
▁아시안	-9151
OC	-9152
▁자존심	-9153
▁편견	-9154
▁카니	-9155
▁에어백	-9156
▁미지수	-9157
▁통지	-9158
▁알선	-9159
▁주축	-9160
▁VIP	-9161
▁분식	-9162
▁되게	-9163
▁진이	-9164
▁합산	-9165
▁주식회사	-9166
▁대박	-9167
▁비로	-9168
▁나눴	-9169
▁사라진	-9170
특별	-9171
▁교감	-9172
▁메트로	-9173
▁손길	-9174
▁인터페이스	-9175
▁유가족	-9176
▁한기	-9177
ght	-9178
▁코미	-9179
▁휴가철	-9180
▁결실	-9181
▁폭로	-9182
▁글자	-9183
▁싸이월드	-9184
▁분주	-9185
그라	-9186
▁특집	-9187
▁집중호우	-9188
▁각기	-9189
퀘어	-9190
▁서남	-9191
▁쪼	-9192
▁향수	-9193
▁커머스	-9194
▁인수위	-9195
▁CB	-9196
▁교통안전	-9197
▁습도	-9198
▁생산자	-9199
▁대인	-9200
▁서적	-9201
▁미네	-9202
▁트랜스	-9203
▁교민	-9204
▁플로리	-9205
▁총회장	-9206
▁연임	-9207
▁왔으나	-9208
▁한시	-9209
정동	-9210
▁튼튼	-9211
▁소방서	-9212
어졌	-9213
▁백성	-9214
▁너스	-9215
날레	-9216
▁거쳤	-9217
▁사주	-9218
▁입주자	-9219
▁봅	-9220
▁이민자	-9221
▁이공	-9222
▁자부심	-9223
▁플란트	-9224
크리트	-9225
▁물려	-9226
▁사교육	-9227
▁동상	-9228
▁쏟아져	-9229
▁지갑	-9230
▁갈아	-9231
▁이남	-9232
▁샌드	-9233
▁상습	-9234
▁메릴	-9235
▁폭풍	-9236
엘라	-9237
▁새우	-9238
규어	-9239
▁뱃	-9240
▁세탁기	-9241
▁실은	-9242
▁절정	-9243
▁우아	-9244
▁미쓰	-9245
▁고의	-9246
▁급변	-9247
▁니스	-9248
▁국한	-9249
▁부의장	-9250
▁방문자	-9251
추위	-9252
▁스승	-9253
▁방콕	-9254
▁지경	-9255
▁수비	-9256
프란시스코	-9257
▁으론	-9258
▁대책위	-9259
▁각막	-9260
▁샌프란시스코	-9261
▁종사	-9262
▁안전사고	-9263
▁무죄	-9264
▁107	-9265
▁토끼	-9266
▁기호	-9267
▁거래법	-9268
▁속한	-9269
중국	-9270
▁박지	-9271
▁필드	-9272
▁퀘스트	-9273
▁재규어	-9274
▁과거사	-9275
FA	-9276
▁연정	-9277
▁불행	-9278
▁요약	-9279
▁좌절	-9280
▁뻗	-9281
▁터지	-9282
▁악취	-9283
▁녹화	-9284
▁자릿수	-9285
▁충성	-9286
▁판타	-9287
▁김희	-9288
▁대지진	-9289
▁나요	-9290
▁살린	-9291
▁희망자	-9292
▁리니지	-9293
▁박진	-9294
▁적십자사	-9295
▁증식	-9296
▁조흥	-9297
▁알렸	-9298
▁승강	-9299
▁내려오	-9300
▁수동	-9301
▁호황	-9302
▁오리지	-9303
레이터	-9304
▁세르	-9305
▁방류	-9306
▁만장	-9307
▁전문지	-9308
▁물체	-9309
▁에드	-9310
▁장미	-9311
▁보안법	-9312
▁거제	-9313
▁113	-9314
▁군데	-9315
▁이치	-9316
▁식민지	-9317
▁슬라이	-9318
▁판도	-9319
▁ppm	-9320
▁낮췄	-9321
▁365	-9322
▁내면	-9323
▁간절	-9324
▁가장자리	-9325
싸움	-9326
▁파트너십	-9327
조선	-9328
▁포르쉐	-9329
▁커진	-9330
▁금감위	-9331
▁기리	-9332
▁부수	-9333
▁선선	-9334
▁280	-9335
▁솟	-9336
▁캠핑	-9337
▁차분	-9338
▁엇갈리	-9339
▁취임식	-9340
▁특허청	-9341
▁겹치	-9342
바꿈	-9343
▁고마	-9344
▁고비	-9345
▁마술	-9346
▁돌아보	-9347
말라	-9348
▁일가	-9349
투자증권	-9350
▁집행부	-9351
▁무늬	-9352
▁정제	-9353
▁할리	-9354
▁스타크	-9355
▁청렴	-9356
▁모던	-9357
▁피스	-9358
수산부	-9359
▁백지	-9360
▁켈	-9361
▁연구비	-9362
균관	-9363
▁금산	-9364
▁무분별	-9365
▁동사	-9366
▁상한가	-9367
▁기숙	-9368
▁외자	-9369
▁기밀	-9370
▁난치	-9371
백화점	-9372
▁간소	-9373
▁모시	-9374
▁회로	-9375
▁투싼	-9376
▁낙하	-9377
▁260	-9378
▁성취	-9379
▁우드	-9380
▁행렬	-9381
안군	-9382
▁신뢰도	-9383
▁종단	-9384
▁노령	-9385
▁모험	-9386
▁상황실	-9387
▁지름	-9388
▁성균관	-9389
▁백제	-9390
▁루이	-9391
▁무거운	-9392
▁모를	-9393
▁스킬	-9394
▁흉기	-9395
▁출근길	-9396
▁렀다	-9397
▁방대	-9398
▁드론	-9399
▁늘어난다	-9400
▁도망	-9401
▁취했	-9402
▁열흘	-9403
▁원자로	-9404
▁나눌	-9405
▁다이아몬드	-9406
▁비구름	-9407
▁제지	-9408
▁리눅스	-9409
와이	-9410
▁FRB	-9411
▁일으켜	-9412
▁기통	-9413
▁단정	-9414
▁북극	-9415
▁사상자	-9416
▁프라이즈	-9417
▁제너	-9418
▁부를	-9419
팩트	-9420
▁자본주의	-9421
▁아닐까	-9422
▁롯데호텔	-9423
▁수영장	-9424
▁바나	-9425
▁04	-9426
▁괴한	-9427
▁1950	-9428
▁멍	-9429
▁사이클	-9430
▁천식	-9431
▁02	-9432
▁갯벌	-9433
▁산모	-9434
▁파인	-9435
▁스러움	-9436
▁갈비	-9437
▁650	-9438
▁총무원	-9439
▁섬세	-9440
▁의외	-9441
▁전술	-9442
▁직결	-9443
▁번식	-9444
▁폴크스	-9445
에다	-9446
▁이인	-9447
▁장맛	-9448
▁가미	-9449
나물	-9450
▁저기	-9451
▁정진	-9452
▁조상	-9453
▁교구	-9454
▁취한	-9455
▁푼	-9456
▁하여금	-9457
▁시마	-9458
▁금년	-9459
▁올라오	-9460
▁테슬라	-9461
▁코노	-9462
▁핏	-9463
▁연준	-9464
▁빼놓	-9465
예술	-9466
▁쇄신	-9467
▁섰	-9468
▁영농	-9469
▁퇴원	-9470
▁스테이	-9471
▁사은	-9472
▁횡단	-9473
멘터리	-9474
네스코	-9475
▁장례식	-9476
▁농작물	-9477
걸리	-9478
리자드	-9479
▁123	-9480
▁블리자드	-9481
▁해양수산부	-9482
▁양악	-9483
▁접할	-9484
▁햇살	-9485
▁이해찬	-9486
▁탈바꿈	-9487
▁자꾸	-9488
▁동반자	-9489
▁내성	-9490
▁수직	-9491
▁져야	-9492
▁버섯	-9493
▁계룡	-9494
▁다큐멘터리	-9495
▁틸	-9496
▁엮	-9497
▁잃어	-9498
▁이게	-9499
▁힙	-9500
▁분단	-9501
모토	-9502
▁귀환	-9503
▁김우	-9504
▁피우	-9505
▁체코	-9506
▁빌리	-9507
▁강타	-9508
▁장외	-9509
▁효성	-9510
▁어스	-9511
▁노조원	-9512
▁저수	-9513
▁막걸리	-9514
▁드래곤	-9515
▁주어지	-9516
업자	-9517
▁군청	-9518
▁내국	-9519
▁여왕	-9520
▁릭	-9521
▁스탠리	-9522
▁빈도	-9523
▁저점	-9524
▁유네스코	-9525
▁실려	-9526
뜨렸	-9527
▁유화	-9528
▁직선	-9529
▁고혈압	-9530
▁전례	-9531
▁목표치	-9532
MS	-9533
▁불린다	-9534
▁미일	-9535
▁적절히	-9536
▁음향	-9537
▁USB	-9538
▁영감	-9539
▁해왔	-9540
▁우리투자증권	-9541
▁한양대	-9542
▁기용	-9543
▁떠올리	-9544
통일	-9545
▁돌아갔	-9546
▁낸드	-9547
▁바그다드	-9548
▁밍	-9549
▁암살	-9550
▁보유자	-9551
▁안랩	-9552
▁남대	-9553
▁액티브	-9554
▁목동	-9555
▁개신	-9556
저트	-9557
▁재외	-9558
▁위스키	-9559
▁데리	-9560
▁이관	-9561
▁해저	-9562
▁초속	-9563
▁원만	-9564
▁경제성장	-9565
▁경량	-9566
▁염색	-9567
▁단절	-9568
▁부른다	-9569
▁플러	-9570
▁210	-9571
▁카카오톡	-9572
▁틴	-9573
▁여가	-9574
▁슬픔	-9575
▁영재	-9576
▁두꺼	-9577
▁550	-9578
▁동아일보	-9579
▁제대	-9580
▁주지	-9581
보합	-9582
▁사행	-9583
▁플로	-9584
▁맛볼	-9585
▁크롬	-9586
▁고치	-9587
미르	-9588
▁방과	-9589
▁135	-9590
암동	-9591
▁여섯	-9592
수엘라	-9593
▁텔레비전	-9594
▁스톱	-9595
▁응급실	-9596
▁03	-9597
▁솔로	-9598
▁콘퍼런스	-9599
▁PP	-9600
le	-9601
▁폭격	-9602
▁개량	-9603
▁초음파	-9604
▁스모	-9605
▁08	-9606
▁대단히	-9607
▁STX	-9608
▁플라자	-9609
▁무궁	-9610
▁직권	-9611
▁미스	-9612
▁모바일게임	-9613
▁양파	-9614
▁다뤄	-9615
▁가져야	-9616
▁성서	-9617
▁The	-9618
방향	-9619
▁학사	-9620
▁탈피	-9621
▁천연가스	-9622
▁까닭	-9623
프리	-9624
▁부평	-9625
▁장맛비	-9626
▁기류	-9627
▁베네수엘라	-9628
디언	-9629
▁CNS	-9630
▁헨	-9631
▁진해	-9632
▁ES	-9633
▁어릴	-9634
▁내무	-9635
린다는	-9636
▁총파	-9637
▁엘리베이터	-9638
▁베이비	-9639
▁산재	-9640
▁연립	-9641
▁수돗	-9642
▁세분	-9643
▁바로잡	-9644
▁총파업	-9645
▁스포티지	-9646
▁부응	-9647
▁추경	-9648
▁사거리	-9649
▁칼슘	-9650
▁바뀔	-9651
▁188	-9652
▁입상	-9653
▁밀착	-9654
▁오리지널	-9655
▁아이오	-9656
▁식별	-9657
드라	-9658
▁IA	-9659
▁거시	-9660
▁유죄	-9661
▁마우스	-9662
▁첩	-9663
위성	-9664
LS	-9665
▁공법	-9666
▁으려고	-9667
다지	-9668
▁알카	-9669
▁위크	-9670
▁관리법	-9671
고래	-9672
▁패드	-9673
▁그해	-9674
▁리어	-9675
▁지역민	-9676
오리	-9677
▁플로리다	-9678
▁수돗물	-9679
▁륜	-9680
▁계획안	-9681
▁조처	-9682
▁뷔	-9683
▁천안시	-9684
▁백인	-9685
▁블루투스	-9686
▁내과	-9687
▁수원시	-9688
▁체온	-9689
▁해선	-9690
▁일지	-9691
▁비나	-9692
▁최후	-9693
센스	-9694
▁LS	-9695
▁옷차림	-9696
▁금고	-9697
▁퇴치	-9698
천구	-9699
▁거울	-9700
▁동남아시아	-9701
▁환산	-9702
▁뭘	-9703
▁박탈	-9704
▁종결	-9705
▁경전	-9706
▁데려	-9707
▁껍질	-9708
▁그램	-9709
▁롯데월드	-9710
▁아세안	-9711
▁캐스	-9712
▁슨	-9713
▁김광	-9714
▁예컨대	-9715
▁열쇠	-9716
▁디바이스	-9717
▁카테고리	-9718
▁두부	-9719
▁단연	-9720
▁이광	-9721
▁귀여	-9722
▁소멸	-9723
▁잡히	-9724
▁결과물	-9725
▁엄중	-9726
▁세입	-9727
▁보람	-9728
▁CG	-9729
▁디저트	-9730
▁영주	-9731
▁스타크래프트	-9732
▁아우르	-9733
▁드립니다	-9734
리카락	-9735
▁양구	-9736
▁머리카락	-9737
▁표출	-9738
▁책자	-9739
치기	-9740
▁조경	-9741
▁후세인	-9742
▁임차	-9743
▁나토	-9744
▁AD	-9745
▁청탁	-9746
▁오리온	-9747
▁핀란드	-9748
▁납득	-9749
▁쇼크	-9750
▁어워드	-9751
▁SKT	-9752
▁외과	-9753
▁간식	-9754
▁06	-9755
▁천국	-9756
▁따라가	-9757
▁고쳐	-9758
▁블라디	-9759
여대	-9760
▁시공사	-9761
▁넘쳐	-9762
▁어지	-9763
▁꾀하	-9764
▁개그	-9765
▁116	-9766
▁사도	-9767
▁카자흐스탄	-9768
▁풍랑	-9769
▁기인	-9770
▁포스터	-9771
▁잖	-9772
▁이순	-9773
▁절망	-9774
▁랜섬	-9775
▁한복	-9776
▁줌	-9777
▁주연	-9778
▁118	-9779
▁여객선	-9780
보증	-9781
▁증강	-9782
▁가전제품	-9783
▁알카에다	-9784
▁의결권	-9785
▁생물학	-9786
그러	-9787
▁려다	-9788
▁뜯	-9789
베스	-9790
▁처리장	-9791
▁서정	-9792
▁1987	-9793
라이나	-9794
▁달라질	-9795
▁보호자	-9796
▁호환	-9797
▁상점	-9798
▁발열	-9799
▁인자	-9800
▁마디	-9801
▁설득력	-9802
벌이	-9803
▁감싸	-9804
▁보행자	-9805
▁점거	-9806
▁운동가	-9807
▁강성	-9808
▁인조	-9809
두리	-9810
▁라운	-9811
▁산사태	-9812
부인과	-9813
▁니트	-9814
▁박재	-9815
▁산부인과	-9816
▁반경	-9817
▁돌출	-9818
▁팰	-9819
▁샘플	-9820
▁애인	-9821
▁하도급	-9822
▁튜닝	-9823
년층	-9824
▁스퀘어	-9825
▁톨	-9826
▁기동	-9827
▁불쾌	-9828
▁카라	-9829
▁버거	-9830
▁대관령	-9831
▁양평	-9832
▁소변	-9833
▁나간다는	-9834
전기	-9835
▁뺀	-9836
회관	-9837
세이	-9838
▁분수	-9839
▁기관지	-9840
▁제천	-9841
▁117	-9842
▁산타	-9843
▁싹	-9844
부동산	-9845
TC	-9846
▁넘긴	-9847
▁던졌	-9848
▁마일리지	-9849
op	-9850
▁테니스	-9851
▁구비	-9852
▁지청	-9853
▁위암	-9854
▁에프	-9855
▁NHK	-9856
▁몰렸	-9857
▁당황	-9858
▁소품	-9859
▁기념행사	-9860
▁던져	-9861
▁팽팽	-9862
▁심상	-9863
▁테마파크	-9864
▁칼로리	-9865
▁차림	-9866
▁산행	-9867
▁태아	-9868
▁호기심	-9869
▁전념	-9870
▁나이트	-9871
▁감행	-9872
▁경희대	-9873
▁억울	-9874
▁현명	-9875
▁피의자	-9876
▁모공	-9877
▁하고	-9878
▁대성	-9879
▁김원	-9880
▁4500	-9881
▁일회	-9882
제주군	-9883
▁이화여대	-9884
▁잇몸	-9885
▁성별	-9886
▁늦추	-9887
▁치밀	-9888
▁독립운동	-9889
▁상봉	-9890
▁의석	-9891
▁백혈	-9892
▁파스	-9893
▁BB	-9894
▁다량	-9895
▁넘겼	-9896
신문	-9897
▁이루어진	-9898
▁언스	-9899
▁노원	-9900
▁샤오	-9901
▁찬바람	-9902
▁산발	-9903
▁이야말로	-9904
▁퀸	-9905
▁핸들	-9906
▁승소	-9907
▁구나	-9908
▁거주자	-9909
▁강자	-9910
▁동호회	-9911
▁폐수	-9912
▁만전	-9913
▁참여연대	-9914
▁다크	-9915
▁스파크	-9916
▁에피	-9917
▁쌓인	-9918
▁소자	-9919
▁세션	-9920
▁시어	-9921
▁오키나와	-9922
▁여타	-9923
▁비축	-9924
▁합당	-9925
▁탔	-9926
▁플래그	-9927
▁됐었	-9928
높이	-9929
▁강릉시	-9930
▁베스트셀러	-9931
▁유역	-9932
▁김민	-9933
▁개개	-9934
▁기세	-9935
▁원동	-9936
▁LNG	-9937
▁컨셉	-9938
▁에릭	-9939
▁짐작	-9940
▁후손	-9941
▁바둑	-9942
▁수만	-9943
▁밤사이	-9944
▁베드	-9945
▁경협	-9946
▁거쳐야	-9947
▁NG	-9948
▁저서	-9949
▁인사말	-9950
▁JP	-9951
▁아마추어	-9952
▁명실	-9953
▁행안	-9954
▁백두산	-9955
▁도마	-9956
▁송이	-9957
▁정직	-9958
턴트	-9959
▁전폭	-9960
어야	-9961
▁시흥	-9962
▁퍼져	-9963
▁차가운	-9964
▁감옥	-9965
▁방송국	-9966
▁임산부	-9967
▁항공편	-9968
엔날레	-9969
▁화력	-9970
▁건네	-9971
▁콘크리트	-9972
▁가져오	-9973
▁실수요자	-9974
▁배울	-9975
▁어학	-9976
▁겹쳐	-9977
스레	-9978
▁무형	-9979
▁개교	-9980
▁버티	-9981
▁초록	-9982
▁거센	-9983
덱스	-9984
▁KO	-9985
플렉스	-9986
▁달한	-9987
▁고등학생	-9988
▁퍼블리싱	-9989
▁소비세	-9990
▁추궁	-9991
▁총통	-9992
▁드문	-9993
▁마리아	-9994
▁꺼리	-9995
▁틈새	-9996
▁지구촌	-9997
▁낙후	-9998
▁옹호	-9999
▁하순	-10000
▁기침	-10001
▁한참	-10002
메이드	-10003
▁다변	-10004
▁조이	-10005
▁부친	-10006
▁들리	-10007
▁향토	-10008
▁수백만	-10009
▁배기량	-10010
▁탤	-10011
텐도	-10012
▁얼어붙	-10013
▁교훈	-10014
▁닌텐도	-10015
▁선수단	-10016
▁소설가	-10017
▁이사국	-10018
▁장난감	-10019
▁SAP	-10020
▁씹	-10021
징어	-10022
▁정읍	-10023
▁퓨전	-10024
▁리베	-10025
▁취재진	-10026
▁랴	-10027
▁모티브	-10028
▁사용료	-10029
▁다름없	-10030
메인	-10031
체어	-10032
▁살피	-10033
▁신영	-10034
▁911	-10035
▁양수	-10036
▁뱀	-10037
CO	-10038
▁넘나	-10039
▁인위	-10040
▁출처	-10041
▁국공	-10042
▁오세	-10043
▁킬로	-10044
▁구조물	-10045
▁무르	-10046
식간	-10047
▁변환	-10048
▁피싱	-10049
▁쉼터	-10050
▁사우스	-10051
▁김인	-10052
▁신세계백화점	-10053
▁액정	-10054
▁휠체어	-10055
▁플라이	-10056
▁구급	-10057
포동	-10058
▁잔디	-10059
▁될까	-10060
▁업주	-10061
▁납세자	-10062
▁소신	-10063
▁도대	-10064
▁천재	-10065
▁예루살렘	-10066
레스테	-10067
▁왕실	-10068
▁지킬	-10069
▁거든요	-10070
▁지중	-10071
▁몰라	-10072
우주	-10073
▁대형주	-10074
▁진리	-10075
▁비시	-10076
▁랄	-10077
▁견디	-10078
벨트	-10079
▁빠질	-10080
▁들어선다	-10081
렁크	-10082
▁부쩍	-10083
▁살림	-10084
▁출하량	-10085
더위	-10086
▁억지	-10087
현동	-10088
▁개신교	-10089
▁프랑크	-10090
as	-10091
▁트렁크	-10092
부동산세	-10093
사리	-10094
▁재검토	-10095
▁역세	-10096
▁표본	-10097
▁보너스	-10098
▁불어넣	-10099
▁공사비	-10100
▁흥분	-10101
▁데스크톱	-10102
습기	-10103
텍스	-10104
▁치를	-10105
▁파우	-10106
▁매개	-10107
▁판로	-10108
▁분사	-10109
▁07	-10110
▁발부	-10111
▁수역	-10112
▁가나	-10113
▁사직	-10114
▁종합부동산세	-10115
▁돌연	-10116
▁와중	-10117
베리아	-10118
RP	-10119
▁조수	-10120
▁도자기	-10121
▁햇빛	-10122
▁돌아갈	-10123
▁자란	-10124
▁메카	-10125
▁술부	-10126
▁웹젠	-10127
nd	-10128
▁리버	-10129
▁대입	-10130
▁압구	-10131
▁소말	-10132
▁전주시	-10133
▁묘지	-10134
▁관세청	-10135
▁영산	-10136
▁언더	-10137
▁큐브	-10138
▁리처	-10139
▁찾아온	-10140
▁팡	-10141
▁각질	-10142
▁꾸려	-10143
▁목격자	-10144
▁빠져나가	-10145
▁정시	-10146
▁처해	-10147
▁달래	-10148
▁평상	-10149
▁서두르	-10150
▁변했	-10151
▁특가	-10152
▁중형차	-10153
▁안철수연구소	-10154
▁세브	-10155
▁복부	-10156
레스테롤	-10157
▁헛	-10158
▁피아니스트	-10159
▁삼각	-10160
▁남짓	-10161
▁넘어설	-10162
ews	-10163
▁대미	-10164
미노	-10165
▁봄철	-10166
▁성북	-10167
▁운하	-10168
▁동지	-10169
▁통역	-10170
▁라기	-10171
▁영예	-10172
▁단서	-10173
▁스펙	-10174
▁콜레스테롤	-10175
▁박정희	-10176
▁아이콘	-10177
▁견지	-10178
▁안주	-10179
▁전통문화	-10180
파리	-10181
▁121	-10182
▁김근태	-10183
리즘	-10184
▁상단	-10185
▁수제	-10186
▁기탁	-10187
▁내림	-10188
▁촉각	-10189
▁우주선	-10190
▁대장암	-10191
▁면밀히	-10192
▁신진	-10193
▁비비	-10194
▁이브	-10195
▁동물원	-10196
▁연구실	-10197
▁취미	-10198
▁키보드	-10199
▁해외여행	-10200
▁광대	-10201
▁대응책	-10202
▁극도	-10203
둥성	-10204
▁최강	-10205
▁KIS	-10206
▁맥도	-10207
▁친근	-10208
중국해	-10209
▁사은품	-10210
▁배운	-10211
▁원피스	-10212
▁회의장	-10213
▁다자	-10214
▁스키장	-10215
▁군부대	-10216
▁도당	-10217
▁380	-10218
▁뜨거	-10219
▁학급	-10220
결연	-10221
▁더운	-10222
▁자매결연	-10223
▁카니발	-10224
▁노예	-10225
▁쓰촨	-10226
잡이	-10227
▁렉스턴	-10228
▁회사채	-10229
▁가루	-10230
▁안다	-10231
▁순식간	-10232
▁발걸음	-10233
▁문재인	-10234
▁물자	-10235
▁1700	-10236
제당	-10237
▁식이	-10238
▁지역구	-10239
▁각도	-10240
▁퍼스트	-10241
▁해남	-10242
▁임진	-10243
▁불법행위	-10244
▁복장	-10245
▁대접	-10246
▁감염병	-10247
▁직위	-10248
▁제일제당	-10249
▁바닷물	-10250
▁구이	-10251
▁코치	-10252
▁FC	-10253
▁효소	-10254
▁공표	-10255
▁극단주의	-10256
▁당과	-10257
▁조원	-10258
▁어리	-10259
▁폭포	-10260
▁미술품	-10261
▁잠수함	-10262
▁추워	-10263
▁편법	-10264
▁울진	-10265
착륙	-10266
▁욕망	-10267
▁자동변속기	-10268
▁주머니	-10269
▁허리케인	-10270
▁폐사	-10271
▁DJ	-10272
▁잡힌	-10273
▁요한	-10274
다오	-10275
▁매몰	-10276
▁동전	-10277
▁미안	-10278
▁깔려	-10279
▁상급	-10280
▁더러	-10281
렌토	-10282
▁소말리아	-10283
▁부두	-10284
▁부추기	-10285
▁목재	-10286
유예	-10287
▁풍력	-10288
자치도	-10289
특별자치도	-10290
▁가열	-10291
▁제주특별자치도	-10292
▁연산	-10293
▁예정지	-10294
▁가자지구	-10295
▁도대체	-10296
▁모리	-10297
▁켄	-10298
▁예장	-10299
▁무덤	-10300
▁합치	-10301
▁결승전	-10302
▁항암제	-10303
▁알뜰	-10304
▁관악	-10305
경기	-10306
▁길거리	-10307
▁사위	-10308
▁밀레	-10309
▁부속	-10310
▁한발	-10311
▁획단	-10312
▁하남	-10313
▁압둘	-10314
▁재협	-10315
▁서장	-10316
▁탐색	-10317
▁메탈	-10318
▁리프트	-10319
▁마법	-10320
소드	-10321
▁줄줄	-10322
▁RPG	-10323
▁잠식	-10324
▁닭고기	-10325
▁개표	-10326
▁후면	-10327
▁만두	-10328
▁관념	-10329
▁CO	-10330
▁푸짐	-10331
▁청담	-10332
▁엉덩이	-10333
▁그다지	-10334
▁쿼터	-10335
▁대내	-10336
▁리뉴	-10337
▁항공우주	-10338
▁증명서	-10339
▁병원장	-10340
▁도메인	-10341
▁제법	-10342
▁첨부	-10343
▁격렬	-10344
▁김연	-10345
▁노린	-10346
▁09	-10347
▁실렸	-10348
라이언	-10349
▁의존도	-10350
▁장내	-10351
▁이강	-10352
▁개개인	-10353
▁하한	-10354
▁의의	-10355
▁퇴행	-10356
▁기생	-10357
▁곡물	-10358
▁드러낸	-10359
▁압수	-10360
▁똑같이	-10361
▁언덕	-10362
▁중추	-10363
▁오징어	-10364
▁아가	-10365
쿠르	-10366
▁122	-10367
▁대운	-10368
겨운	-10369
▁팔린	-10370
▁쏟아졌	-10371
▁양주	-10372
▁코디	-10373
▁주스	-10374
▁교육비	-10375
▁로움	-10376
▁중앙일보	-10377
▁구석	-10378
▁상국	-10379
▁아모레	-10380
▁흘러나	-10381
▁늦춰	-10382
▁요미	-10383
▁무작	-10384
▁지스타	-10385
드리	-10386
▁기공	-10387
▁액체	-10388
▁창간	-10389
▁란스	-10390
▁인허가	-10391
▁수중	-10392
▁길드	-10393
▁보직	-10394
▁물리학	-10395
▁거둬	-10396
▁무지	-10397
▁문경	-10398
▁결렬	-10399
▁권오	-10400
▁해준다	-10401
▁패스트	-10402
▁초월	-10403
▁돌아와	-10404
▁SI	-10405
▁거북	-10406
▁유익	-10407
▁지루	-10408
▁발사체	-10409
▁맡겨	-10410
▁미러	-10411
▁안착	-10412
▁김명	-10413
▁끌려	-10414
▁마신	-10415
▁인파	-10416
▁현대그룹	-10417
▁배틀	-10418
▁당직자	-10419
▁대동	-10420
▁울트라	-10421
▁프란치	-10422
해야	-10423
▁부동	-10424
▁달라졌	-10425
▁워크아웃	-10426
기계	-10427
▁정보원	-10428
▁기본법	-10429
▁연례	-10430
▁발레단	-10431
▁캐피털	-10432
▁리처드	-10433
▁소진	-10434
▁국물	-10435
▁권영	-10436
▁문화원	-10437
지방	-10438
▁교양	-10439
▁이창	-10440
▁잔고	-10441
▁더군	-10442
▁머물러	-10443
▁탤런트	-10444
lo	-10445
▁싱크	-10446
▁오션	-10447
▁개동	-10448
▁기술자	-10449
▁실무자	-10450
▁보험업	-10451
▁청각	-10452
▁리아	-10453
▁공통점	-10454
▁오너	-10455
▁도난	-10456
▁마카오	-10457
▁FPS	-10458
▁헝가리	-10459
▁세일즈	-10460
▁페달	-10461
▁스테이션	-10462
▁움직일	-10463
▁판타지	-10464
퍼드	-10465
▁워커	-10466
▁딱딱	-10467
▁우연히	-10468
▁체전	-10469
▁흐린	-10470
▁조영	-10471
▁축산물	-10472
▁주범	-10473
▁기숙사	-10474
▁궁금증	-10475
▁해병대	-10476
▁톡톡히	-10477
▁계약자	-10478
▁유혈	-10479
▁나들이	-10480
▁소동	-10481
▁윈도우	-10482
뉴얼	-10483
▁이끈	-10484
▁쏘렌토	-10485
▁여수시	-10486
▁강서구	-10487
▁수신료	-10488
▁약점	-10489
▁주임	-10490
성군	-10491
▁음모	-10492
▁육체	-10493
▁달걀	-10494
▁주무	-10495
▁풀어	-10496
▁환기	-10497
▁포상금	-10498
▁와이파이	-10499
▁사죄	-10500
▁상기	-10501
티넨	-10502
예금	-10503
▁in	-10504
▁피난	-10505
▁상용차	-10506
▁점쳐	-10507
▁레스	-10508
▁오이	-10509
▁장갑	-10510
▁텐트	-10511
▁평론가	-10512
▁재질	-10513
▁작물	-10514
▁하와이	-10515
▁블로	-10516
▁화증	-10517
▁장애물	-10518
▁포화	-10519
▁구형	-10520
▁연기금	-10521
FC	-10522
▁이용료	-10523
▁자위대	-10524
▁충고	-10525
▁출구	-10526
▁간직	-10527
▁방면	-10528
▁프란치스코	-10529
▁가문	-10530
▁주먹	-10531
▁바나나	-10532
니즘	-10533
▁DC	-10534
▁강우	-10535
▁정조	-10536
▁내지	-10537
▁나뉜	-10538
▁티볼	-10539
▁알릴	-10540
인다는	-10541
▁김윤	-10542
▁바짝	-10543
제철	-10544
▁보물	-10545
조리	-10546
▁가져다	-10547
▁콰	-10548
▁단편	-10549
감치	-10550
찌감치	-10551
▁사생활	-10552
숭이	-10553
▁신념	-10554
▁용납	-10555
▁리프	-10556
▁언젠	-10557
▁흔한	-10558
▁송환	-10559
▁정맥	-10560
로나	-10561
상승	-10562
▁장남	-10563
▁밸류	-10564
▁럼	-10565
▁실전	-10566
▁사살	-10567
▁후계	-10568
▁진작	-10569
▁집착	-10570
▁쌍둥이	-10571
▁덧붙	-10572
루스	-10573
▁남원	-10574
▁예탁	-10575
▁관광공사	-10576
▁발동	-10577
▁경영학	-10578
▁천명	-10579
▁잡혀	-10580
▁iOS	-10581
▁포식	-10582
▁완성도	-10583
▁본연	-10584
부분	-10585
▁아부	-10586
▁부하	-10587
▁NS	-10588
▁용인시	-10589
▁보사	-10590
▁옮긴	-10591
▁극동	-10592
▁손자	-10593
▁한컴	-10594
▁미혼	-10595
플레	-10596
총재	-10597
▁중소기업청	-10598
▁스티어링	-10599
▁사채	-10600
▁특색	-10601
▁안락	-10602
▁결선	-10603
가치	-10604
회계	-10605
▁공채	-10606
▁위메이드	-10607
▁당론	-10608
▁세심	-10609
▁포천	-10610
▁계급	-10611
▁재협상	-10612
▁재앙	-10613
il	-10614
▁마틴	-10615
▁인출	-10616
▁다케	-10617
▁국제기구	-10618
▁라서	-10619
▁어음	-10620
하나	-10621
▁샐러드	-10622
▁역내	-10623
▁그러므로	-10624
▁올라섰	-10625
▁로열티	-10626
▁교토	-10627
▁이만	-10628
▁심야	-10629
▁엄정	-10630
국장	-10631
▁부총재	-10632
▁로맨	-10633
클럽	-10634
▁소용	-10635
▁종시	-10636
▁파이터	-10637
게이	-10638
▁김홍	-10639
▁야권	-10640
▁후문	-10641
▁과기부	-10642
▁회고	-10643
▁내려져	-10644
▁이재민	-10645
▁웜	-10646
▁임하	-10647
▁천천	-10648
▁가져가	-10649
▁옐	-10650
▁친숙	-10651
▁유진	-10652
▁브로커	-10653
▁드린다고	-10654
▁통관	-10655
▁소명	-10656
▁오스	-10657
▁웨스트	-10658
▁분유	-10659
▁익산	-10660
▁치중	-10661
▁요미우리	-10662
▁로직	-10663
▁채팅	-10664
IC	-10665
▁항체	-10666
▁위력	-10667
▁고소득	-10668
▁셜	-10669
재료	-10670
▁존슨	-10671
▁맞대	-10672
▁현대건설	-10673
▁종식	-10674
▁응하	-10675
데시	-10676
▁유흥	-10677
▁세라	-10678
▁그늘	-10679
▁백업	-10680
▁불씨	-10681
▁이랜드	-10682
▁든든	-10683
현실	-10684
▁기둥	-10685
▁올레	-10686
▁중장	-10687
▁스위치	-10688
▁아르바이트	-10689
▁기르	-10690
▁콩쿠르	-10691
▁빛나	-10692
▁수월	-10693
▁불거진	-10694
▁트러	-10695
▁입문	-10696
수술	-10697
▁가평	-10698
▁음란	-10699
▁책상	-10700
▁털어놓	-10701
▁삐	-10702
▁사회봉	-10703
▁선언문	-10704
▁133	-10705
▁아닌지	-10706
▁동요	-10707
▁리라	-10708
▁스티브	-10709
▁끼치	-10710
▁전대	-10711
▁티볼리	-10712
▁손목	-10713
▁볼트	-10714
▁연고	-10715
▁급부상	-10716
▁화백	-10717
▁섹시	-10718
▁공구	-10719
▁동등	-10720
▁교복	-10721
▁언젠가	-10722
▁145	-10723
▁안무	-10724
▁초교	-10725
▁사의	-10726
▁로즈	-10727
식물	-10728
▁실종자	-10729
▁도장	-10730
▁공해	-10731
파스	-10732
▁김제	-10733
▁북서쪽	-10734
▁홈피	-10735
느리	-10736
▁말기	-10737
순환	-10738
▁옌	-10739
소통	-10740
▁나마	-10741
▁꾸미	-10742
▁126	-10743
▁면모	-10744
▁알렉산	-10745
▁중학생	-10746
▁월등	-10747
▁기상대	-10748
▁선풍	-10749
▁인내	-10750
▁불허	-10751
▁은하	-10752
▁갑상	-10753
▁암세포	-10754
▁천천히	-10755
▁남극	-10756
▁변호인	-10757
▁굶	-10758
▁잔류	-10759
▁의사소통	-10760
▁애완	-10761
▁천장	-10762
커트	-10763
▁서식지	-10764
시지가	-10765
진구	-10766
거스	-10767
▁베리	-10768
▁운전석	-10769
▁공시지가	-10770
▁256	-10771
▁교량	-10772
▁늑	-10773
▁보트	-10774
▁영성	-10775
▁야마	-10776
▁김준	-10777
▁쳤	-10778
▁미비	-10779
75	-10780
▁수은	-10781
▁186	-10782
▁안다고	-10783
▁과반수	-10784
▁갱신	-10785
▁명명	-10786
운서	-10787
▁중상	-10788
▁저기압	-10789
마킹	-10790
▁사업소	-10791
▁할수록	-10792
▁벤치마킹	-10793
▁왕성	-10794
▁설악산	-10795
▁뿌려	-10796
▁가할	-10797
▁관문	-10798
▁매뉴얼	-10799
▁푹	-10800
▁개각	-10801
▁교계	-10802
운동연합	-10803
▁법학	-10804
문화회관	-10805
▁WHO	-10806
▁항로	-10807
▁선대	-10808
▁청량	-10809
▁진정한	-10810
▁세종문화회관	-10811
▁안정세	-10812
▁도용	-10813
▁삼가	-10814
▁코카	-10815
▁청정기	-10816
▁완치	-10817
▁운영비	-10818
▁놀랐	-10819
▁올라서	-10820
▁아나운서	-10821
어로	-10822
▁모호	-10823
▁봅니다	-10824
▁제소	-10825
▁리포트	-10826
▁스캔들	-10827
▁이장	-10828
▁동방	-10829
▁성추	-10830
▁접속자	-10831
▁모양새	-10832
▁숙제	-10833
▁바이올린	-10834
45	-10835
▁동산	-10836
▁상고	-10837
에스	-10838
▁거칠	-10839
▁프렌	-10840
▁떠오른	-10841
▁되돌아	-10842
▁파행	-10843
▁표했	-10844
티넨탈	-10845
▁허물	-10846
▁멤버십	-10847
▁챙긴	-10848
▁연차	-10849
▁취항	-10850
▁글씨	-10851
▁플루	-10852
▁눈높이	-10853
▁포용	-10854
▁가로막	-10855
▁꽉	-10856
▁퀄컴	-10857
▁메달	-10858
▁난항	-10859
▁진위	-10860
▁나들	-10861
▁달랐	-10862
▁활동가	-10863
▁시크	-10864
▁자바	-10865
▁선교회	-10866
▁to	-10867
▁어우러진	-10868
▁두뇌	-10869
ap	-10870
내믹	-10871
▁신촌	-10872
▁역외	-10873
▁쑥	-10874
▁자르	-10875
수단	-10876
▁132	-10877
▁165	-10878
▁연행	-10879
▁하노이	-10880
▁다이내믹	-10881
▁실상	-10882
▁나들목	-10883
▁원재료	-10884
▁전동차	-10885
▁밀양	-10886
▁관망	-10887
▁보답	-10888
▁VR	-10889
▁급등세	-10890
▁마그	-10891
▁아테	-10892
▁법칙	-10893
▁GE	-10894
▁성추행	-10895
right	-10896
▁129	-10897
▁무더기	-10898
TA	-10899
▁우연	-10900
▁가마	-10901
▁누워	-10902
▁네이처	-10903
▁이산가족	-10904
▁정연	-10905
▁중량	-10906
▁이의	-10907
▁두통	-10908
▁모순	-10909
▁매운	-10910
▁선장	-10911
합니다	-10912
제약	-10913
▁캡슐	-10914
▁적성	-10915
▁속옷	-10916
천동	-10917
그래	-10918
▁아무것	-10919
▁색채	-10920
자재	-10921
▁탈환	-10922
▁감세	-10923
▁유난	-10924
▁당할	-10925
▁썩	-10926
▁미스터	-10927
산성	-10928
▁김문	-10929
▁중진	-10930
카르	-10931
팡이	-10932
▁한빛	-10933
▁크라	-10934
▁등록세	-10935
▁내실	-10936
▁후방	-10937
▁조문	-10938
▁골고	-10939
▁육류	-10940
▁한라산	-10941
미리트	-10942
▁외장	-10943
▁of	-10944
▁역삼	-10945
▁다가가	-10946
▁185	-10947
▁가격대	-10948
▁수납	-10949
▁지면	-10950
▁백혈병	-10951
▁찾아와	-10952
제리	-10953
▁사관	-10954
▁삼성카드	-10955
▁기업가	-10956
▁합참	-10957
▁놓인	-10958
▁625	-10959
▁엣	-10960
▁관철	-10961
▁136	-10962
▁망원	-10963
LED	-10964
▁대작	-10965
▁떨어진다	-10966
▁드릴	-10967
▁괴롭	-10968
끼리	-10969
▁성질	-10970
필품	-10971
▁한성	-10972
▁자산관리	-10973
▁폐막	-10974
▁성전	-10975
▁살아나	-10976
▁누락	-10977
▁기성	-10978
▁성산	-10979
▁디즈니	-10980
▁새겨	-10981
▁EA	-10982
▁씨앗	-10983
▁생필품	-10984
▁지켜야	-10985
▁섀	-10986
▁환전	-10987
▁방송법	-10988
▁더해	-10989
▁겐	-10990
▁문예	-10991
▁투기지역	-10992
▁대웅	-10993
▁조달청	-10994
▁조흥은행	-10995
▁일찌감치	-10996
▁예쁜	-10997
타리	-10998
▁성모병원	-10999
▁학장	-11000
▁턱없이	-11001
▁WTO	-11002
▁본토	-11003
▁섬기	-11004
▁입장료	-11005
▁환호	-11006
▁신상품	-11007
▁기념품	-11008
좌석	-11009
▁힌	-11010
무실	-11011
▁니혼	-11012
▁착각	-11013
▁캐스팅	-11014
▁신행	-11015
▁날카	-11016
▁다발	-11017
▁창원시	-11018
▁화질	-11019
▁코팅	-11020
절기	-11021
▁파이프	-11022
▁내세웠	-11023
▁증권업	-11024
▁1986	-11025
빨리	-11026
▁서열	-11027
▁가닥	-11028
▁도주	-11029
▁영덕	-11030
▁오산	-11031
▁드라이버	-11032
러워	-11033
▁양당	-11034
▁기내	-11035
▁탭	-11036
러움	-11037
▁탈취	-11038
▁실속	-11039
아시아	-11040
▁줄줄이	-11041
▁CM	-11042
▁도저히	-11043
▁종편	-11044
▁펼친	-11045
▁공론	-11046
▁남도	-11047
▁간장	-11048
▁후생	-11049
▁뒷좌석	-11050
▁니까요	-11051
▁유적지	-11052
▁가르쳐	-11053
▁스타일링	-11054
▁가습기	-11055
▁입대	-11056
▁골절	-11057
▁폐렴	-11058
▁엿볼	-11059
▁MW	-11060
▁예요	-11061
▁토니	-11062
▁벗어난	-11063
▁광물	-11064
▁소비량	-11065
▁세정	-11066
▁에피소드	-11067
▁투수	-11068
▁소서	-11069
▁155	-11070
▁노릇	-11071
▁불명	-11072
▁1900	-11073
▁정류	-11074
▁풍선	-11075
▁근간	-11076
▁비로소	-11077
▁미아	-11078
겹살	-11079
▁과기	-11080
▁경진	-11081
▁OP	-11082
▁견조	-11083
광역	-11084
BI	-11085
▁배당금	-11086
▁낮출	-11087
▁접어	-11088
▁일류	-11089
▁마이크로	-11090
▁폭발물	-11091
▁히어로	-11092
▁독주	-11093
▁삼겹살	-11094
▁가점	-11095
▁131	-11096
▁탄산	-11097
▁127	-11098
▁개점	-11099
▁접대	-11100
혈증	-11101
▁돌파구	-11102
▁당사국	-11103
▁입소문	-11104
▁자질	-11105
웨이트	-11106
▁세계인	-11107
▁낮춘	-11108
▁견고	-11109
▁한숨	-11110
▁조건부	-11111
▁잡아	-11112
▁노회	-11113
보이	-11114
▁상무부	-11115
▁냉전	-11116
▁시드니	-11117
▁꽂	-11118
▁한껏	-11119
▁토너	-11120
▁판결문	-11121
▁온몸	-11122
▁월마트	-11123
▁쏘울	-11124
▁공과	-11125
▁혀	-11126
▁독립성	-11127
아산	-11128
▁초상	-11129
제과	-11130
▁버그	-11131
▁결집	-11132
▁원심	-11133
▁추상	-11134
▁무사히	-11135
▁쿠웨이트	-11136
▁농경	-11137
▁참으로	-11138
코니	-11139
▁바오	-11140
▁달렸	-11141
▁현저히	-11142
▁찔	-11143
▁대운하	-11144
▁대출금	-11145
▁이어서	-11146
▁연재	-11147
▁추출물	-11148
▁구금	-11149
▁기다려	-11150
▁보고회	-11151
▁발암	-11152
▁슈팅	-11153
▁콜롬	-11154
▁장래	-11155
▁김일성	-11156
▁그러면	-11157
▁왕국	-11158
▁850	-11159
▁가파른	-11160
▁최상위	-11161
▁아마도	-11162
▁올라갈	-11163
▁연합군	-11164
▁포지션	-11165
▁ᆞ중	-11166
▁이진	-11167
▁소강	-11168
▁각급	-11169
▁낯선	-11170
▁이희	-11171
버섯	-11172
▁막상	-11173
▁플렉스	-11174
▁총영	-11175
▁골고루	-11176
▁경쟁자	-11177
▁환경운동연합	-11178
▁끔	-11179
▁모처럼	-11180
글라스	-11181
▁라식	-11182
▁막강	-11183
▁문항	-11184
▁현수	-11185
▁식용	-11186
▁제자리	-11187
대식	-11188
▁차트	-11189
▁광학	-11190
▁치료비	-11191
95	-11192
▁강호	-11193
▁몰려들	-11194
▁루프	-11195
▁운임	-11196
▁가디언	-11197
▁게이츠	-11198
훈련	-11199
▁국과	-11200
▁요시	-11201
▁저금리	-11202
트릭	-11203
ps	-11204
▁실험실	-11205
▁스와	-11206
▁항소심	-11207
▁완만	-11208
▁콘솔	-11209
▁지친	-11210
▁귀여운	-11211
▁연다고	-11212
▁놨	-11213
▁줄인	-11214
코스	-11215
▁처형	-11216
▁전한다	-11217
▁포항시	-11218
▁장부	-11219
지먼트	-11220
▁매니지먼트	-11221
▁입안	-11222
us	-11223
▁지켰	-11224
▁맞췄	-11225
▁고분	-11226
▁구인	-11227
▁걸린다	-11228
▁자유주의	-11229
▁그림자	-11230
▁첸	-11231
▁계약금	-11232
▁이리	-11233
▁인성	-11234
▁미성	-11235
▁실업자	-11236
35	-11237
▁생수	-11238
▁샤워	-11239
▁컨셉트	-11240
▁공짜	-11241
▁습득	-11242
민주당	-11243
▁건국대	-11244
▁되새	-11245
▁브리지	-11246
▁자연환경	-11247
▁크리스토	-11248
▁서강	-11249
▁수교	-11250
▁가금	-11251
▁성과급	-11252
무게	-11253
▁범여	-11254
▁총체	-11255
▁법상	-11256
톡스	-11257
▁기자실	-11258
▁몸무게	-11259
▁토목	-11260
tt	-11261
▁NGO	-11262
▁기념일	-11263
▁트레인	-11264
▁키스	-11265
▁남아프리카	-11266
TS	-11267
▁124	-11268
▁페라리	-11269
▁선적	-11270
▁민원인	-11271
▁온다	-11272
하우스	-11273
▁접경	-11274
▁주중	-11275
▁태극기	-11276
▁배워	-11277
고사	-11278
▁수출액	-11279
도르	-11280
▁에티	-11281
▁랭킹	-11282
▁동백	-11283
▁파워콤	-11284
▁본회	-11285
▁돌아서	-11286
에미리트	-11287
▁울주군	-11288
글라	-11289
▁용산구	-11290
바오	-11291
덕수	-11292
▁급수	-11293
▁발제	-11294
▁마루	-11295
▁떨어뜨리	-11296
▁고창	-11297
▁이라도	-11298
▁지성	-11299
▁이동전	-11300
▁뜬	-11301
▁영수증	-11302
▁물의	-11303
▁아랍에미리트	-11304
▁볼라	-11305
▁김천	-11306
릴라	-11307
▁뒤덮	-11308
▁답한	-11309
▁계통	-11310
▁집행유예	-11311
▁프리미어	-11312
▁울리	-11313
▁일본어	-11314
▁다임	-11315
▁고충	-11316
▁봉투	-11317
▁입각	-11318
▁키트	-11319
철도	-11320
▁기량	-11321
▁수박	-11322
▁거장	-11323
▁175	-11324
▁조인	-11325
래도	-11326
▁발코니	-11327
▁참치	-11328
▁대담	-11329
▁거실	-11330
▁가야	-11331
▁너희	-11332
▁비아	-11333
▁아소	-11334
▁수평	-11335
▁애호	-11336
▁선양	-11337
▁쌍꺼풀	-11338
소싱	-11339
▁적법	-11340
▁불거지	-11341
25	-11342
▁구본	-11343
▁무자	-11344
▁별명	-11345
글라데시	-11346
▁소양	-11347
▁하계	-11348
▁고산	-11349
▁질주	-11350
▁예정자	-11351
▁아웃소싱	-11352
▁마음껏	-11353
▁르네	-11354
▁서대문	-11355
▁의협	-11356
▁영화관	-11357
▁비염	-11358
럴드	-11359
▁함대	-11360
▁환경청	-11361
▁방글라데시	-11362
▁여행자	-11363
정보	-11364
▁로스쿨	-11365
▁밀러	-11366
오카	-11367
▁의구	-11368
▁단골	-11369
▁졌으며	-11370
▁함양	-11371
▁지부장	-11372
▁자수	-11373
▁137	-11374
▁고령자	-11375
▁유난히	-11376
▁은폐	-11377
▁벗어날	-11378
▁지점장	-11379
▁부제	-11380
▁최재	-11381
▁키울	-11382
▁보스턴	-11383
경찰	-11384
▁가해자	-11385
▁북방	-11386
▁닉스	-11387
▁어둠	-11388
▁급기	-11389
▁지사장	-11390
▁하단	-11391
▁블레이드	-11392
▁집필	-11393
▁다듬	-11394
▁구할	-11395
▁아무래도	-11396
블로	-11397
▁소홀히	-11398
세우	-11399
▁미수	-11400
▁생활비	-11401
▁동맥	-11402
▁염원	-11403
▁정파	-11404
▁인공위성	-11405
▁225	-11406
▁풍요	-11407
▁우스	-11408
▁의구심	-11409
▁국제선	-11410
▁적시	-11411
▁적설	-11412
난다	-11413
▁연평	-11414
▁비상사태	-11415
▁bp	-11416
▁원두	-11417
▁추대	-11418
▁답사	-11419
▁생존자	-11420
▁부시장	-11421
▁주선	-11422
▁TDI	-11423
범죄	-11424
▁침공	-11425
▁관통	-11426
▁빚어지	-11427
▁제반	-11428
▁co	-11429
▁체형	-11430
▁대내외	-11431
▁문인	-11432
▁문학상	-11433
▁낙태	-11434
▁동창	-11435
▁에요	-11436
▁친척	-11437
▁셔서	-11438
▁조직원	-11439
▁실크	-11440
유국	-11441
▁520	-11442
▁세이프	-11443
▁변인	-11444
▁가만	-11445
▁메릴린	-11446
▁경합	-11447
▁먼바다	-11448
▁드럼	-11449
▁오만	-11450
▁방수	-11451
▁보일러	-11452
▁밀가루	-11453
▁도울	-11454
▁187	-11455
▁이현	-11456
▁청결	-11457
▁좁혀	-11458
▁니즈	-11459
▁기뻐	-11460
▁충원	-11461
▁평면	-11462
▁노사정	-11463
▁착안	-11464
▁족부	-11465
▁아울렛	-11466
▁잣대	-11467
기사	-11468
▁직속	-11469
카메라	-11470
▁기저	-11471
▁유모	-11472
시민	-11473
▁다시피	-11474
▁문화재청	-11475
▁계류	-11476
▁다녔	-11477
▁EC	-11478
▁FI	-11479
▁낀	-11480
날드	-11481
▁재일	-11482
▁원동력	-11483
▁한의사	-11484
▁강정	-11485
▁들어올	-11486
▁미즈	-11487
▁웨이브	-11488
▁수출국	-11489
▁루트	-11490
아프리카	-11491
▁이완	-11492
▁제작진	-11493
▁EMC	-11494
▁코끼리	-11495
▁격화	-11496
▁난이도	-11497
▁여정	-11498
▁찰스	-11499
▁축전	-11500
▁머무르	-11501
▁IR	-11502
▁경실	-11503
▁약제	-11504
▁소화기	-11505
▁연수원	-11506
▁인격	-11507
네마	-11508
거장	-11509
▁숙성	-11510
▁촉촉	-11511
▁분실	-11512
옵니다	-11513
▁현미	-11514
▁주성	-11515
▁대란	-11516
▁지배력	-11517
▁생명체	-11518
▁마오	-11519
▁페루	-11520
▁평상시	-11521
▁참관	-11522
테이션	-11523
▁부가가치	-11524
▁키운	-11525
▁고법	-11526
▁목적지	-11527
▁LP	-11528
▁상작	-11529
▁이타	-11530
▁ABC	-11531
정사	-11532
▁비틀	-11533
▁개도	-11534
▁깊숙	-11535
▁남다른	-11536
에르	-11537
▁불길	-11538
▁지카	-11539
▁보통주	-11540
▁페리	-11541
▁의과	-11542
▁갖춰야	-11543
▁효자	-11544
▁리부	-11545
▁미팅	-11546
▁포켓	-11547
▁어드	-11548
▁비단	-11549
▁시스템즈	-11550
마리	-11551
▁피부염	-11552
▁그분	-11553
▁제안서	-11554
▁국기	-11555
▁휘말	-11556
▁DDR	-11557
▁138	-11558
▁집사	-11559
▁들여다보	-11560
▁경부고속도로	-11561
▁리드	-11562
▁끔찍	-11563
▁씽	-11564
통화	-11565
▁간암	-11566
▁계신	-11567
▁트윈	-11568
▁종족	-11569
▁농수산물	-11570
▁익히	-11571
▁우주인	-11572
▁대표부	-11573
▁홍대	-11574
▁수개	-11575
▁질타	-11576
▁재판관	-11577
▁신라호텔	-11578
▁저런	-11579
▁아쿠	-11580
▁품격	-11581
▁담뱃	-11582
▁1985	-11583
▁팬츠	-11584
▁유통망	-11585
▁숨기	-11586
▁천정	-11587
▁폐업	-11588
▁중금속	-11589
▁순교	-11590
▁원사	-11591
▁초빙	-11592
▁사절	-11593
푸르트	-11594
▁심플	-11595
▁마른	-11596
▁걸어서	-11597
▁공무	-11598
▁변동성	-11599
레어	-11600
▁이회	-11601
▁정거장	-11602
▁복선	-11603
거래소	-11604
▁느낀다	-11605
▁스테이크	-11606
▁성황	-11607
▁피곤	-11608
▁저변	-11609
▁드디어	-11610
▁사르	-11611
ent	-11612
▁평화통일	-11613
라노	-11614
▁손익	-11615
▁웬만	-11616
▁해발	-11617
▁옥상	-11618
▁비수기	-11619
▁훔친	-11620
▁고작	-11621
▁그렸	-11622
▁압류	-11623
▁이단	-11624
▁고고	-11625
▁교차로	-11626
▁수협	-11627
▁나주	-11628
▁피서객	-11629
▁신병	-11630
▁141	-11631
▁을까요	-11632
▁상반	-11633
▁우방	-11634
▁회기	-11635
▁임종	-11636
▁종자	-11637
▁옮김	-11638
▁칼라	-11639
▁이석	-11640
▁눌러	-11641
▁덩어리	-11642
▁치가	-11643
▁자비	-11644
▁벌어질	-11645
▁가드	-11646
▁으리	-11647
▁하나하나	-11648
▁재팬	-11649
닐라	-11650
▁고맙	-11651
쿼터스	-11652
▁유영	-11653
▁검색어	-11654
▁메릴린치	-11655
▁유비쿼터스	-11656
▁관방	-11657
▁기득	-11658
▁진한	-11659
▁힘써	-11660
▁마실	-11661
▁갑상선	-11662
▁슈즈	-11663
▁메디컬	-11664
▁컨설턴트	-11665
▁검문	-11666
▁연애	-11667
▁도정	-11668
▁박동	-11669
▁내밀	-11670
▁놀이터	-11671
▁아연	-11672
▁대권	-11673
▁손질	-11674
▁맛집	-11675
▁보호구역	-11676
OD	-11677
▁경실련	-11678
▁엠게임	-11679
▁충실히	-11680
▁하트	-11681
플레잉	-11682
▁혼선	-11683
▁롤플레잉	-11684
▁잠복	-11685
▁동두	-11686
▁오랜만	-11687
▁잃어버린	-11688
▁잖아	-11689
▁김은	-11690
▁잠깐	-11691
▁떠날	-11692
▁마포구	-11693
▁부적합	-11694
▁손색	-11695
▁질소	-11696
▁스마	-11697
▁정차	-11698
▁촉매	-11699
▁총량	-11700
▁절충	-11701
에이터	-11702
▁외지	-11703
▁공명	-11704
▁배급	-11705
▁관중	-11706
▁잉글	-11707
▁내보내	-11708
▁미시	-11709
▁부산항	-11710
▁김학	-11711
▁완도	-11712
▁방화벽	-11713
▁몰두	-11714
▁군단	-11715
▁서예	-11716
▁신대	-11717
▁일깨	-11718
▁GP	-11719
▁직종	-11720
▁명실상부	-11721
▁정기예금	-11722
일치	-11723
▁성악	-11724
▁부설	-11725
▁녹십자	-11726
▁패션쇼	-11727
▁슈퍼마켓	-11728
▁확고히	-11729
▁프랑크푸르트	-11730
▁조찬	-11731
▁고구마	-11732
▁보잉	-11733
세데스	-11734
▁들어섰	-11735
▁담아	-11736
▁퇴직금	-11737
▁BT	-11738
▁메르세데스	-11739
업소	-11740
▁바쁘	-11741
관리위원회	-11742
▁주간지	-11743
▁태그	-11744
▁370	-11745
▁재연	-11746
▁동경	-11747
▁사들이	-11748
▁유로존	-11749
▁안녕	-11750
▁요트	-11751
무진	-11752
▁쿤	-11753
▁충무	-11754
▁두드러졌	-11755
▁정복	-11756
▁총무원장	-11757
▁화천	-11758
▁선거관리위원회	-11759
▁나돌	-11760
▁참조	-11761
▁강판	-11762
▁한솔	-11763
▁KISA	-11764
▁표주	-11765
▁바우	-11766
▁잇따른	-11767
▁무겁	-11768
▁이면	-11769
일러	-11770
▁무안	-11771
▁포르투	-11772
다운	-11773
통화기금	-11774
▁엘리트	-11775
로우	-11776
▁김한	-11777
▁민간단체	-11778
기념	-11779
▁이나마	-11780
▁펌프	-11781
▁자행	-11782
▁전인	-11783
▁340	-11784
▁시식	-11785
▁국제통화기금	-11786
▁기자단	-11787
지르	-11788
리그	-11789
▁그레	-11790
포스	-11791
▁김주	-11792
▁노골	-11793
▁가리키	-11794
▁로그인	-11795
▁생태계	-11796
▁킴	-11797
▁박찬	-11798
▁예민	-11799
▁후회	-11800
▁하회	-11801
장치	-11802
▁지중해	-11803
▁방중	-11804
▁나뉜다	-11805
▁삼양	-11806
▁천사	-11807
▁비빔	-11808
▁경직	-11809
▁낙하산	-11810
▁통행료	-11811
▁김석	-11812
▁치러진	-11813
▁필러	-11814
▁전문직	-11815
▁탈세	-11816
▁찾아왔	-11817
▁앙상	-11818
딜락	-11819
▁건축비	-11820
수리	-11821
▁캐딜락	-11822
▁소상	-11823
▁자활	-11824
▁발자	-11825
▁조그	-11826
▁지킴	-11827
▁착한	-11828
▁포획	-11829
▁경마	-11830
퇴직	-11831
▁잔여	-11832
세기	-11833
▁반찬	-11834
▁겨루	-11835
▁안타까운	-11836
▁팽창	-11837
▁최고가	-11838
권력	-11839
▁전도사	-11840
▁불량자	-11841
▁개회	-11842
▁134	-11843
▁멈춰	-11844
▁원안	-11845
부족	-11846
ec	-11847
▁여간	-11848
▁BI	-11849
▁돔	-11850
▁잇따랐	-11851
▁신나	-11852
▁구출	-11853
▁얼리	-11854
▁간다는	-11855
▁계시	-11856
▁단양	-11857
든지	-11858
▁1979	-11859
▁금회	-11860
저기	-11861
▁로또	-11862
▁950	-11863
▁반격	-11864
밴드	-11865
▁피크	-11866
▁버지	-11867
마다	-11868
▁까다로운	-11869
▁집중력	-11870
▁갖출	-11871
▁백억	-11872
▁여진	-11873
▁차려	-11874
▁동맹국	-11875
▁잔뜩	-11876
▁한기총	-11877
기부전	-11878
▁악순환	-11879
▁대졸	-11880
▁무용수	-11881
▁발기부전	-11882
▁휴업	-11883
▁아날	-11884
▁비엔날레	-11885
▁수축	-11886
▁다치	-11887
▁구독	-11888
▁세밀	-11889
▁속성	-11890
▁무서운	-11891
▁차이나	-11892
▁여기저기	-11893
▁프리우스	-11894
광역시	-11895
▁대법관	-11896
▁원수	-11897
▁치른	-11898
▁올라갔	-11899
▁절기	-11900
테리아	-11901
▁원숭이	-11902
▁금방	-11903
▁방송인	-11904
데요	-11905
▁카이로	-11906
▁던진	-11907
▁산란	-11908
▁최영	-11909
▁고안	-11910
▁캐리	-11911
▁연어	-11912
리랑카	-11913
▁부원장	-11914
▁포즈	-11915
▁끊임없	-11916
▁펫	-11917
▁고흥	-11918
▁으니까	-11919
▁퍼즐	-11920
▁국익	-11921
▁정주	-11922
▁스리랑카	-11923
▁번거	-11924
▁섹스	-11925
▁식단	-11926
▁지각	-11927
▁흥국	-11928
▁할리우드	-11929
▁완주	-11930
▁집약	-11931
▁빔	-11932
▁출입국	-11933
▁산단	-11934
▁메르켈	-11935
▁144	-11936
▁금상	-11937
▁첨예	-11938
레븐	-11939
▁홈런	-11940
▁인맥	-11941
▁강재	-11942
▁스티커	-11943
▁주택가	-11944
화질	-11945
▁헤즈	-11946
▁건보	-11947
▁폼페이	-11948
메드	-11949
▁개발비	-11950
▁돼왔	-11951
통신	-11952
▁142	-11953
▁밤새	-11954
▁회부	-11955
▁제일은행	-11956
▁어우러져	-11957
여름	-11958
탄소	-11959
▁릴레이	-11960
▁침범	-11961
▁선글라스	-11962
▁도둑	-11963
▁정재	-11964
▁전향	-11965
▁148	-11966
▁디렉	-11967
베르	-11968
▁변해	-11969
▁불사	-11970
티아	-11971
▁성직자	-11972
▁스트라이	-11973
▁영양소	-11974
▁ᆞ미	-11975
▁이시	-11976
연설	-11977
▁광고주	-11978
▁기울여야	-11979
▁소공	-11980
▁된장	-11981
하라	-11982
▁본다며	-11983
▁일수	-11984
옵션	-11985
▁과대	-11986
▁단의	-11987
▁저명	-11988
▁한몫	-11989
▁주어진	-11990
▁따돌	-11991
▁선천	-11992
▁생계비	-11993
▁제너럴	-11994
▁부녀	-11995
▁뷔페	-11996
▁에이스	-11997
▁급진	-11998
▁매번	-11999
▁국수	-12000
▁대당	-12001
▁동조	-12002
▁IAEA	-12003
▁병실	-12004
▁모른다는	-12005
▁다카	-12006
▁차라리	-12007
▁왓	-12008
▁보라	-12009
▁만장일치	-12010
▁정품	-12011
트륨	-12012
▁종금	-12013
▁가치관	-12014
▁진열	-12015
기능	-12016
▁괴산	-12017
▁사마	-12018
▁낭만	-12019
▁장담	-12020
▁이대	-12021
▁치닫	-12022
▁OPEC	-12023
약자	-12024
▁승격	-12025
▁정오	-12026
틀랜드	-12027
▁구직자	-12028
▁기자재	-12029
▁체조	-12030
▁존스	-12031
▁무궁화	-12032
▁이통	-12033
▁폐해	-12034
▁교육장	-12035
▁수퍼	-12036
▁테러리스트	-12037
▁상응	-12038
▁의료법	-12039
▁현대아산	-12040
지오	-12041
▁생식	-12042
▁키웠	-12043
▁지르	-12044
▁해상도	-12045
▁참가국	-12046
▁수개월	-12047
▁성급	-12048
▁156	-12049
▁139	-12050
▁이준	-12051
▁배웠	-12052
▁스프링	-12053
▁2400	-12054
▁민선	-12055
▁거꾸	-12056
▁이은	-12057
▁1984	-12058
▁연출가	-12059
▁식탁	-12060
▁박승	-12061
▁장로회	-12062
▁151	-12063
▁시만	-12064
▁활짝	-12065
▁황당	-12066
▁잔잔	-12067
▁그물	-12068
음료	-12069
▁스틱	-12070
▁몰입	-12071
▁성립	-12072
DS	-12073
▁특급	-12074
▁줍	-12075
첨단	-12076
▁끝날	-12077
▁동유럽	-12078
▁공립	-12079
▁학점	-12080
▁센스	-12081
▁유령	-12082
▁골격	-12083
▁고공	-12084
▁골다	-12085
▁IB	-12086
▁현수막	-12087
▁외무부	-12088
▁RFID	-12089
▁과감히	-12090
▁접점	-12091
▁중력	-12092
여겨	-12093
ac	-12094
▁증권거래소	-12095
▁어쩌면	-12096
▁UA	-12097
▁라운지	-12098
▁가로수	-12099
▁기조연설	-12100
▁남양주	-12101
▁필라	-12102
▁국민회	-12103
▁놀랍	-12104
▁민정	-12105
▁반감	-12106
▁가락	-12107
▁다가왔	-12108
▁닷새	-12109
▁방조	-12110
▁쓴다	-12111
▁획관	-12112
▁눈여겨	-12113
▁강인	-12114
▁컷	-12115
▁알림	-12116
▁챌	-12117
▁판다	-12118
▁긴밀히	-12119
▁전성	-12120
로호	-12121
▁급속도	-12122
▁서초동	-12123
▁막히	-12124
▁종신	-12125
▁유병	-12126
국수	-12127
▁IDC	-12128
▁잇단	-12129
▁430	-12130
동원	-12131
▁뿜	-12132
공증	-12133
▁공신	-12134
▁협력체	-12135
▁스위트	-12136
▁의해서	-12137
▁당면	-12138
▁음주운전	-12139
▁호박	-12140
▁지켜봐야	-12141
용수	-12142
▁개도국	-12143
▁로밍	-12144
▁상상력	-12145
▁애경	-12146
▁입출	-12147
▁7500	-12148
▁귀족	-12149
▁털어놨	-12150
▁더라고	-12151
▁골다공증	-12152
▁극우	-12153
▁기체	-12154
▁반지	-12155
▁겸손	-12156
하면	-12157
▁엄격히	-12158
▁심기	-12159
▁엔트리	-12160
▁올라온	-12161
▁서킷	-12162
▁탐험	-12163
▁이회창	-12164
▁젓	-12165
▁184	-12166
요금	-12167
▁안구	-12168
스타일	-12169
▁최첨단	-12170
▁모터스포츠	-12171
▁강아지	-12172
▁십니다	-12173
▁아메리	-12174
워진	-12175
습관	-12176
▁월세	-12177
▁은지	-12178
▁나사	-12179
▁VM	-12180
▁영암	-12181
▁타르	-12182
▁강동구	-12183
▁내림세	-12184
▁제때	-12185
▁전보	-12186
▁146	-12187
▁178	-12188
▁시만텍	-12189
▁니다	-12190
▁서원	-12191
am	-12192
▁화답	-12193
▁지우	-12194
▁근린	-12195
니엄	-12196
▁세울	-12197
▁사계	-12198
▁돌아다니	-12199
▁천지	-12200
▁리뷰	-12201
▁거꾸로	-12202
▁일러	-12203
▁다임러	-12204
워했	-12205
▁위배	-12206
▁모빌리티	-12207
푸르	-12208
▁살펴볼	-12209
▁유실	-12210
▁식습관	-12211
위치	-12212
▁뒤지	-12213
▁유산균	-12214
▁박태	-12215
▁니콜	-12216
▁리베이트	-12217
▁아사드	-12218
▁만회	-12219
▁스트리트	-12220
▁FO	-12221
▁사무관	-12222
▁주니어	-12223
용품	-12224
▁부주	-12225
▁괴물	-12226
▁대열	-12227
터블	-12228
▁오로지	-12229
▁진다는	-12230
▁교향악단	-12231
▁준중	-12232
▁탑승자	-12233
같이	-12234
▁중서	-12235
▁전가	-12236
▁러블	-12237
▁시안	-12238
▁그래프	-12239
▁담겼	-12240
▁MBN	-12241
▁대추	-12242
▁아날로그	-12243
▁서리	-12244
▁수정안	-12245
▁행방	-12246
▁한중일	-12247
▁152	-12248
▁격상	-12249
▁그만두	-12250
▁손학	-12251
▁바리	-12252
▁가든	-12253
▁맥도날드	-12254
▁교포	-12255
▁혐오	-12256
▁황토	-12257
▁프레스센터	-12258
▁다투	-12259
▁정답	-12260
▁원주민	-12261
▁준공식	-12262
▁볼리	-12263
▁죄송	-12264
▁취업자	-12265
▁승차감	-12266
▁우상	-12267
▁지날	-12268
주곡	-12269
▁앞뒤	-12270
▁사업가	-12271
▁카운티	-12272
▁휴직	-12273
▁체인지	-12274
▁열도	-12275
▁신정	-12276
▁영상물	-12277
▁사라져	-12278
▁모션	-12279
세라	-12280
▁143	-12281
▁간선	-12282
▁소관	-12283
▁보살	-12284
▁식욕	-12285
▁원선	-12286
▁적힌	-12287
나리	-12288
레일	-12289
▁원한다	-12290
▁올린다	-12291
▁AW	-12292
▁주택공사	-12293
▁서스	-12294
▁스모그	-12295
▁대명사	-12296
▁적혀	-12297
▁마쓰	-12298
▁420	-12299
교회	-12300
▁줄지	-12301
▁췌	-12302
▁간과	-12303
▁스미스	-12304
▁노약자	-12305
▁아쉬운	-12306
▁타개	-12307
▁149	-12308
▁하동	-12309
▁무언	-12310
▁비누	-12311
▁자처	-12312
▁펼쳐진	-12313
▁위기감	-12314
▁벌어들	-12315
▁역부족	-12316
▁맛보	-12317
▁살포	-12318
▁판소리	-12319
▁중도금	-12320
▁줄어든다	-12321
▁그리스도인	-12322
▁가혹	-12323
▁바비	-12324
줄기세포	-12325
▁발대식	-12326
▁매기	-12327
▁회개	-12328
▁저마다	-12329
▁콜라겐	-12330
▁그걸	-12331
▁CES	-12332
bps	-12333
▁난사	-12334
▁협연	-12335
▁모였	-12336
▁고취	-12337
▁메드	-12338
▁코믹	-12339
ro	-12340
▁빼돌	-12341
▁해리	-12342
▁도봉	-12343
▁튀어나	-12344
▁발음	-12345
▁라벨	-12346
▁수탁	-12347
▁171	-12348
▁전자책	-12349
▁480	-12350
▁배아줄기세포	-12351
▁산책로	-12352
▁석유공사	-12353
▁1982	-12354
▁브렉	-12355
▁성화	-12356
▁앞당기	-12357
▁감량	-12358
▁몰린	-12359
▁htt	-12360
▁분기점	-12361
▁새삼	-12362
▁이길	-12363
▁심장병	-12364
▁객석	-12365
▁다닐	-12366
▁평안	-12367
사전	-12368
▁섞인	-12369
▁요가	-12370
▁기형	-12371
▁생전	-12372
▁유례	-12373
▁해치백	-12374
▁일곱	-12375
▁정찰	-12376
▁돌이	-12377
ay	-12378
릿지	-12379
▁표절	-12380
▁깨끗이	-12381
▁문책	-12382
▁6500	-12383
▁포르투갈	-12384
▁육지	-12385
▁동명	-12386
▁교황청	-12387
▁CPU	-12388
▁담당관	-12389
▁저리	-12390
▁좁히	-12391
▁구실	-12392
▁이점	-12393
▁가져왔	-12394
▁심도	-12395
▁가옥	-12396
▁파열	-12397
▁손학규	-12398
▁스트레	-12399
▁제작자	-12400
▁거창	-12401
▁커져	-12402
▁소울	-12403
▁생겨나	-12404
▁팝업	-12405
▁악마	-12406
포터	-12407
▁최대치	-12408
▁수순	-12409
▁컴투스	-12410
▁수칙	-12411
▁입장권	-12412
▁연회	-12413
▁얀	-12414
돋움	-12415
기술센터	-12416
▁정경	-12417
▁발돋움	-12418
▁우즈베	-12419
▁양천구	-12420
▁농업기술센터	-12421
▁UBS	-12422
▁보궐	-12423
▁예견	-12424
▁성장기	-12425
▁해태	-12426
▁묶여	-12427
▁사소	-12428
▁두드러지	-12429
▁인대	-12430
mu	-12431
오드	-12432
▁수유	-12433
▁MINI	-12434
▁프로그래	-12435
▁직거래	-12436
▁랜드마크	-12437
▁출고가	-12438
▁엣지	-12439
▁애도	-12440
▁화물차	-12441
▁전시실	-12442
▁고농	-12443
▁뽑혔	-12444
메이	-12445
▁우리은행	-12446
▁범죄자	-12447
▁공언	-12448
▁허벅	-12449
카쿠	-12450
▁사우	-12451
▁삼국지	-12452
▁돼온	-12453
▁성기	-12454
▁삼성생명	-12455
▁적재	-12456
▁대법원장	-12457
▁오지	-12458
▁영원히	-12459
▁진다고	-12460
료품	-12461
▁강대	-12462
▁반출	-12463
▁중앙선	-12464
▁빌라	-12465
▁153	-12466
푸드	-12467
▁대표자	-12468
▁반론	-12469
▁붙인	-12470
영장	-12471
▁FDA	-12472
▁당근	-12473
노버	-12474
▁십시오	-12475
▁어느새	-12476
▁감찰	-12477
▁억압	-12478
▁텍스트	-12479
▁길러	-12480
▁미네랄	-12481
▁휴먼	-12482
▁과격	-12483
▁넷째	-12484
▁대나무	-12485
공서	-12486
▁워드	-12487
▁이바지	-12488
▁설계사	-12489
▁신경전	-12490
▁변국	-12491
▁불임	-12492
▁중서부	-12493
▁구토	-12494
▁지폐	-12495
▁플러그인	-12496
퓨터	-12497
▁적설량	-12498
▁골수	-12499
▁바울	-12500
▁우승자	-12501
HD	-12502
▁블랙박스	-12503
▁편향	-12504
▁이규	-12505
▁저질렀	-12506
▁냉정	-12507
▁놈	-12508
브리	-12509
▁왕세	-12510
▁서스펜	-12511
▁프론	-12512
▁킨텍스	-12513
▁양방향	-12514
▁동아제약	-12515
▁어류	-12516
▁가져온	-12517
▁명상	-12518
▁화사	-12519
▁부츠	-12520
▁솔직히	-12521
▁콤플렉스	-12522
▁로그	-12523
▁시료	-12524
▁친선	-12525
아트	-12526
▁휴양지	-12527
RM	-12528
▁부안	-12529
▁들러	-12530
▁자이툰	-12531
▁수컷	-12532
▁수의	-12533
▁나타낸	-12534
▁화성시	-12535
▁과언	-12536
▁충칭	-12537
▁이즈	-12538
▁항산	-12539
▁154	-12540
▁쓰촨성	-12541
▁망설	-12542
▁아리	-12543
사이클	-12544
▁끌어내	-12545
▁연세	-12546
▁프라자	-12547
▁이헌	-12548
▁워너	-12549
▁맞벌이	-12550
▁부산대	-12551
▁290	-12552
▁1983	-12553
▁소량	-12554
▁산화	-12555
▁쉬워	-12556
▁언니	-12557
▁활주	-12558
▁미관	-12559
▁수표	-12560
▁대리인	-12561
▁부문장	-12562
▁생소	-12563
▁태평	-12564
▁아테네	-12565
▁현행법	-12566
▁쿠키	-12567
▁변비	-12568
슐린	-12569
토지	-12570
이나	-12571
▁즐겼	-12572
비치	-12573
▁엉뚱	-12574
▁발전기	-12575
▁센카쿠	-12576
▁라틴	-12577
▁모차	-12578
▁수십억	-12579
▁미처	-12580
▁정모	-12581
▁나카	-12582
▁남중국해	-12583
▁그건	-12584
▁성찰	-12585
▁http	-12586
▁보태	-12587
▁주된	-12588
▁코코	-12589
▁엎	-12590
▁샴푸	-12591
▁끌어들이	-12592
축제	-12593
▁인슐린	-12594
▁발현	-12595
▁신천	-12596
▁가르침	-12597
컴퓨터	-12598
▁직급	-12599
▁우크라이나	-12600
▁모욕	-12601
▁클렌	-12602
휴일	-12603
▁병상	-12604
▁이맘	-12605
▁사라질	-12606
▁주립	-12607
▁논산	-12608
▁독소	-12609
▁158	-12610
▁급기야	-12611
▁무라	-12612
▁문단	-12613
▁유착	-12614
▁번호판	-12615
▁걸로	-12616
▁양재동	-12617
▁미지	-12618
▁한게임	-12619
▁헬로	-12620
▁저우	-12621
▁점프	-12622
테스트	-12623
▁전업	-12624
마을	-12625
▁원시	-12626
▁부른	-12627
▁당혹	-12628
무장	-12629
▁시험장	-12630
▁무더운	-12631
▁영천	-12632
▁승강장	-12633
▁자판	-12634
▁조선소	-12635
▁다목	-12636
시대	-12637
▁원어	-12638
▁특산	-12639
▁조용히	-12640
▁쫓겨	-12641
▁서강대	-12642
▁아메리칸	-12643
▁바닷가	-12644
▁가액	-12645
▁챌린	-12646
▁쓰여	-12647
▁제왕	-12648
▁매사	-12649
▁스폰	-12650
▁박경	-12651
▁산수	-12652
▁아인	-12653
▁암컷	-12654
▁빈곤층	-12655
▁신사업	-12656
▁킬로미터	-12657
부진	-12658
▁실증	-12659
▁텐데요	-12660
▁평창동	-12661
▁하한가	-12662
▁퍼레이드	-12663
GA	-12664
▁냉방	-12665
▁정가	-12666
▁느껴진다	-12667
▁결핍	-12668
틀러	-12669
▁포진	-12670
▁공용	-12671
바브	-12672
▁관상	-12673
▁이자이	-12674
시피	-12675
▁들려주	-12676
▁충전기	-12677
▁설날	-12678
▁아이돌	-12679
▁조형물	-12680
▁초코	-12681
▁사회봉사	-12682
르도	-12683
▁미숙	-12684
▁인도주의	-12685
▁비서실	-12686
▁콜롬비아	-12687
벌레	-12688
▁159	-12689
▁경화	-12690
▁중위	-12691
▁흡연자	-12692
▁개년	-12693
▁링컨	-12694
▁타진	-12695
▁저수지	-12696
▁평창군	-12697
스트로	-12698
▁떨어뜨	-12699
▁스트리	-12700
저가	-12701
▁162	-12702
▁차명	-12703
▁블라디미르	-12704
▁고루	-12705
▁박준	-12706
▁승려	-12707
▁풍미	-12708
▁베이시스	-12709
▁튜브	-12710
▁대치동	-12711
▁펴낸	-12712
▁컨버전	-12713
▁도리	-12714
▁처사	-12715
▁깃발	-12716
▁하류	-12717
▁심심	-12718
RC	-12719
▁늘린	-12720
▁부가세	-12721
▁트라	-12722
▁안과	-12723
▁구해	-12724
▁수감자	-12725
▁풍물	-12726
▁무너져	-12727
모니	-12728
▁5500	-12729
▁귀가	-12730
▁시찰	-12731
▁온통	-12732
▁사법부	-12733
▁꽁	-12734
▁여느	-12735
간접	-12736
케이드	-12737
▁풀무원	-12738
▁바티	-12739
▁지극	-12740
환자	-12741
▁봉화	-12742
▁예쁘	-12743
▁대위	-12744
상태	-12745
▁무너진	-12746
▁불복	-12747
▁리치	-12748
▁망원경	-12749
▁마운	-12750
▁차입금	-12751
슬리	-12752
▁발산	-12753
▁v	-12754
▁기념사업	-12755
돌이	-12756
▁해적	-12757
▁노벨상	-12758
▁관리비	-12759
▁참신	-12760
▁고화질	-12761
▁올라왔	-12762
▁전광	-12763
▁GPS	-12764
▁한정판	-12765
▁시당	-12766
▁168	-12767
▁하우	-12768
▁셰프	-12769
▁이동성	-12770
▁추월	-12771
▁스톡옵션	-12772
▁지프	-12773
▁원년	-12774
램프	-12775
▁절단	-12776
▁손꼽히	-12777
▁공휴일	-12778
▁벼락	-12779
▁기공식	-12780
▁대왕	-12781
▁분석가	-12782
▁처우	-12783
▁거주지	-12784
살이	-12785
▁무용단	-12786
▁절대로	-12787
▁판매자	-12788
▁거취	-12789
▁광저우	-12790
▁도산	-12791
▁기습	-12792
택시	-12793
▁역삼동	-12794
▁목장	-12795
▁서스펜션	-12796
▁전기금	-12797
▁증축	-12798
▁고갈	-12799
▁147	-12800
▁적립금	-12801
▁화합물	-12802
▁JC	-12803
▁원한	-12804
▁앙상블	-12805
▁간혹	-12806
▁변질	-12807
▁돌렸	-12808
▁완구	-12809
▁돌발	-12810
▁고아	-12811
▁보온	-12812
▁쓰인다	-12813
▁미인	-12814
▁어도비	-12815
소프트	-12816
▁브릿지	-12817
수로	-12818
▁일삼	-12819
▁둬야	-12820
▁이순신	-12821
▁무색	-12822
▁선회	-12823
▁하버드대	-12824
쟁이	-12825
▁수온	-12826
▁제과	-12827
▁창사	-12828
토지공사	-12829
▁레몬	-12830
▁섭씨	-12831
▁2200	-12832
▁수배	-12833
▁샌드위치	-12834
▁겸비	-12835
▁사체	-12836
▁남매	-12837
▁살렸	-12838
▁혼인	-12839
스톤	-12840
▁발리	-12841
▁사리	-12842
▁리튬	-12843
▁보선	-12844
▁법무법인	-12845
▁CGV	-12846
▁이룬다	-12847
▁요지	-12848
▁자가	-12849
▁홍역	-12850
▁파기	-12851
▁병합	-12852
▁배기가스	-12853
▁중질	-12854
▁크리스토퍼	-12855
▁노점	-12856
▁갖가지	-12857
▁성탄절	-12858
존스	-12859
▁북경	-12860
테르	-12861
▁비스타	-12862
▁갇혀	-12863
▁다녀온	-12864
▁코란도	-12865
▁미간	-12866
▁토공	-12867
▁산업체	-12868
▁인플레	-12869
▁닐	-12870
▁날로	-12871
▁베어	-12872
▁붙잡혔	-12873
▁소고기	-12874
▁임시회	-12875
▁한국토지공사	-12876
▁단결	-12877
결제	-12878
▁관례	-12879
▁고성군	-12880
▁용사	-12881
틀리	-12882
▁스팀	-12883
▁중저가	-12884
▁비씨	-12885
▁섞여	-12886
▁진수	-12887
▁천체	-12888
▁보톡스	-12889
▁활주로	-12890
▁포크	-12891
▁드로버	-12892
▁체납자	-12893
▁도피	-12894
▁방재	-12895
15	-12896
▁나치	-12897
▁모방	-12898
▁철군	-12899
▁노면	-12900
▁1981	-12901
▁노숙인	-12902
▁SP	-12903
▁빗물	-12904
▁허벅지	-12905
▁합친	-12906
▁돌봄	-12907
▁코미디	-12908
▁비법	-12909
▁회가	-12910
버거	-12911
닷컴	-12912
▁기울일	-12913
라지	-12914
▁성희	-12915
▁충청도	-12916
스펀	-12917
▁외산	-12918
▁유니버	-12919
▁이체	-12920
태우	-12921
▁승합	-12922
▁재심	-12923
은색	-12924
▁177	-12925
▁이코	-12926
▁받아들였	-12927
▁일당	-12928
관절	-12929
▁경산	-12930
▁교내	-12931
▁개미	-12932
▁살릴	-12933
▁법률안	-12934
▁모노	-12935
▁살상	-12936
신호	-12937
▁병무	-12938
▁HSBC	-12939
▁심근	-12940
▁잔해	-12941
▁알고리	-12942
▁비방	-12943
▁원자바오	-12944
▁회사원	-12945
▁숨겨	-12946
▁루이스	-12947
▁김남	-12948
▁청도	-12949
사채	-12950
▁블로거	-12951
▁안테	-12952
▁다닌	-12953
▁트레이드	-12954
▁그린스펀	-12955
▁이베이	-12956
▁여행지	-12957
▁심부	-12958
레나	-12959
▁나로호	-12960
▁평형대	-12961
▁ETRI	-12962
▁간병	-12963
▁중세	-12964
▁화순	-12965
▁어촌	-12966
▁OLED	-12967
더드	-12968
▁카레	-12969
▁움직여	-12970
▁팍	-12971
▁페인트	-12972
▁메이플	-12973
▁모은다	-12974
무역	-12975
▁통운	-12976
▁풍기	-12977
▁곁들여	-12978
▁엄청나	-12979
▁달릴	-12980
▁고층	-12981
리시	-12982
상스	-12983
▁딕	-12984
▁강추위	-12985
▁밸런스	-12986
▁문화예술	-12987
▁디지털카메라	-12988
▁합계	-12989
▁지오	-12990
▁시외	-12991
▁1973	-12992
금융	-12993
▁어택	-12994
▁구민	-12995
▁163	-12996
▁국제법	-12997
▁미성년	-12998
▁무섭	-12999
▁바꿔야	-13000
▁차상	-13001
▁국사	-13002
▁밀어붙	-13003
▁스탠더드	-13004
▁송출	-13005
▁이룩	-13006
▁입주민	-13007
▁수혈	-13008
▁태운	-13009
▁인증서	-13010
겨울	-13011
▁비추	-13012
▁아로	-13013
▁AMD	-13014
▁우즈베키스탄	-13015
▁처했	-13016
▁다가온	-13017
▁다우존스	-13018
▁518	-13019
▁수용소	-13020
▁피살	-13021
▁삼성전기	-13022
▁존엄	-13023
▁호조세	-13024
▁장영	-13025
▁질량	-13026
각각	-13027
▁소방관	-13028
▁API	-13029
▁레전	-13030
▁기고	-13031
플러	-13032
베이거스	-13033
▁초고층	-13034
▁군사력	-13035
▁내려지	-13036
ak	-13037
▁모자라	-13038
▁김해시	-13039
▁라스베이거스	-13040
▁청사진	-13041
숭아	-13042
▁붙였	-13043
▁애프	-13044
▁데이트	-13045
▁가했	-13046
▁460	-13047
▁버지니아	-13048
▁유학생	-13049
▁취득세	-13050
▁테헤	-13051
▁애드	-13052
▁발기	-13053
▁눈부	-13054
▁지켜본	-13055
▁프린팅	-13056
▁돌려주	-13057
▁캘리포니아주	-13058
▁알라	-13059
▁국립대	-13060
▁테헤란	-13061
▁서울역	-13062
보증기금	-13063
▁애호가	-13064
▁락할	-13065
▁모차르트	-13066
▁최태	-13067
▁수녀	-13068
▁동종	-13069
▁산맥	-13070
▁우월	-13071
샤오	-13072
▁빼내	-13073
▁해독	-13074
▁내건	-13075
라미	-13076
▁롯데제과	-13077
▁렉스	-13078
▁164	-13079
▁정류장	-13080
손실	-13081
▁지칭	-13082
▁펼쳐졌	-13083
▁노동력	-13084
▁낭독	-13085
▁더군요	-13086
▁와이드	-13087
▁훔쳐	-13088
▁범퍼	-13089
▁선동	-13090
▁의향	-13091
▁풍토	-13092
▁스코틀랜드	-13093
IA	-13094
▁헤드램프	-13095
▁경전철	-13096
▁식구	-13097
▁1978	-13098
▁버금	-13099
임자	-13100
▁유쾌	-13101
▁제사	-13102
▁게시물	-13103
▁벡스코	-13104
▁특기	-13105
▁나간다	-13106
▁파리바	-13107
▁방카	-13108
▁균열	-13109
▁까르	-13110
▁액면	-13111
▁자며	-13112
▁학자금	-13113
▁청소기	-13114
▁변모	-13115
▁광교	-13116
▁살균제	-13117
▁조합장	-13118
mula	-13119
▁컨버전스	-13120
▁계명	-13121
▁패딩	-13122
▁향했	-13123
▁브뤼	-13124
▁일리	-13125
▁밀리미터	-13126
▁세워진	-13127
▁캐스터	-13128
▁들려준다	-13129
ot	-13130
▁구절	-13131
▁2300	-13132
▁수천만	-13133
▁다각화	-13134
▁문법	-13135
▁수목원	-13136
▁허술	-13137
▁다룰	-13138
▁매칭	-13139
▁2700	-13140
▁후발	-13141
▁문양	-13142
▁잡스	-13143
▁사업체	-13144
▁기대치	-13145
▁패소	-13146
▁게임빌	-13147
거진	-13148
▁경영난	-13149
▁멘토링	-13150
▁독보	-13151
▁전화기	-13152
▁침착	-13153
TM	-13154
프라노	-13155
▁SMS	-13156
▁선보인다고	-13157
▁곰팡이	-13158
▁발맞	-13159
▁슬라이드	-13160
▁동풍	-13161
▁매듭	-13162
▁저널리	-13163
▁1945	-13164
▁친분	-13165
▁득점	-13166
▁펜션	-13167
▁돌고래	-13168
▁쎄	-13169
▁전차	-13170
▁지휘관	-13171
▁이호	-13172
▁피파	-13173
▁조중	-13174
오피아	-13175
▁경로당	-13176
▁강물	-13177
▁안테나	-13178
▁레전드	-13179
▁선거인	-13180
▁아트홀	-13181
▁약진	-13182
▁발렌	-13183
브라	-13184
▁모유	-13185
▁편익	-13186
▁에티오피아	-13187
▁김유	-13188
톱박스	-13189
▁formula	-13190
▁막내	-13191
▁수도권	-13192
▁잡화	-13193
▁둥지	-13194
▁왔다	-13195
▁166	-13196
▁부담감	-13197
▁불러일으키	-13198
▁델타	-13199
▁선로	-13200
▁농경지	-13201
▁셋톱박스	-13202
▁멧	-13203
▁직간접	-13204
SE	-13205
년기	-13206
▁옥천	-13207
▁빈민	-13208
▁불렸	-13209
▁중성	-13210
▁어긋나	-13211
▁종말	-13212
▁왜냐	-13213
▁배드	-13214
▁최경	-13215
▁친일	-13216
▁곤두세우	-13217
▁정세균	-13218
▁세무서	-13219
▁담그	-13220
러기	-13221
▁열광	-13222
▁우물	-13223
▁신분증	-13224
▁올라와	-13225
▁157	-13226
▁POS	-13227
▁집니다	-13228
▁유업	-13229
▁신지	-13230
▁자취	-13231
▁진공	-13232
▁바스	-13233
▁플레이스	-13234
막염	-13235
▁뚜껑	-13236
▁1975	-13237
▁강우량	-13238
▁물음	-13239
▁흔하	-13240
▁오비	-13241
▁가령	-13242
▁구워	-13243
▁에쿠스	-13244
▁성대	-13245
바라크	-13246
▁못한다는	-13247
▁버릴	-13248
▁변속	-13249
▁극한	-13250
▁무바라크	-13251
▁주점	-13252
▁단합	-13253
▁바자	-13254
▁추종	-13255
▁청춘	-13256
▁상세히	-13257
▁아랫	-13258
선거	-13259
▁세안	-13260
▁베토	-13261
▁수심	-13262
▁신항	-13263
▁송년	-13264
▁송전	-13265
▁제트	-13266
▁강점기	-13267
▁샤오미	-13268
▁콜레	-13269
▁메타	-13270
▁암시	-13271
탄불	-13272
▁창의력	-13273
▁구세	-13274
자치단체	-13275
▁이스탄불	-13276
▁성수	-13277
▁스트레칭	-13278
▁거침	-13279
▁압둘라	-13280
▁치렀	-13281
▁브레	-13282
▁증원	-13283
▁임야	-13284
▁교통량	-13285
▁경주시	-13286
▁배타	-13287
▁유신	-13288
▁장대	-13289
▁결의문	-13290
▁고질	-13291
▁천문학	-13292
▁전환사채	-13293
▁디테일	-13294
▁상여금	-13295
▁식생활	-13296
▁이대로	-13297
▁살아온	-13298
▁왈	-13299
▁어획	-13300
▁소극장	-13301
▁TC	-13302
▁권하	-13303
▁노래방	-13304
▁굵직	-13305
▁함평	-13306
▁국민회의	-13307
▁오송	-13308
쇼핑	-13309
▁국화	-13310
▁접어든	-13311
▁프라이드	-13312
▁호프	-13313
▁빅토	-13314
▁르네상스	-13315
▁2800	-13316
▁형국	-13317
▁혼수	-13318
▁포커스	-13319
▁만연	-13320
▁182	-13321
▁나우	-13322
프레스	-13323
▁우려감	-13324
▁윙	-13325
▁라우	-13326
▁조선족	-13327
뚜기	-13328
▁프린트	-13329
▁염소	-13330
▁성희롱	-13331
▁비닐하우스	-13332
▁161	-13333
▁요코	-13334
▁일부러	-13335
▁멜라민	-13336
▁선뜻	-13337
▁정수기	-13338
▁수작	-13339
▁초당	-13340
▁회색	-13341
▁com	-13342
▁마티	-13343
코지	-13344
▁인문학	-13345
▁담백	-13346
▁본다면	-13347
김없이	-13348
▁렌탈	-13349
▁드나	-13350
▁빌미	-13351
▁틀림	-13352
▁후계자	-13353
▁발발	-13354
▁농담	-13355
▁승자	-13356
정책	-13357
▁되돌려	-13358
산동	-13359
▁DA	-13360
▁안전망	-13361
▁유머	-13362
▁갈색	-13363
▁총제	-13364
무늬	-13365
▁등산객	-13366
▁피해야	-13367
▁막혀	-13368
BA	-13369
▁디젤차	-13370
▁점퍼	-13371
▁과수	-13372
▁집어	-13373
수도	-13374
▁일식	-13375
RT	-13376
▁숙련	-13377
▁습격	-13378
▁처하	-13379
▁비어	-13380
▁실세	-13381
▁손수	-13382
▁왕조	-13383
▁정명	-13384
융합	-13385
▁알고리즘	-13386
▁불고기	-13387
▁복직	-13388
코인	-13389
▁영등포구	-13390
▁183	-13391
▁공교육	-13392
▁강원랜드	-13393
▁베토벤	-13394
▁청양	-13395
▁두려워	-13396
▁ᆞ기	-13397
▁내신	-13398
▁표지판	-13399
▁배임	-13400
▁MV	-13401
▁수억	-13402
▁아저	-13403
▁판명	-13404
▁이헌재	-13405
▁끝났	-13406
▁태화	-13407
▁갑작스런	-13408
▁례	-13409
▁헌금	-13410
▁항쟁	-13411
▁난관	-13412
▁북적	-13413
▁176	-13414
동생	-13415
▁핸드폰	-13416
돼지	-13417
▁무주	-13418
▁아저씨	-13419
부모	-13420
▁여우	-13421
▁닛케이	-13422
▁수락	-13423
▁원본	-13424
▁법관	-13425
▁경상북도	-13426
▁피카	-13427
▁얼룩	-13428
▁편중	-13429
▁세법	-13430
▁절박	-13431
▁배신	-13432
▁경쾌	-13433
▁으시	-13434
▁민요	-13435
근무	-13436
▁달라진다	-13437
▁힐튼	-13438
▁넥스	-13439
종합	-13440
▁단다	-13441
▁원소	-13442
▁기판	-13443
▁평화상	-13444
▁스윙	-13445
▁소비재	-13446
▁솜씨	-13447
▁할증	-13448
▁세계관	-13449
▁는다면서	-13450
▁다산	-13451
어질	-13452
렁이	-13453
▁현충	-13454
▁메리트	-13455
▁스태	-13456
▁도보	-13457
▁맞이해	-13458
▁김효	-13459
▁중질유	-13460
▁가설	-13461
▁햄버거	-13462
▁도축	-13463
노소	-13464
▁약가	-13465
▁경향신문	-13466
▁181	-13467
▁레오	-13468
▁찬사	-13469
▁의거	-13470
▁장흥	-13471
▁버터	-13472
▁후원자	-13473
▁비트코인	-13474
▁유람	-13475
▁간단히	-13476
▁고추장	-13477
▁체세포	-13478
▁상쇄	-13479
▁타자	-13480
▁택했	-13481
▁플래닛	-13482
▁발광	-13483
▁경영인	-13484
▁생후	-13485
▁MHz	-13486
▁바뀐다	-13487
▁일렉트로	-13488
▁세척	-13489
▁당대	-13490
▁장이	-13491
▁라니	-13492
▁오빠	-13493
▁오자	-13494
▁가만히	-13495
갑니다	-13496
▁돌려받	-13497
▁안산시	-13498
▁생동	-13499
▁수십만	-13500
▁밀수	-13501
폭력	-13502
▁선인	-13503
LL	-13504
▁순손실	-13505
▁비대칭	-13506
▁북태평양	-13507
▁우익	-13508
▁스케일	-13509
▁몰락	-13510
▁소박	-13511
▁나트륨	-13512
▁유닛	-13513
▁급상승	-13514
▁능가	-13515
▁몸살	-13516
▁적금	-13517
▁장려금	-13518
▁힙합	-13519
▁통풍	-13520
▁묻혀	-13521
▁포석	-13522
▁교향곡	-13523
▁밝혀진	-13524
▁찬송	-13525
▁은은	-13526
▁특전	-13527
주의보	-13528
▁귀경	-13529
▁숨겨진	-13530
▁감청	-13531
▁원어민	-13532
▁앞섰	-13533
▁강연회	-13534
▁SSD	-13535
▁스터디	-13536
▁다친	-13537
▁회선	-13538
▁대림산업	-13539
▁급급	-13540
▁법대	-13541
▁발신	-13542
반대	-13543
▁산후	-13544
▁통신업	-13545
▁백서	-13546
CDMA	-13547
▁부주석	-13548
▁스트리밍	-13549
▁간첩	-13550
▁모로	-13551
재해	-13552
▁췌장	-13553
▁마음대로	-13554
▁인먼	-13555
▁가파르	-13556
▁결연	-13557
▁조형	-13558
끄럽	-13559
듀서	-13560
▁덩치	-13561
▁당위	-13562
▁동자	-13563
▁브로드밴드	-13564
log	-13565
▁악수	-13566
▁엔드	-13567
▁고위험	-13568
▁청원군	-13569
▁진척	-13570
▁프로듀서	-13571
커녕	-13572
▁귀한	-13573
▁안방	-13574
▁자금난	-13575
▁학교장	-13576
▁걸러	-13577
▁입당	-13578
▁잡혔	-13579
▁파헤	-13580
▁기다렸	-13581
▁남녀노소	-13582
▁복안	-13583
구동	-13584
몰이	-13585
▁뮤지션	-13586
▁누비	-13587
▁203	-13588
▁놔	-13589
대사	-13590
▁김덕	-13591
▁공급자	-13592
▁뜰	-13593
▁증산	-13594
▁소공동	-13595
▁변한	-13596
▁무언가	-13597
▁핵융합	-13598
▁세례	-13599
▁204	-13600
▁분만	-13601
▁미친다	-13602
▁저탄소	-13603
▁카리	-13604
▁CDMA	-13605
▁의전	-13606
▁직격	-13607
행선	-13608
▁미묘	-13609
▁등극	-13610
▁선율	-13611
▁우파	-13612
▁앨런	-13613
▁농부	-13614
▁사들였	-13615
▁욕설	-13616
▁결항	-13617
▁애프터	-13618
▁프랭	-13619
▁어색	-13620
▁회상	-13621
▁부세	-13622
▁이루어져	-13623
▁유니폼	-13624
▁수족	-13625
▁제설	-13626
▁장마철	-13627
▁즈음	-13628
▁광복절	-13629
▁성범죄	-13630
▁회장단	-13631
▁뉘	-13632
▁보형물	-13633
▁의료인	-13634
▁가뜩	-13635
▁디아블로	-13636
▁안목	-13637
▁대설주의보	-13638
▁무협	-13639
▁재가	-13640
▁잉크	-13641
▁강재섭	-13642
▁국내선	-13643
▁브뤼셀	-13644
▁피했	-13645
▁민병대	-13646
▁하청	-13647
▁안마	-13648
▁존속	-13649
▁누출	-13650
▁콘도	-13651
연맹	-13652
▁야쿠	-13653
▁협주곡	-13654
▁제압	-13655
▁172	-13656
▁마셔	-13657
▁더해져	-13658
▁SE	-13659
▁소유주	-13660
바스	-13661
▁폈	-13662
▁해산물	-13663
▁보성	-13664
▁본보	-13665
▁가뜩이나	-13666
폴리	-13667
▁영아	-13668
▁부정행위	-13669
▁열량	-13670
▁방울	-13671
▁만도	-13672
▁모술	-13673
▁미야	-13674
▁의정서	-13675
▁스폰서	-13676
▁불상	-13677
▁후드	-13678
▁179	-13679
▁유대인	-13680
▁WCDMA	-13681
▁비대위	-13682
▁구직	-13683
▁라디	-13684
▁시화	-13685
▁청바지	-13686
▁속보	-13687
▁한상	-13688
ow	-13689
▁엠파스	-13690
▁민족주의	-13691
▁군포	-13692
▁피임	-13693
▁들어간다고	-13694
▁고강	-13695
▁토의	-13696
▁벽화	-13697
▁첩보	-13698
▁트러블	-13699
▁스테이지	-13700
모습	-13701
사키	-13702
▁담수	-13703
▁내몰	-13704
▁실과	-13705
▁주의자	-13706
▁누나	-13707
DPA	-13708
▁때리	-13709
▁310	-13710
▁겔	-13711
▁내려갔	-13712
▁반포	-13713
▁하강	-13714
▁압구정	-13715
▁해인	-13716
▁u	-13717
브스	-13718
이치로	-13719
▁동강	-13720
▁성토	-13721
▁티맥스	-13722
▁음악가	-13723
▁부가가치세	-13724
▁해왔으며	-13725
▁비티	-13726
▁수고	-13727
▁신안	-13728
▁박해	-13729
냉키	-13730
영향평가	-13731
▁관공서	-13732
▁뒷면	-13733
▁소지자	-13734
▁버냉키	-13735
▁스러웠	-13736
▁페트	-13737
토록	-13738
▁이슬람교	-13739
▁패스트푸드	-13740
▁하소연	-13741
▁중환자	-13742
▁FOMC	-13743
▁로맨틱	-13744
▁판매점	-13745
수아	-13746
▁자급	-13747
▁레일	-13748
▁급하	-13749
▁뛰어든	-13750
ol	-13751
열차	-13752
▁맞출	-13753
▁단층	-13754
▁셔틀	-13755
도록	-13756
▁적격	-13757
▁라이벌	-13758
렌스	-13759
▁유전체	-13760
▁박테리아	-13761
▁헨리	-13762
▁접시	-13763
▁이니	-13764
▁팩스	-13765
▁전입	-13766
▁관저	-13767
▁아흐	-13768
▁전라남도	-13769
▁라오스	-13770
▁고로	-13771
▁환경영향평가	-13772
배상	-13773
▁공평	-13774
▁번갈	-13775
▁시킴	-13776
▁제격	-13777
▁굳건	-13778
▁표류	-13779
▁동두천	-13780
▁분출	-13781
부로	-13782
▁돌아올	-13783
▁경의	-13784
▁청담동	-13785
▁이루어질	-13786
▁상한선	-13787
▁흔들림	-13788
▁박원	-13789
▁HSDPA	-13790
▁시련	-13791
▁167	-13792
▁방광	-13793
▁한국군	-13794
▁세계무역	-13795
▁돌아선	-13796
남동	-13797
라우스	-13798
▁도미	-13799
▁보이스	-13800
▁지식인	-13801
▁두터	-13802
▁앞세운	-13803
▁한국과학	-13804
▁자연재해	-13805
▁공사장	-13806
▁밥상	-13807
▁전할	-13808
▁정우	-13809
▁기지국	-13810
▁유골	-13811
▁알맞	-13812
▁유재	-13813
라면	-13814
▁무성	-13815
▁터뜨렸	-13816
▁하이드	-13817
▁IOC	-13818
▁NY	-13819
▁산다	-13820
▁반값	-13821
▁공석	-13822
▁연금법	-13823
▁가격제	-13824
무라	-13825
▁성공회	-13826
▁국산화	-13827
▁망라	-13828
로움	-13829
▁트로이	-13830
▁수뇌	-13831
▁뜸	-13832
기념물	-13833
▁접견	-13834
▁필하	-13835
▁신중히	-13836
▁혈중	-13837
▁날렵	-13838
▁쓰리	-13839
▁변종	-13840
▁천연기념물	-13841
▁작업장	-13842
▁전라도	-13843
소송	-13844
▁노란색	-13845
▁분담금	-13846
리나	-13847
▁대표작	-13848
디드	-13849
▁대마	-13850
▁정취	-13851
▁장년층	-13852
▁모른다고	-13853
▁전범	-13854
▁배부	-13855
▁넬	-13856
▁NT	-13857
▁병동	-13858
▁연못	-13859
▁남서쪽	-13860
▁직격탄	-13861
코프	-13862
▁통째	-13863
▁요란	-13864
od	-13865
▁콜로	-13866
▁변이	-13867
▁리우	-13868
자위	-13869
▁기획사	-13870
▁쓰일	-13871
▁파주시	-13872
▁나옵니다	-13873
▁169	-13874
▁거래세	-13875
▁코인	-13876
▁편한	-13877
▁만세	-13878
▁천호	-13879
▁새겨진	-13880
다르	-13881
PI	-13882
▁파나	-13883
▁몸값	-13884
▁빙하	-13885
▁전망대	-13886
▁조개	-13887
▁복숭아	-13888
▁동반성	-13889
▁스톤	-13890
▁레미	-13891
▁괄	-13892
▁CU	-13893
▁정수장	-13894
▁평판	-13895
▁노원구	-13896
사항	-13897
구조	-13898
▁은가	-13899
▁라미	-13900
▁웅장	-13901
▁GHz	-13902
▁속한다	-13903
▁남대문	-13904
▁디렉터	-13905
▁항균	-13906
누리	-13907
▁웃돈	-13908
난방	-13909
▁러스	-13910
▁영종	-13911
▁승합차	-13912
노총	-13913
▁다져	-13914
▁서든	-13915
▁시에	-13916
▁핀테크	-13917
▁그러니까	-13918
▁캐스트	-13919
▁일품	-13920
▁체증	-13921
▁차단제	-13922
▁평준	-13923
▁소프라노	-13924
▁동식물	-13925
▁풍자	-13926
▁일생	-13927
▁박병	-13928
▁최신호	-13929
▁일쑤	-13930
▁만지	-13931
▁ERP	-13932
처리	-13933
▁일렉트릭	-13934
▁한옥	-13935
▁캠리	-13936
▁패러디	-13937
▁어필	-13938
▁토리	-13939
▁불식	-13940
▁송영	-13941
▁총서	-13942
▁운전사	-13943
▁메커	-13944
▁들여다	-13945
▁기수	-13946
▁잭슨	-13947
▁신학교	-13948
▁거슬러	-13949
▁컨티넨탈	-13950
애나	-13951
해서	-13952
▁프로토	-13953
▁전산망	-13954
▁급성	-13955
텍처	-13956
▁아키텍처	-13957
▁연장선	-13958
▁펼쳐질	-13959
▁한덕수	-13960
▁희박	-13961
▁소기업	-13962
▁손해배상	-13963
LA	-13964
폐물	-13965
▁성결	-13966
▁부양책	-13967
▁최성	-13968
밸리	-13969
▁미드	-13970
▁공격자	-13971
▁택하	-13972
▁간사장	-13973
▁김혜	-13974
▁엄선	-13975
▁경질	-13976
▁UAE	-13977
▁서늘	-13978
▁필두	-13979
▁구애	-13980
▁첫해	-13981
▁스팅	-13982
▁문턱	-13983
▁치사	-13984
▁정상급	-13985
▁열망	-13986
▁속여	-13987
▁폭등	-13988
▁투약	-13989
▁비자금	-13990
▁카페인	-13991
▁떨어진다는	-13992
청사	-13993
▁명함	-13994
▁천정배	-13995
▁일주	-13996
▁아이파크	-13997
노동	-13998
▁개그맨	-13999
▁1976	-14000
▁탑승객	-14001
▁통합민주당	-14002
▁제철소	-14003
▁쓰러져	-14004
▁그래야	-14005
▁북제주군	-14006
▁ww	-14007
▁뽐내	-14008
▁만족감	-14009
▁조카	-14010
▁벨로	-14011
▁임신부	-14012
▁규범	-14013
▁서천	-14014
▁파라다	-14015
▁한국노총	-14016
▁쇄도	-14017
▁서술	-14018
▁검열	-14019
산업개발	-14020
▁신보	-14021
▁깨지	-14022
▁니코	-14023
▁똑똑	-14024
▁말미	-14025
▁트레이닝	-14026
▁위키	-14027
넘기	-14028
▁교두	-14029
▁신변	-14030
▁처녀	-14031
▁UI	-14032
▁외고	-14033
▁하토	-14034
▁카리스	-14035
▁당도	-14036
▁530	-14037
▁531	-14038
▁결재	-14039
▁2600	-14040
▁엿보	-14041
▁찬물	-14042
▁보인다는	-14043
▁유리창	-14044
▁영위	-14045
▁현존	-14046
▁함부로	-14047
▁연명	-14048
▁메커니즘	-14049
▁RV	-14050
▁비뇨	-14051
▁원치	-14052
극장	-14053
▁각인	-14054
▁예언	-14055
▁예치	-14056
▁영남대	-14057
▁인준	-14058
▁숙명	-14059
▁귀중	-14060
▁뒤쪽	-14061
▁투병	-14062
▁버핏	-14063
▁딘	-14064
그레	-14065
▁베이커	-14066
▁이드	-14067
▁소방방	-14068
▁교보생명	-14069
▁수력	-14070
▁직관	-14071
▁터전	-14072
▁ISO	-14073
▁www	-14074
▁주미	-14075
▁1974	-14076
▁어차	-14077
▁유원지	-14078
▁달라이	-14079
세프	-14080
▁북대	-14081
▁실외	-14082
탱크	-14083
▁은데요	-14084
▁1930	-14085
▁드레	-14086
▁예능	-14087
▁익스프레스	-14088
▁교란	-14089
▁진천	-14090
▁판문	-14091
▁보정	-14092
▁8500	-14093
▁주정	-14094
▁끼워	-14095
▁누렸	-14096
▁옮길	-14097
85	-14098
해튼	-14099
▁BC	-14100
▁머릿	-14101
▁물색	-14102
▁개소식	-14103
기름	-14104
▁상어	-14105
▁바늘	-14106
▁파라다이스	-14107
▁도시바	-14108
▁척결	-14109
▁포탈	-14110
▁반미	-14111
▁쿠션	-14112
▁망막	-14113
▁따라잡	-14114
바키아	-14115
▁월등히	-14116
TI	-14117
푸스	-14118
▁젤리	-14119
▁팰리스	-14120
▁최적화	-14121
▁IE	-14122
▁버드	-14123
▁노폐물	-14124
▁어둡	-14125
▁우량주	-14126
▁곤혹	-14127
▁로크	-14128
▁맨해튼	-14129
계열	-14130
그나	-14131
▁평신	-14132
▁왜냐하면	-14133
▁급락세	-14134
▁상큼	-14135
문화재	-14136
▁헤르	-14137
들리	-14138
▁곶	-14139
▁국빈	-14140
▁군정	-14141
▁유성구	-14142
▁드러날	-14143
▁원점	-14144
▁성적표	-14145
▁여중	-14146
▁보컬	-14147
▁의왕	-14148
▁타사	-14149
▁후반기	-14150
▁봉합	-14151
▁요일	-14152
▁외쳤	-14153
▁조현	-14154
▁엘리자	-14155
▁에디	-14156
스틴	-14157
▁생사	-14158
▁플루토	-14159
▁끼칠	-14160
▁2022	-14161
▁미칼	-14162
▁산유국	-14163
▁스며	-14164
▁울려	-14165
모직	-14166
▁바티칸	-14167
운다	-14168
▁원상	-14169
▁지평	-14170
▁김만	-14171
▁공권력	-14172
el	-14173
ea	-14174
▁교두보	-14175
▁해냈	-14176
▁식료품	-14177
▁탄광	-14178
▁영사	-14179
제표	-14180
▁산물	-14181
▁나르	-14182
▁일사	-14183
▁and	-14184
▁쪼개	-14185
▁유나이	-14186
▁헤럴드	-14187
▁진행자	-14188
▁구내	-14189
▁SOC	-14190
▁멸치	-14191
▁사교육비	-14192
하이머	-14193
▁재무제표	-14194
▁보디	-14195
▁순종	-14196
▁에센스	-14197
▁비화	-14198
▁중앙아시아	-14199
▁제일모직	-14200
▁불문	-14201
▁중개사	-14202
▁파편	-14203
▁돋보인다	-14204
▁선거인단	-14205
▁해답	-14206
▁막연	-14207
▁북동부	-14208
▁리빙	-14209
노스	-14210
호흡	-14211
▁동사무소	-14212
보험공사	-14213
주택공사	-14214
▁루마	-14215
▁AK	-14216
▁사당	-14217
▁짝퉁	-14218
▁국무원	-14219
공항공사	-14220
▁174	-14221
▁리본	-14222
▁하프	-14223
▁내무부	-14224
▁양식장	-14225
▁감산	-14226
▁통학	-14227
▁205	-14228
▁허점	-14229
▁언론계	-14230
▁2100	-14231
▁태안군	-14232
▁개수	-14233
▁볶음	-14234
▁감원	-14235
▁내분	-14236
▁무르시	-14237
저축	-14238
▁자연스레	-14239
▁김영삼	-14240
▁어차피	-14241
▁친정	-14242
▁이철	-14243
▁시베리아	-14244
▁군산시	-14245
ut	-14246
▁낙선	-14247
▁변론	-14248
▁문헌	-14249
▁일손	-14250
▁탁신	-14251
▁과표	-14252
▁차이점	-14253
▁모세	-14254
▁김세	-14255
▁방폐	-14256
▁지옥	-14257
▁소강상태	-14258
id	-14259
▁옥스	-14260
▁쓰인	-14261
▁판권	-14262
▁마냥	-14263
▁열띤	-14264
▁여배우	-14265
▁저온	-14266
▁북한산	-14267
이어	-14268
▁겸임	-14269
▁골퍼	-14270
▁한약재	-14271
▁도로는	-14272
▁빚어졌	-14273
▁박기	-14274
ES	-14275
베이션	-14276
▁KTH	-14277
▁라덴	-14278
▁대형차	-14279
▁두꺼운	-14280
▁시간대	-14281
게이트	-14282
▁가두	-14283
▁173	-14284
▁재청	-14285
▁목걸이	-14286
▁고국	-14287
듭니다	-14288
▁사탕	-14289
▁퍼스	-14290
▁거룩	-14291
▁진급	-14292
▁기일	-14293
▁흩어져	-14294
▁스무	-14295
▁국공립	-14296
▁유나이티	-14297
▁SPC	-14298
▁이한	-14299
▁일화	-14300
▁흡사	-14301
▁WS	-14302
▁덩달	-14303
▁순창	-14304
▁시네마	-14305
렌트	-14306
▁학비	-14307
패스	-14308
TRA	-14309
▁만난다	-14310
명숙	-14311
▁대한주택공사	-14312
▁광동	-14313
▁어기	-14314
랑스	-14315
▁호감	-14316
▁장편	-14317
진로	-14318
65	-14319
▁9900	-14320
젠테이션	-14321
▁지지부진	-14322
▁고압	-14323
▁제비	-14324
실히	-14325
▁지로	-14326
▁아닌데	-14327
▁호두	-14328
▁포격	-14329
▁요하	-14330
▁미쳐	-14331
▁어울림	-14332
▁브로드웨이	-14333
▁자막	-14334
▁차인	-14335
▁이노베이션	-14336
▁토사	-14337
▁왕세자	-14338
라이언트	-14339
킨스	-14340
▁느리	-14341
▁사르코지	-14342
장면	-14343
▁사나	-14344
▁밀렸	-14345
▁산학연	-14346
▁동성애자	-14347
▁김문수	-14348
▁최순	-14349
▁궐	-14350
▁거미	-14351
▁랴오	-14352
▁상수원	-14353
▁템플	-14354
▁온난화	-14355
올랐	-14356
▁꾸민	-14357
▁보안관	-14358
▁박세	-14359
▁사와	-14360
버트	-14361
▁감탄	-14362
▁헌장	-14363
▁힐링	-14364
▁버금가	-14365
12	-14366
▁점막	-14367
▁인회	-14368
▁오프로드	-14369
▁자궁경	-14370
▁추진력	-14371
▁용수	-14372
▁담양	-14373
▁정회	-14374
▁꼬마	-14375
▁피해액	-14376
▁한산	-14377
▁제작비	-14378
미안	-14379
히드	-14380
▁참의원	-14381
▁잠자리	-14382
▁앗	-14383
▁소나타	-14384
▁남학생	-14385
▁현대산업개발	-14386
▁내셔널	-14387
▁광둥성	-14388
▁하토야마	-14389
코르	-14390
▁시국	-14391
▁매립장	-14392
▁폭주	-14393
▁깊숙이	-14394
▁딛	-14395
저축은행	-14396
▁성형수술	-14397
카스	-14398
▁일출	-14399
멘스	-14400
▁동대	-14401
뜨린	-14402
▁추돌	-14403
▁걸프	-14404
▁밸브	-14405
▁나타낼	-14406
줌마	-14407
▁시가지	-14408
▁불분	-14409
▁다졌	-14410
▁큐리	-14411
▁몸집	-14412
▁돼도	-14413
▁비평	-14414
▁찜질	-14415
▁우선주	-14416
▁챌린지	-14417
화학	-14418
▁민국	-14419
▁지극히	-14420
▁인사동	-14421
▁휴양림	-14422
▁꺾이	-14423
▁며느리	-14424
▁레인지	-14425
▁후원회	-14426
킨슨	-14427
일레븐	-14428
▁모터사이클	-14429
▁카운터	-14430
▁방파	-14431
▁브래	-14432
▁우루	-14433
레인지	-14434
▁무너졌	-14435
▁도왔	-14436
ER	-14437
▁다거나	-14438
▁여호	-14439
▁우림	-14440
불리	-14441
▁뿔	-14442
▁불분명	-14443
▁다방	-14444
▁카리스마	-14445
▁광진구	-14446
▁듀오	-14447
▁스테인	-14448
▁주안	-14449
▁국민당	-14450
▁고성능	-14451
▁으라고	-14452
▁미약	-14453
▁속내	-14454
▁메우	-14455
▁미래형	-14456
▁컨버터블	-14457
▁당당히	-14458
가와	-14459
▁평했	-14460
▁고른	-14461
니치	-14462
▁숙원	-14463
▁올라간	-14464
▁네타	-14465
▁낱	-14466
▁아줌마	-14467
▁개구리	-14468
▁강령	-14469
▁SF	-14470
▁멜론	-14471
▁사수	-14472
부패	-14473
▁가산점	-14474
▁당직	-14475
▁고해	-14476
베디드	-14477
▁포르테	-14478
▁세븐일레븐	-14479
▁기강	-14480
▁자궁경부	-14481
▁상근	-14482
▁갖춰져	-14483
▁지방분	-14484
▁넥센	-14485
라이더	-14486
▁민방	-14487
▁반증	-14488
▁밀레니엄	-14489
▁반갑	-14490
▁잖아요	-14491
트로이트	-14492
▁임베디드	-14493
▁서약	-14494
▁맞먹	-14495
▁디트로이트	-14496
▁정부안	-14497
▁831	-14498
▁건지	-14499
▁저절	-14500
▁스커트	-14501
▁티몬	-14502
▁마닐라	-14503
코리아	-14504
▁톈진	-14505
▁칭다오	-14506
▁불로	-14507
▁쑤	-14508
▁시큐어	-14509
▁난치병	-14510
▁레포츠	-14511
▁타이밍	-14512
▁3200	-14513
▁민회	-14514
▁따를	-14515
▁물동	-14516
▁몰라도	-14517
▁트렌디	-14518
▁손바닥	-14519
▁경수로	-14520
▁팔자	-14521
▁어서다	-14522
▁김중	-14523
▁벗겨	-14524
▁원활히	-14525
▁프라이빗	-14526
▁오븐	-14527
▁나아갈	-14528
▁저절로	-14529
▁나타났으며	-14530
▁도로변	-14531
셀로나	-14532
▁초소	-14533
▁어김없이	-14534
▁2025	-14535
▁스쿠	-14536
▁바르셀로나	-14537
▁BSI	-14538
▁넌	-14539
▁궈	-14540
▁서북	-14541
▁주원	-14542
진흥	-14543
▁설립자	-14544
▁소버린	-14545
▁유시민	-14546
▁부정부패	-14547
▁양지	-14548
▁강보합	-14549
▁넘길	-14550
▁내원	-14551
▁이계	-14552
▁교리	-14553
▁장학생	-14554
▁1977	-14555
▁영화배우	-14556
▁빨래	-14557
▁홍익	-14558
▁끌어올렸	-14559
▁절벽	-14560
▁1972	-14561
▁전병	-14562
▁금기	-14563
▁림프	-14564
▁정태	-14565
MCA	-14566
▁예술단	-14567
▁적조	-14568
▁아이언	-14569
▁전두	-14570
▁특권	-14571
▁386	-14572
충제	-14573
▁차액	-14574
▁느껴졌	-14575
▁사방	-14576
어냈	-14577
▁제제	-14578
▁상부	-14579
▁샤프	-14580
노미	-14581
▁심의위	-14582
▁튀니지	-14583
▁축출	-14584
▁440	-14585
▁반란	-14586
상가	-14587
▁해안가	-14588
무지	-14589
▁확연히	-14590
▁벌레	-14591
드기	-14592
▁급매	-14593
▁정할	-14594
▁성우	-14595
▁사사	-14596
▁FA	-14597
▁거행	-14598
▁이어받	-14599
▁전단	-14600
▁어종	-14601
▁무방	-14602
▁급히	-14603
▁중의원	-14604
▁유언	-14605
▁결식	-14606
▁속해	-14607
▁까르푸	-14608
▁아담	-14609
▁칫	-14610
▁토익	-14611
▁콜레라	-14612
▁취수	-14613
▁태워	-14614
▁인척	-14615
▁나뭇	-14616
메디	-14617
▁책임감	-14618
▁바흐	-14619
▁트리플	-14620
▁담회	-14621
▁정운	-14622
▁타미	-14623
▁세입자	-14624
던트	-14625
▁전속	-14626
▁교통수단	-14627
▁미학	-14628
▁양안	-14629
▁판문점	-14630
▁학군	-14631
▁악의	-14632
▁미성년자	-14633
▁노고	-14634
▁정숙	-14635
▁리츠	-14636
▁안상	-14637
▁폭파	-14638
▁LI	-14639
▁에듀	-14640
▁중기청	-14641
▁무소	-14642
칠성	-14643
▁한화그룹	-14644
▁조원대	-14645
▁넥스트	-14646
대간	-14647
함마드	-14648
▁날아가	-14649
▁흘려	-14650
▁계발	-14651
▁단종	-14652
▁매립지	-14653
▁진흥회	-14654
▁사계절	-14655
▁선불	-14656
▁이효	-14657
▁맞섰	-14658
▁선충	-14659
▁백두대간	-14660
▁자구	-14661
▁영국인	-14662
▁필기	-14663
▁배열	-14664
▁계량	-14665
▁경작	-14666
▁유승	-14667
▁자니	-14668
▁차급	-14669
▁입항	-14670
▁2021	-14671
▁출항	-14672
▁부지사	-14673
▁충주시	-14674
▁승마	-14675
▁온화	-14676
▁이적	-14677
▁도수	-14678
▁부유층	-14679
▁셀프	-14680
▁듬	-14681
▁기울였	-14682
▁사들인	-14683
저리	-14684
▁항일	-14685
▁날려	-14686
▁빙판	-14687
▁피츠	-14688
▁수뇌부	-14689
▁불화	-14690
▁벌여왔	-14691
▁이재용	-14692
▁성북구	-14693
라이언스	-14694
▁끌어올릴	-14695
▁소생	-14696
27	-14697
▁요구사항	-14698
영수증	-14699
▁캐슬	-14700
▁수성구	-14701
▁증여세	-14702
▁최정	-14703
▁저지르	-14704
▁KCC	-14705
▁th	-14706
▁고열	-14707
▁습기	-14708
▁레노버	-14709
▁심리학	-14710
▁끝낸	-14711
▁대의	-14712
▁인덱스	-14713
▁놀란	-14714
▁잉글랜드	-14715
▁세인트	-14716
▁NASA	-14717
▁세계무역기구	-14718
▁쥔	-14719
▁두각	-14720
ox	-14721
▁홍보물	-14722
▁하루빨리	-14723
▁현금영수증	-14724
▁순천시	-14725
퍼레이션	-14726
▁정의선	-14727
RS	-14728
▁거동	-14729
▁띄우	-14730
▁검단	-14731
▁밑도	-14732
내기	-14733
▁배석	-14734
▁형광	-14735
아나	-14736
▁추계	-14737
슈타인	-14738
▁FIFA	-14739
▁싸워	-14740
▁수매	-14741
▁펴냈	-14742
다이	-14743
오버	-14744
▁끓여	-14745
▁발맞춰	-14746
▁대청	-14747
천리	-14748
▁세속	-14749
▁부활절	-14750
보험공단	-14751
▁두드러진	-14752
▁쯔	-14753
▁고품격	-14754
▁총영사관	-14755
▁써서	-14756
▁회식	-14757
▁BIS	-14758
▁YMCA	-14759
▁정반대	-14760
▁석학	-14761
▁팬택계열	-14762
▁토탈	-14763
▁전년도	-14764
▁부산은행	-14765
▁흘러나오	-14766
▁건강보험공단	-14767
▁문신	-14768
▁연석	-14769
▁공고히	-14770
▁유람선	-14771
플로	-14772
▁스가	-14773
▁레지	-14774
▁오세훈	-14775
렉트	-14776
▁출발점	-14777
▁사지	-14778
▁범람	-14779
▁파이널	-14780
▁선조	-14781
▁종과	-14782
▁등록증	-14783
▁탈루	-14784
▁파송	-14785
▁윤종	-14786
▁미라	-14787
▁자성	-14788
▁생략	-14789
▁귀추	-14790
▁개최지	-14791
▁로지	-14792
▁쏟아질	-14793
▁여단	-14794
▁예술인	-14795
▁충치	-14796
▁진다며	-14797
▁허니	-14798
▁전해진다	-14799
▁전자파	-14800
▁팥	-14801
필드	-14802
▁서안	-14803
▁원할	-14804
▁총동원	-14805
▁올라간다	-14806
▁자긍	-14807
▁편식	-14808
▁포위	-14809
▁선상	-14810
문고	-14811
전트	-14812
▁중앙당	-14813
▁늑대	-14814
▁슬로바키아	-14815
▁쿠퍼	-14816
▁관현	-14817
▁고는	-14818
▁네타냐	-14819
▁렐	-14820
26	-14821
무니	-14822
▁엔카	-14823
▁챔피언십	-14824
쓰기	-14825
주의자	-14826
▁스마일	-14827
▁시보	-14828
▁발랄	-14829
구치	-14830
▁다뤘	-14831
▁구한	-14832
▁그랑	-14833
▁후쿠다	-14834
17	-14835
▁청중	-14836
▁목마	-14837
▁수기	-14838
▁학관	-14839
서비스	-14840
▁일병	-14841
▁울타리	-14842
▁심할	-14843
▁PA	-14844
▁카디	-14845
▁부식	-14846
▁자위권	-14847
▁충동	-14848
▁너머	-14849
▁봐서	-14850
▁초유	-14851
▁후보자	-14852
▁강경파	-14853
▁잔인	-14854
▁피드	-14855
▁관해서	-14856
대원	-14857
바퀴	-14858
▁수식	-14859
▁떠안	-14860
▁대포	-14861
▁올인	-14862
▁브이	-14863
▁고성장	-14864
▁1967	-14865
▁희소	-14866
▁나날	-14867
▁파르	-14868
▁로프	-14869
▁자긍심	-14870
▁명심	-14871
▁안토	-14872
▁실마리	-14873
도시	-14874
▁성동구	-14875
▁동거	-14876
▁사춘	-14877
▁공급량	-14878
▁범주	-14879
▁이뤄지면	-14880
▁외주	-14881
▁유서	-14882
▁쿠르드족	-14883
▁추징	-14884
▁미셸	-14885
구석	-14886
임금	-14887
▁KS	-14888
▁박희	-14889
▁침구	-14890
▁ᆞ기아	-14891
▁미백	-14892
▁퍼블릭	-14893
▁편차	-14894
▁이맘때	-14895
▁네타냐후	-14896
▁알제리	-14897
▁교신	-14898
▁주거지	-14899
▁물기	-14900
▁비장	-14901
▁you	-14902
▁식감	-14903
▁560	-14904
▁관용	-14905
▁식도	-14906
▁대손	-14907
▁보처	-14908
▁BDA	-14909
▁사무처	-14910
▁스페셜포스	-14911
▁달려가	-14912
연료	-14913
▁전승	-14914
▁백남	-14915
EU	-14916
제강	-14917
▁안전장치	-14918
▁플루토늄	-14919
델라	-14920
▁마드	-14921
▁메시	-14922
▁특산품	-14923
▁접전	-14924
▁무형문화재	-14925
▁만기일	-14926
▁군주	-14927
▁멧돼지	-14928
▁기흥	-14929
▁FBI	-14930
▁전전	-14931
▁워런	-14932
▁신천지	-14933
▁AC	-14934
▁208	-14935
▁밝혀냈	-14936
▁알려준다	-14937
▁KOTRA	-14938
▁약탈	-14939
▁폴더	-14940
▁띤	-14941
▁무제한	-14942
▁FM	-14943
▁도립	-14944
▁루마니아	-14945
▁구부	-14946
▁어장	-14947
▁PK	-14948
▁지주사	-14949
▁수증	-14950
▁커서	-14951
▁ELS	-14952
▁박형	-14953
▁안중	-14954
▁까다롭	-14955
▁뤼	-14956
▁조선인	-14957
▁코르	-14958
▁희석	-14959
추얼	-14960
▁제대혈	-14961
▁예식	-14962
▁우뚝	-14963
▁보탬	-14964
▁슈트	-14965
▁하산	-14966
▁정확도	-14967
▁요격	-14968
▁화살	-14969
델피아	-14970
▁미녀	-14971
24	-14972
▁불능	-14973
▁항문	-14974
▁모나	-14975
28	-14976
▁TP	-14977
▁입히	-14978
▁필라델피아	-14979
ter	-14980
▁김밥	-14981
▁신랑	-14982
▁엄지	-14983
▁메이트	-14984
▁하마	-14985
▁획일	-14986
▁풀릴	-14987
조류	-14988
▁다케시마	-14989
▁콘테스트	-14990
▁이우	-14991
▁이월	-14992
▁아무개	-14993
▁증권가	-14994
▁나물	-14995
▁잠금	-14996
▁하사	-14997
▁고배	-14998
▁밀라노	-14999
▁하이트진로	-15000
▁벽면	-15001
▁손발	-15002
▁기다려야	-15003
▁양면	-15004
▁상경	-15005
▁집결	-15006
리에	-15007
파이어	-15008
▁대면	-15009
▁총판	-15010
수사	-15011
▁첨가물	-15012
확산	-15013
▁요리사	-15014
▁대령	-15015
▁해군기지	-15016
▁동선	-15017
▁주전	-15018
▁KIST	-15019
▁스케줄	-15020
▁클라이언트	-15021
▁관습	-15022
▁비무장	-15023
▁약보합	-15024
▁케이블카	-15025
징계	-15026
▁농기계	-15027
▁제회	-15028
▁소수자	-15029
▁흑백	-15030
금자리	-15031
▁종아리	-15032
▁이동해	-15033
▁보금자리	-15034
▁집무실	-15035
▁옥외	-15036
▁실루	-15037
▁면부	-15038
의학	-15039
▁내린다	-15040
▁초저	-15041
▁IPO	-15042
▁후쿠오카	-15043
▁방산	-15044
▁워크래프트	-15045
▁사치	-15046
▁해일	-15047
납니다	-15048
▁540	-15049
▁다가올	-15050
▁경미	-15051
▁지양	-15052
▁클렌징	-15053
▁우여	-15054
▁입힌	-15055
클리	-15056
모닉	-15057
불교	-15058
▁묵묵	-15059
▁방미	-15060
▁야산	-15061
▁인제군	-15062
▁3300	-15063
▁치약	-15064
▁페인	-15065
▁로워	-15066
▁물놀이	-15067
▁증평	-15068
▁경제력	-15069
▁못한다고	-15070
▁오락실	-15071
▁필하모닉	-15072
▁터진	-15073
▁물리치	-15074
▁한미은행	-15075
▁그제	-15076
▁구슬	-15077
▁조제	-15078
▁날씬	-15079
▁신일	-15080
▁행적	-15081
▁구장	-15082
▁욱	-15083
▁공공시설	-15084
▁밝혀져	-15085
▁무능	-15086
▁불매	-15087
▁월별	-15088
▁인신	-15089
▁요동	-15090
▁세이브	-15091
▁PV	-15092
▁터뜨리	-15093
▁은밀	-15094
▁술집	-15095
▁체납액	-15096
▁배심	-15097
투리	-15098
▁열혈	-15099
▁외계	-15100
▁내재	-15101
▁밝혀내	-15102
▁나인	-15103
▁금주	-15104
▁애써	-15105
▁뒤흔	-15106
▁설화	-15107
▁이오	-15108
▁골반	-15109
▁식기	-15110
▁책무	-15111
▁향서	-15112
▁명기	-15113
▁207	-15114
▁인텔리	-15115
▁고독	-15116
▁지녔	-15117
▁215	-15118
▁1968	-15119
▁시시	-15120
▁배설	-15121
▁지정학	-15122
29	-15123
▁협찬	-15124
▁김양	-15125
▁어시	-15126
▁안타까움	-15127
▁수변	-15128
▁칫솔	-15129
ation	-15130
▁무함마드	-15131
▁사물놀이	-15132
▁모스	-15133
▁DMZ	-15134
▁궁중	-15135
▁남하	-15136
▁본체	-15137
▁물러난	-15138
▁점주	-15139
▁병무청	-15140
▁초여름	-15141
▁스케이트	-15142
▁바보	-15143
▁이뤄지기	-15144
▁핵연료	-15145
▁행하	-15146
▁벌금형	-15147
▁날카로운	-15148
▁격퇴	-15149
▁값싼	-15150
▁줍니다	-15151
▁원론	-15152
▁간절히	-15153
▁동국제강	-15154
▁감격	-15155
▁이문	-15156
▁615	-15157
▁횡성군	-15158
▁카메라폰	-15159
▁All	-15160
▁끼친	-15161
▁무의	-15162
▁오창	-15163
▁어미	-15164
▁김정남	-15165
▁뜻밖	-15166
▁지탱	-15167
▁손잡고	-15168
▁컨트리	-15169
▁국교	-15170
▁엇갈렸	-15171
가정	-15172
▁레시피	-15173
▁경상도	-15174
▁윈드	-15175
▁720	-15176
▁건축가	-15177
바탕	-15178
▁김범	-15179
▁탐사선	-15180
▁롯데칠성	-15181
▁장지	-15182
▁오르내리	-15183
▁1969	-15184
▁포유	-15185
스로이스	-15186
▁증오	-15187
▁콤팩트	-15188
▁실리콘밸리	-15189
구르	-15190
▁낯설	-15191
▁하이라이트	-15192
▁사절단	-15193
▁롤스로이스	-15194
▁와이어	-15195
연시	-15196
▁금정	-15197
▁블레어	-15198
▁경복	-15199
▁부천시	-15200
곡절	-15201
사르	-15202
▁아홉	-15203
▁워커힐	-15204
▁펜스	-15205
▁토너먼트	-15206
▁물동량	-15207
▁옵티	-15208
▁채산성	-15209
▁지멘스	-15210
▁케네	-15211
▁어라	-15212
▁최병	-15213
바바	-15214
▁쁘	-15215
▁거듭날	-15216
▁진드기	-15217
▁판매액	-15218
▁합법화	-15219
▁우여곡절	-15220
▁건넨	-15221
그러들	-15222
▁연말연시	-15223
▁가출	-15224
▁망고	-15225
▁소급	-15226
▁휩싸였	-15227
▁테스터	-15228
▁노블	-15229
▁390	-15230
▁고종	-15231
▁균일	-15232
▁유라	-15233
▁랍	-15234
▁213	-15235
▁위아	-15236
▁룽	-15237
▁기념사	-15238
▁아산시	-15239
▁실루엣	-15240
▁실형	-15241
▁코나	-15242
연금	-15243
▁공자	-15244
▁470	-15245
득이	-15246
▁픽업	-15247
▁아미노	-15248
▁1920	-15249
바르	-15250
▁김미	-15251
▁유니버설	-15252
▁테르	-15253
▁패권	-15254
▁하부	-15255
▁경각	-15256
▁전셋	-15257
▁튀김	-15258
▁헬리	-15259
▁또래	-15260
▁피로감	-15261
▁미들	-15262
▁구조대	-15263
▁거머	-15264
▁선의	-15265
▁천막	-15266
▁쿠팡	-15267
▁나선다고	-15268
▁요새	-15269
▁강철	-15270
▁크레인	-15271
▁륙	-15272
▁간결	-15273
▁파우더	-15274
▁교통카드	-15275
hap	-15276
▁계수	-15277
▁비빔밥	-15278
▁담장	-15279
▁정종	-15280
스턴트	-15281
▁내려앉	-15282
▁의정비	-15283
▁공수	-15284
바브웨	-15285
▁자의	-15286
▁사춘기	-15287
▁하구	-15288
▁실기	-15289
▁3600	-15290
▁실생활	-15291
▁전문대	-15292
▁팩토리	-15293
▁망가	-15294
▁오인	-15295
▁지난번	-15296
플리케이션	-15297
▁장보	-15298
▁짐바브웨	-15299
▁어울려	-15300
▁번복	-15301
▁일명	-15302
▁안내문	-15303
▁마칠	-15304
▁심폐	-15305
▁울음	-15306
▁자동차세	-15307
▁1971	-15308
▁모피	-15309
▁원했	-15310
버렸	-15311
▁금세	-15312
▁세간	-15313
▁남양주시	-15314
카이도	-15315
▁기틀	-15316
▁장신	-15317
▁로비스	-15318
스틱	-15319
▁인스턴트	-15320
21	-15321
▁삼보	-15322
▁어플리케이션	-15323
▁자오	-15324
▁시체	-15325
▁로우	-15326
▁시차	-15327
▁넓혔	-15328
▁위구르	-15329
▁동래	-15330
▁장차	-15331
▁트루	-15332
64	-15333
▁가트	-15334
▁수가	-15335
▁창녕	-15336
▁첼로	-15337
▁근무자	-15338
▁호화	-15339
▁크리스탈	-15340
▁국부	-15341
▁스테이트	-15342
▁연석회의	-15343
▁혜성	-15344
▁던가	-15345
▁문광	-15346
▁급매물	-15347
▁세라믹	-15348
▁천하	-15349
▁랭크	-15350
▁분말	-15351
▁불평	-15352
▁예수교	-15353
▁키움	-15354
▁청라	-15355
▁다윗	-15356
▁용의	-15357
▁난징	-15358
▁활황	-15359
▁단국	-15360
68	-15361
하루	-15362
▁셀링	-15363
▁비뇨기	-15364
▁랴오닝	-15365
▁투스	-15366
▁보합세	-15367
▁산청	-15368
▁무작위	-15369
▁불릴	-15370
▁빅뱅	-15371
▁훈훈	-15372
▁라디에이터	-15373
▁샌디	-15374
계약	-15375
▁다마스	-15376
▁라즈	-15377
▁파타	-15378
▁3800	-15379
▁격투	-15380
▁본청	-15381
▁트라이	-15382
▁국인	-15383
▁blog	-15384
▁관측소	-15385
▁이불	-15386
▁검찰청	-15387
▁채무자	-15388
▁머스	-15389
▁MBA	-15390
▁온스	-15391
▁루머	-15392
▁RS	-15393
▁소파	-15394
▁장모	-15395
▁팽배	-15396
▁지금껏	-15397
링크	-15398
인지	-15399
▁전달식	-15400
▁터무니	-15401
▁손보	-15402
▁잔금	-15403
▁GSM	-15404
aa	-15405
▁합의서	-15406
▁콜라보	-15407
▁명사	-15408
▁현대제철	-15409
킨다	-15410
14	-15411
▁이세	-15412
▁기억력	-15413
▁모낭	-15414
▁성가	-15415
▁신호탄	-15416
▁토론자	-15417
▁영산강	-15418
▁페이퍼	-15419
▁여동생	-15420
▁취해야	-15421
▁특약	-15422
▁참고인	-15423
세요	-15424
▁불러올	-15425
창기	-15426
▁안도	-15427
▁체어	-15428
▁최승	-15429
▁불금	-15430
▁출입문	-15431
▁거시경제	-15432
▁이국	-15433
▁투숙	-15434
▁무디스	-15435
▁지켜볼	-15436
▁껴	-15437
▁토마스	-15438
TP	-15439
▁친지	-15440
NC	-15441
서양	-15442
동맥	-15443
▁단언	-15444
▁진통제	-15445
99	-15446
광장	-15447
▁물류비	-15448
▁서포터	-15449
▁개연	-15450
▁이주민	-15451
▁접착	-15452
▁항공우주국	-15453
ce	-15454
회전	-15455
▁태생	-15456
프스	-15457
▁장만	-15458
▁카를	-15459
▁빨간색	-15460
13	-15461
▁흐려져	-15462
▁다이렉트	-15463
▁의견서	-15464
▁진하	-15465
▁EL	-15466
▁파사	-15467
▁정영	-15468
▁주걱	-15469
▁쓰였	-15470
▁떠돌	-15471
▁간신	-15472
▁결손	-15473
news	-15474
▁사재	-15475
▁흥청	-15476
▁회귀	-15477
▁유교	-15478
▁SH	-15479
▁XP	-15480
▁연습장	-15481
▁편도	-15482
▁이거	-15483
▁크로스오버	-15484
▁생명력	-15485
▁위함	-15486
▁사뭇	-15487
▁파탄	-15488
▁들이받	-15489
▁개진	-15490
▁시니어	-15491
▁그린벨트	-15492
▁유임	-15493
▁와이즈	-15494
▁중심부	-15495
▁으러	-15496
▁증기	-15497
▁캐논	-15498
▁In	-15499
▁연락처	-15500
▁NBC	-15501
▁김선일	-15502
상도	-15503
▁이방	-15504
▁비씨카드	-15505
▁시종	-15506
▁돌아간	-15507
▁유린	-15508
16	-15509
▁현관	-15510
▁프리스타일	-15511
슈랑스	-15512
소자	-15513
▁달한다고	-15514
거렸	-15515
▁제청	-15516
▁했으니	-15517
▁지하철역	-15518
▁참모총장	-15519
▁취량	-15520
im	-15521
휴가	-15522
▁레이트	-15523
▁자가용	-15524
▁상담원	-15525
▁대연	-15526
▁유능	-15527
▁귀신	-15528
▁애매	-15529
▁무심	-15530
▁베풀	-15531
▁이혜	-15532
▁중랑	-15533
▁대일	-15534
▁케네디	-15535
▁자궁경부암	-15536
▁웹툰	-15537
▁치부	-15538
▁가진다	-15539
▁모을	-15540
▁클레	-15541
▁넘나들	-15542
▁면도	-15543
▁수은주	-15544
▁드러난다	-15545
▁다문화	-15546
▁1965	-15547
▁착오	-15548
▁고를	-15549
▁게릴라	-15550
▁방카슈랑스	-15551
▁중외	-15552
▁초석	-15553
▁이재오	-15554
▁하체	-15555
▁약값	-15556
▁버린다	-15557
▁트랙스	-15558
세라티	-15559
▁반장	-15560
▁한가위	-15561
ir	-15562
▁성주	-15563
▁누그	-15564
▁MSN	-15565
▁로보	-15566
▁공부방	-15567
▁나선다는	-15568
▁마세라티	-15569
▁아님	-15570
▁배낭	-15571
▁술자리	-15572
▁든다고	-15573
▁박인	-15574
▁아쿠아	-15575
▁적당히	-15576
▁당파	-15577
▁저술	-15578
▁부검	-15579
▁참패	-15580
▁칼리	-15581
▁자국민	-15582
▁계약직	-15583
▁BG	-15584
▁대우그룹	-15585
23	-15586
▁우표	-15587
▁경각심	-15588
▁예결	-15589
▁요율	-15590
▁살충제	-15591
▁비주얼	-15592
▁센트럴	-15593
▁매거진	-15594
▁보시	-15595
▁소방본부	-15596
ver	-15597
▁산화물	-15598
▁아이러	-15599
▁yon	-15600
▁군비	-15601
▁복통	-15602
▁구급차	-15603
▁출입구	-15604
▁도전장	-15605
▁장항	-15606
▁넘버	-15607
▁서거	-15608
▁St	-15609
▁내포	-15610
▁게끔	-15611
친화	-15612
▁루터	-15613
▁소정	-15614
▁가상현실	-15615
▁달서	-15616
▁급한	-15617
▁현주	-15618
▁CIA	-15619
▁보코	-15620
▁주치	-15621
▁적임자	-15622
▁짱	-15623
▁칙	-15624
전환	-15625
미료	-15626
▁중환자실	-15627
▁단오	-15628
▁루비	-15629
▁행시	-15630
▁견딜	-15631
hapnews	-15632
▁Mbps	-15633
광석	-15634
▁커튼	-15635
43	-15636
▁두려워하	-15637
▁유모차	-15638
▁yonhapnews	-15639
▁앙코르	-15640
▁해수면	-15641
▁설레	-15642
▁660	-15643
▁기원전	-15644
▁235	-15645
▁모하메드	-15646
▁AB	-15647
▁통찰	-15648
▁카탈	-15649
▁비약	-15650
▁권총	-15651
▁재량	-15652
▁파킨슨	-15653
▁몸담	-15654
▁형법	-15655
▁방불	-15656
▁수액	-15657
▁환경친화	-15658
▁프로그래밍	-15659
▁상호저축은행	-15660
▁물러났	-15661
지라	-15662
▁윤석	-15663
▁매스	-15664
▁얽힌	-15665
▁가야금	-15666
▁건너가	-15667
자동	-15668
촌동	-15669
▁글래	-15670
▁980	-15671
96	-15672
주파	-15673
▁파스타	-15674
▁누드	-15675
▁양양군	-15676
▁사시	-15677
대책	-15678
▁일궈	-15679
▁넥타이	-15680
42	-15681
▁군중	-15682
▁2050	-15683
▁아드	-15684
▁간간	-15685
▁심신	-15686
오프	-15687
폭풍	-15688
▁잊혀	-15689
지휘	-15690
▁떠들	-15691
▁커넥	-15692
▁양분	-15693
▁혹독	-15694
▁시제품	-15695
▁작목	-15696
마르	-15697
HC	-15698
▁입니까	-15699
▁본국	-15700
▁워즈	-15701
▁냉면	-15702
▁몰릴	-15703
▁노보	-15704
▁달력	-15705
나갔	-15706
▁치웠	-15707
▁홍준	-15708
▁관리원	-15709
▁신현	-15710
▁신동빈	-15711
▁앤디	-15712
▁장어	-15713
▁주효	-15714
▁이닝	-15715
▁불빛	-15716
▁약초	-15717
▁육수	-15718
▁전라북도	-15719
▁변명	-15720
지배	-15721
▁반가운	-15722
▁투자액	-15723
▁한승	-15724
▁마그네	-15725
▁구매력	-15726
올로	-15727
▁서신	-15728
▁내려와	-15729
▁문진	-15730
▁제강	-15731
▁원한다면	-15732
▁트인	-15733
▁기생충	-15734
▁당첨금	-15735
▁올랐으며	-15736
▁엘리자베스	-15737
츠하이머	-15738
▁대주교	-15739
46	-15740
▁독과	-15741
▁천도	-15742
76	-15743
▁결여	-15744
▁포스코건설	-15745
매기	-15746
▁알츠하이머	-15747
▁KR	-15748
▁KD	-15749
▁현저	-15750
르담	-15751
▁모간	-15752
▁철근	-15753
▁WSJ	-15754
▁구미시	-15755
혈관	-15756
▁였을	-15757
▁거스	-15758
▁군복	-15759
▁김호	-15760
▁졸속	-15761
위생	-15762
▁제주항공	-15763
▁원더	-15764
▁하인	-15765
opy	-15766
테랑	-15767
▁카시	-15768
▁투표소	-15769
▁본능	-15770
▁완제품	-15771
▁전립선암	-15772
▁드린다	-15773
▁AWS	-15774
▁윤영	-15775
▁코프	-15776
▁터졌	-15777
▁기행	-15778
▁시조	-15779
▁남방	-15780
▁넘어갔	-15781
48	-15782
▁젊음	-15783
▁총국	-15784
▁삼척시	-15785
▁신명	-15786
▁메밀	-15787
▁일평균	-15788
타임	-15789
▁현판	-15790
▁한명숙	-15791
▁글라스	-15792
▁뜨거워	-15793
▁반죽	-15794
▁상병	-15795
▁전성기	-15796
▁운전기사	-15797
▁말라리아	-15798
하늘	-15799
72	-15800
▁MA	-15801
▁석권	-15802
▁아케이드	-15803
▁베일	-15804
▁색감	-15805
▁인양	-15806
▁580	-15807
▁다니엘	-15808
▁만델라	-15809
98	-15810
▁둔치	-15811
▁자아내	-15812
▁평택시	-15813
▁뒤편	-15814
▁편집장	-15815
▁근교	-15816
▁민첩	-15817
▁수조	-15818
▁출범식	-15819
▁자락	-15820
▁옮겨졌	-15821
▁피플	-15822
▁거물	-15823
▁위태	-15824
갈이	-15825
▁계기판	-15826
볶이	-15827
▁마린	-15828
▁둥근	-15829
▁사업주	-15830
▁핸드백	-15831
▁NSC	-15832
맞춤	-15833
▁재배치	-15834
▁하람	-15835
▁가려움	-15836
▁빈부	-15837
36	-15838
▁영해	-15839
▁마모	-15840
▁강했	-15841
▁테너	-15842
▁왓슨	-15843
▁초창기	-15844
▁다녀왔	-15845
로워	-15846
▁벽돌	-15847
▁눈빛	-15848
▁모음	-15849
▁오락가락	-15850
꿈치	-15851
차익	-15852
▁구했	-15853
▁높여야	-15854
계관	-15855
▁녹여	-15856
▁복판	-15857
▁일례	-15858
▁PDA	-15859
▁능률	-15860
▁분뇨	-15861
oS	-15862
▁TU	-15863
▁렌트	-15864
▁자드	-15865
▁용돈	-15866
▁양일	-15867
▁명인	-15868
▁셀러	-15869
▁데스	-15870
▁불순	-15871
▁한경	-15872
▁POSCO	-15873
▁택한	-15874
▁문희	-15875
▁공매	-15876
▁음료수	-15877
▁존재감	-15878
▁궁전	-15879
스크린	-15880
▁김철	-15881
▁야쿠르트	-15882
▁산양	-15883
▁선비	-15884
▁과속	-15885
▁이비	-15886
▁편집국장	-15887
▁앞쪽	-15888
▁기꺼	-15889
▁직책	-15890
▁EM	-15891
▁치마	-15892
▁카터	-15893
▁걸까	-15894
▁불면	-15895
▁컨디션	-15896
▁충만	-15897
▁다문화가정	-15898
▁망치	-15899
▁선풍기	-15900
▁룡	-15901
▁챙겼	-15902
▁Copy	-15903
▁아미	-15904
▁교착	-15905
▁더라면	-15906
▁전고	-15907
▁문화방송	-15908
▁등교	-15909
▁고려인	-15910
▁화염	-15911
▁돌려보	-15912
▁누수	-15913
▁잡음	-15914
▁수증기	-15915
▁보였으며	-15916
▁쏠림	-15917
▁크라운	-15918
교수	-15919
▁줄여야	-15920
▁ᆞ기아차	-15921
▁특단	-15922
71	-15923
▁Copyright	-15924
▁글쓰기	-15925
EV	-15926
▁308	-15927
▁캔버스	-15928
▁저력	-15929
▁틀림없	-15930
저지	-15931
계동	-15932
OP	-15933
▁온전	-15934
▁미르	-15935
▁양말	-15936
▁측량	-15937
▁짜증	-15938
▁난감	-15939
▁무수	-15940
▁206	-15941
▁아까	-15942
▁카피	-15943
11	-15944
▁소위원회	-15945
73	-15946
▁공소	-15947
▁유조선	-15948
▁람보	-15949
▁지반	-15950
▁보낸다	-15951
워즈	-15952
▁해양경찰	-15953
▁둔다	-15954
▁영동고속도로	-15955
시티	-15956
▁성패	-15957
▁밀린	-15958
정사실	-15959
▁라그나	-15960
▁기정사실	-15961
▁심했	-15962
▁단추	-15963
▁연천	-15964
▁견과	-15965
리니스트	-15966
▁찾아올	-15967
▁일러스트	-15968
▁바이올리니스트	-15969
93	-15970
▁브러	-15971
▁수혜자	-15972
플로러	-15973
▁주저앉	-15974
▁익스플로러	-15975
▁이데	-15976
▁파수	-15977
▁산적	-15978
▁이른다고	-15979
▁니코틴	-15980
▁GD	-15981
▁양조	-15982
▁원불교	-15983
78	-15984
의회	-15985
▁일회성	-15986
우트	-15987
▁난치성	-15988
▁구진	-15989
st	-15990
▁동정	-15991
▁절도	-15992
▁서유럽	-15993
▁완연	-15994
▁느슨	-15995
▁무주택자	-15996
▁245	-15997
▁수사대	-15998
ur	-15999
▁도넛	-16000
▁도스	-16001
49	-16002
덕이	-16003
▁수화	-16004
▁옮겨져	-16005
▁512	-16006
▁다던	-16007
▁전광판	-16008
▁스냅	-16009
▁이케	-16010
▁브렌트	-16011
▁국민연금	-16012
ad	-16013
어스	-16014
▁채권자	-16015
▁사스	-16016
▁악어	-16017
▁통화료	-16018
러치	-16019
▁고지혈증	-16020
예프	-16021
▁척도	-16022
▁박주	-16023
▁핑계	-16024
▁열연	-16025
▁현미경	-16026
▁의료관광	-16027
▁고노	-16028
▁가속기	-16029
▁전셋값	-16030
▁명백히	-16031
내려	-16032
▁구타	-16033
장자	-16034
▁히말라	-16035
▁화이자	-16036
▁산호	-16037
▁오피	-16038
▁피치	-16039
▁교부세	-16040
▁난무	-16041
▁로체	-16042
▁프레시안	-16043
▁기꺼이	-16044
▁만물	-16045
▁심재	-16046
▁일몰	-16047
▁조중동	-16048
▁실직	-16049
▁경제학자	-16050
▁아슬	-16051
▁고속버스	-16052
▁가속도	-16053
▁연착륙	-16054
97	-16055
▁섬김	-16056
▁부득이	-16057
▁실거	-16058
▁합해	-16059
▁강간	-16060
▁보였으나	-16061
▁카네	-16062
▁김도	-16063
▁간신히	-16064
▁스러울	-16065
▁프레스티지	-16066
▁오카	-16067
▁콩고	-16068
▁상쾌	-16069
▁간행	-16070
▁티스	-16071
47	-16072
▁경포	-16073
▁위약	-16074
▁할애	-16075
▁내려갈	-16076
▁MRI	-16077
▁과금	-16078
▁위기관리	-16079
32	-16080
▁마르크	-16081
▁알레포	-16082
▁세원	-16083
▁410	-16084
숨에	-16085
▁영도	-16086
▁단숨에	-16087
▁수영복	-16088
산면	-16089
▁모태	-16090
▁작정	-16091
▁살아갈	-16092
▁피카소	-16093
▁대장균	-16094
▁이어폰	-16095
▁롤러	-16096
▁독재자	-16097
▁지만은	-16098
▁무고	-16099
92	-16100
▁넥서스	-16101
▁카트라이더	-16102
테스	-16103
▁실로	-16104
▁심당	-16105
▁대장정	-16106
▁블랙홀	-16107
▁맥아	-16108
▁안식	-16109
▁시트로	-16110
▁지명자	-16111
38	-16112
▁한불	-16113
▁KDI	-16114
▁구가	-16115
▁미디	-16116
▁인천항	-16117
래스카	-16118
▁인단	-16119
▁운운	-16120
▁고해상도	-16121
18	-16122
▁엄두	-16123
▁동호인	-16124
▁위드	-16125
▁정말로	-16126
▁콰트로	-16127
▁항공모	-16128
▁지린	-16129
▁증빙	-16130
▁구례	-16131
▁여겼	-16132
▁콕	-16133
▁금성	-16134
▁4800	-16135
▁박현	-16136
▁조인식	-16137
나비	-16138
▁도하	-16139
▁1962	-16140
▁광경	-16141
▁지역주의	-16142
▁조선호텔	-16143
▁선구	-16144
▁공황	-16145
▁사슴	-16146
▁제모	-16147
▁로직스	-16148
▁세습	-16149
▁640	-16150
으면서	-16151
▁질책	-16152
▁BP	-16153
▁난립	-16154
▁그려진	-16155
34	-16156
장구	-16157
▁종파	-16158
▁9500	-16159
▁뜻깊	-16160
▁대행사	-16161
▁랙	-16162
틱스	-16163
▁온열	-16164
▁보건부	-16165
▁히말라야	-16166
▁짜여	-16167
▁구로구	-16168
느님	-16169
▁상무위원	-16170
▁불려	-16171
난성	-16172
▁뉴저지	-16173
▁그대	-16174
▁보인다면서	-16175
코더	-16176
▁위계	-16177
▁오뚜기	-16178
▁넘나드	-16179
레이트	-16180
▁가트너	-16181
▁역행	-16182
▁안치	-16183
▁공산품	-16184
▁흥덕	-16185
▁김연아	-16186
▁유채	-16187
▁자평	-16188
▁밀어붙이	-16189
▁코아	-16190
▁매실	-16191
▁으뜸	-16192
리스모	-16193
▁내려놓	-16194
IM	-16195
▁권사	-16196
▁최시	-16197
▁침례	-16198
▁WCC	-16199
▁기프트	-16200
▁클러치	-16201
▁에세이	-16202
과이	-16203
▁졸음	-16204
▁생리대	-16205
▁인기몰이	-16206
▁하느님	-16207
▁나와야	-16208
▁영변	-16209
▁일터	-16210
▁출점	-16211
▁친밀	-16212
▁EX	-16213
▁구세군	-16214
정식	-16215
▁다진	-16216
▁넘어갈	-16217
리얼	-16218
▁청송	-16219
▁갑작스럽	-16220
▁성황리	-16221
▁가이	-16222
▁관계사	-16223
▁조지아	-16224
▁코리안	-16225
버시	-16226
88	-16227
정리	-16228
▁UC	-16229
▁넘쳐나	-16230
▁에릭슨	-16231
▁동해시	-16232
▁960	-16233
▁소견	-16234
▁포도주	-16235
▁반품	-16236
▁전환점	-16237
▁부종	-16238
▁준이치로	-16239
▁봉지	-16240
▁하자	-16241
▁투리스모	-16242
▁뇌혈관	-16243
▁냄비	-16244
▁아미노산	-16245
▁포구	-16246
▁난제	-16247
▁노부	-16248
▁고단	-16249
▁피폭	-16250
▁흘렸	-16251
박이	-16252
▁의장국	-16253
▁현지인	-16254
▁엇갈린	-16255
▁컬럼	-16256
▁테마주	-16257
▁타이거	-16258
▁폴리스	-16259
▁알렉산더	-16260
▁삼계	-16261
▁수전	-16262
▁징시	-16263
▁유정	-16264
▁절로	-16265
94	-16266
▁강남역	-16267
▁라떼	-16268
▁제원	-16269
사무소	-16270
▁충청남도	-16271
▁탄성	-16272
▁소리바다	-16273
▁슬픈	-16274
홈쇼핑	-16275
box	-16276
▁기저귀	-16277
▁프라이버시	-16278
▁찜통	-16279
▁제방	-16280
▁결속	-16281
동자	-16282
▁백색	-16283
▁부쳐	-16284
▁홀리	-16285
▁동북부	-16286
▁탁구	-16287
▁후륜	-16288
▁십니까	-16289
▁순항	-16290
▁임실	-16291
▁휴면	-16292
▁빌리지	-16293
▁난소	-16294
▁각성	-16295
▁녹조	-16296
천면	-16297
▁프렌즈	-16298
사업본부	-16299
▁세워야	-16300
▁둘레	-16301
▁알린	-16302
▁덧붙여	-16303
▁구치	-16304
▁성심	-16305
▁숨져	-16306
버이	-16307
▁역력	-16308
▁퍼센트	-16309
▁황해	-16310
▁그리드	-16311
▁진흙	-16312
▁토털	-16313
▁마티즈	-16314
콥터	-16315
▁베르나	-16316
▁실탄	-16317
▁화분	-16318
에이티브	-16319
▁문제삼	-16320
▁소재지	-16321
▁광안	-16322
▁사들여	-16323
▁크리스티	-16324
▁크리에이티브	-16325
들여	-16326
▁직분	-16327
▁떡볶이	-16328
▁어린아이	-16329
▁에드워드	-16330
▁강원영	-16331
▁1948	-16332
▁후송	-16333
▁성실히	-16334
▁측정기	-16335
▁전략가	-16336
▁어버이	-16337
▁판매가	-16338
▁여과	-16339
▁센티	-16340
▁kgm	-16341
▁독과점	-16342
▁부적격	-16343
▁재소자	-16344
▁우정사업본부	-16345
▁조선업	-16346
▁중앙지	-16347
▁행정관	-16348
▁시민운동	-16349
▁감금	-16350
▁온전히	-16351
▁복리	-16352
▁응방	-16353
▁중문	-16354
메르	-16355
▁감도	-16356
▁마이니치	-16357
▁수다	-16358
라프	-16359
▁예절	-16360
▁장안	-16361
84	-16362
▁인라인	-16363
▁가비	-16364
▁시애	-16365
est	-16366
▁창업주	-16367
분자	-16368
74	-16369
▁무술	-16370
▁미화	-16371
▁예당	-16372
▁황태	-16373
▁후폭풍	-16374
▁꺼지	-16375
▁방증	-16376
▁기력	-16377
▁편찬	-16378
▁직계	-16379
▁미즈메디	-16380
▁북서부	-16381
▁권했	-16382
▁원망	-16383
▁매달리	-16384
▁경축	-16385
▁변조	-16386
▁USA	-16387
▁박지성	-16388
▁시황	-16389
▁저작권	-16390
▁퉁	-16391
▁끊기	-16392
▁나아지	-16393
▁하이테크	-16394
▁하이패스	-16395
▁관사	-16396
▁빈소	-16397
▁현대홈쇼핑	-16398
▁안간	-16399
▁맞붙	-16400
▁설악	-16401
▁폐광	-16402
▁수리비	-16403
▁장충	-16404
곡리	-16405
▁대통	-16406
▁취직	-16407
33	-16408
정지	-16409
▁집합	-16410
▁안간힘	-16411
▁TG	-16412
▁무거	-16413
▁민물	-16414
▁놓였	-16415
▁부총장	-16416
▁계양	-16417
▁이용해	-16418
aaS	-16419
▁식초	-16420
▁염수	-16421
▁발자국	-16422
▁통신비	-16423
▁이형	-16424
▁일부분	-16425
▁아비	-16426
▁장례식장	-16427
▁신동아	-16428
▁홍준표	-16429
▁HA	-16430
▁오영	-16431
▁세종로	-16432
22	-16433
▁Vo	-16434
▁발진	-16435
▁약효	-16436
▁이선	-16437
▁치하	-16438
▁쇼트	-16439
▁여름휴가	-16440
▁대투	-16441
▁어렸	-16442
▁수강료	-16443
케어	-16444
▁우버	-16445
중앙	-16446
▁근력	-16447
▁수재	-16448
▁클로즈	-16449
▁서대문구	-16450
▁양회	-16451
▁담뱃값	-16452
67	-16453
르기니	-16454
▁열사	-16455
▁소실	-16456
▁토건	-16457
▁식음료	-16458
▁람보르기니	-16459
▁휴무	-16460
▁우동	-16461
▁아랑	-16462
▁레인콤	-16463
▁감리교	-16464
▁과학고	-16465
▁단둥	-16466
▁의성	-16467
▁슈퍼카	-16468
▁음대	-16469
▁차리	-16470
▁았었	-16471
▁부호	-16472
▁더미	-16473
▁여겨졌	-16474
▁적외선	-16475
▁기본급	-16476
▁무공	-16477
▁총대	-16478
일드	-16479
▁발원	-16480
▁라파	-16481
▁납북자	-16482
▁시애틀	-16483
▁훔치	-16484
▁재판매	-16485
▁평지	-16486
▁안기부	-16487
▁255	-16488
▁손잡이	-16489
▁폭동	-16490
▁두터운	-16491
▁다이오드	-16492
▁높인다	-16493
▁베이커리	-16494
▁빈혈	-16495
▁원정대	-16496
▁스타일리시	-16497
클린	-16498
▁경제난	-16499
▁부풀려	-16500
▁가용	-16501
▁금값	-16502
▁여럿	-16503
▁느낀다고	-16504
▁펙	-16505
▁군내	-16506
▁담론	-16507
▁극소	-16508
▁매화	-16509
▁Xbox	-16510
▁견줘	-16511
▁유자	-16512
▁건당	-16513
▁반열	-16514
▁오대	-16515
▁윈스	-16516
▁연꽃	-16517
▁석상	-16518
▁질감	-16519
▁당수	-16520
▁완충	-16521
▁금융업	-16522
▁부피	-16523
▁몸싸움	-16524
▁보단	-16525
▁레버	-16526
▁용병	-16527
▁징용	-16528
륜구동	-16529
▁개업	-16530
▁승용	-16531
▁줄리	-16532
▁아디	-16533
그림	-16534
탄올	-16535
▁리틀	-16536
▁뒤따라	-16537
▁부기	-16538
▁계장	-16539
▁해맞이	-16540
막이	-16541
▁축협	-16542
▁철학자	-16543
▁피아트	-16544
▁파출	-16545
올라	-16546
▁제각각	-16547
제르	-16548
▁낙찰가	-16549
▁유명세	-16550
거름	-16551
▁계파	-16552
▁종속	-16553
▁주사제	-16554
▁정보국	-16555
▁재가동	-16556
▁남제주군	-16557
▁인화	-16558
▁공모주	-16559
▁말끔	-16560
▁배움	-16561
▁산전	-16562
▁간척	-16563
▁콘서트홀	-16564
55	-16565
▁수용자	-16566
캉스	-16567
▁진두	-16568
▁시금	-16569
▁여관	-16570
▁담아내	-16571
▁바캉스	-16572
▁고운	-16573
▁체로	-16574
▁레퍼	-16575
▁아바타	-16576
62	-16577
89	-16578
▁벌어져	-16579
▁BO	-16580
▁Li	-16581
▁체불	-16582
▁조향	-16583
▁켈리	-16584
▁구석구석	-16585
▁보임	-16586
▁향방	-16587
▁으니까요	-16588
▁남경	-16589
인권	-16590
바이러스	-16591
▁강대국	-16592
44	-16593
▁예우	-16594
▁가늘	-16595
▁NLL	-16596
▁블랙베리	-16597
▁맡긴	-16598
▁외벽	-16599
▁서문	-16600
▁신의	-16601
▁2900	-16602
▁터치스크린	-16603
▁별관	-16604
▁역류	-16605
▁위쪽	-16606
▁경정	-16607
▁거들	-16608
▁무진	-16609
▁리티	-16610
▁가을철	-16611
▁메이드	-16612
▁레퍼토리	-16613
▁PH	-16614
학생회	-16615
▁환절기	-16616
▁선지	-16617
▁570	-16618
▁대문	-16619
▁리딩	-16620
▁총학생회	-16621
▁꺼려	-16622
▁초선	-16623
▁송유	-16624
▁비쳐	-16625
▁행해	-16626
▁시마네	-16627
▁내리막	-16628
▁첫선	-16629
▁글리	-16630
타이어	-16631
▁스태프	-16632
▁미역	-16633
▁해이	-16634
▁뭉쳐	-16635
▁가로등	-16636
▁누계	-16637
▁저널리즘	-16638
▁기가	-16639
▁제스	-16640
▁심경	-16641
▁발포	-16642
▁전두환	-16643
미리	-16644
▁중징계	-16645
크림	-16646
▁분향	-16647
▁토막	-16648
▁복도	-16649
▁홉	-16650
▁프로덕	-16651
37	-16652
▁금지법	-16653
소스	-16654
▁원색	-16655
▁성인병	-16656
▁광구	-16657
▁유급	-16658
끄러운	-16659
▁정치국	-16660
▁원예	-16661
▁일석	-16662
▁눈꺼풀	-16663
▁잠자	-16664
▁업로드	-16665
▁으셨	-16666
▁심대	-16667
▁무작정	-16668
▁기록물	-16669
제이	-16670
▁반하	-16671
▁헬리콥터	-16672
▁안양시	-16673
카르타	-16674
▁다빈	-16675
▁법제처	-16676
▁쾌거	-16677
▁교통망	-16678
▁쭉	-16679
▁판화	-16680
um	-16681
▁여성부	-16682
▁체육회	-16683
▁도이치	-16684
▁지원국	-16685
▁680	-16686
▁괴리	-16687
▁씨름	-16688
▁짜릿	-16689
▁라이언	-16690
▁전조	-16691
▁상관없	-16692
▁타스	-16693
▁처치	-16694
▁니아	-16695
▁맡길	-16696
▁판가	-16697
▁부끄럽	-16698
▁학창	-16699
▁플라워	-16700
▁메세	-16701
▁김규	-16702
79	-16703
▁룬	-16704
▁브라더스	-16705
프로	-16706
▁부업	-16707
▁스노우	-16708
▁알티	-16709
▁브릭스	-16710
▁중심가	-16711
▁일절	-16712
▁경성	-16713
▁애쓰	-16714
▁노점상	-16715
▁종묘	-16716
▁서너	-16717
▁여의치	-16718
▁연기자	-16719
▁마블	-16720
을거리	-16721
▁이질	-16722
▁비뇨기과	-16723
▁다시금	-16724
벤처	-16725
▁마셨	-16726
대기	-16727
▁루스	-16728
▁채굴	-16729
▁달아난	-16730
란다	-16731
31	-16732
▁아찔	-16733
찰청	-16734
▁반일	-16735
▁소시지	-16736
▁남발	-16737
▁계산서	-16738
▁원성	-16739
▁방범	-16740
▁안병	-16741
▁EE	-16742
▁과민	-16743
▁꽃샘	-16744
▁교제	-16745
▁들썩	-16746
▁다가서	-16747
▁신호등	-16748
▁기네스	-16749
▁알바	-16750
▁무난히	-16751
▁서커스	-16752
▁벨로스터	-16753
▁알리바바	-16754
82	-16755
NP	-16756
▁막론	-16757
▁미식	-16758
▁조림	-16759
▁부연	-16760
카이	-16761
▁과밀	-16762
▁공기압	-16763
▁집적	-16764
▁킷	-16765
▁PL	-16766
▁헌정	-16767
▁스팟	-16768
▁대학원생	-16769
▁난색	-16770
▁베테랑	-16771
▁주걱턱	-16772
▁공성	-16773
▁수필	-16774
▁물어야	-16775
든가	-16776
▁불거졌	-16777
▁날렸	-16778
▁대검찰청	-16779
▁경복궁	-16780
▁초상화	-16781
▁박명	-16782
▁단맛	-16783
▁절묘	-16784
렐라	-16785
▁압승	-16786
▁토스	-16787
19	-16788
▁종량	-16789
▁나이키	-16790
▁분홍	-16791
타인데이	-16792
▁유키	-16793
▁귀향	-16794
▁게스트	-16795
▁뒤처	-16796
▁리전	-16797
▁몸짓	-16798
▁620	-16799
▁단거리	-16800
▁마티스	-16801
▁무허가	-16802
▁항공모함	-16803
▁합한	-16804
▁응시자	-16805
포드	-16806
▁쿼드	-16807
▁시외버스	-16808
▁승선	-16809
ved	-16810
▁오리엔	-16811
▁졌으나	-16812
▁심포니	-16813
ch	-16814
▁조그만	-16815
▁홍천군	-16816
▁용접	-16817
▁호국	-16818
▁VOD	-16819
▁은평구	-16820
▁버려진	-16821
▁기린	-16822
▁들어온다	-16823
▁악몽	-16824
▁디펜	-16825
▁매달려	-16826
▁움직였	-16827
▁조롱	-16828
▁순증	-16829
cal	-16830
▁체지방	-16831
86	-16832
▁팀원	-16833
▁합하	-16834
▁고등어	-16835
▁컨트롤러	-16836
▁김두	-16837
▁티저	-16838
▁벗어났	-16839
▁전언	-16840
▁하루하루	-16841
게이머	-16842
▁영양분	-16843
인수	-16844
▁프로게이머	-16845
▁끊겼	-16846
▁나리	-16847
▁싱크탱크	-16848
▁사간	-16849
▁입단	-16850
▁다빈치	-16851
▁News	-16852
▁극명	-16853
▁옹기	-16854
▁파고들	-16855
▁전구	-16856
▁평촌	-16857
▁스탠다드	-16858
▁도선	-16859
▁감액	-16860
▁수도원	-16861
▁유사시	-16862
▁굴복	-16863
▁분권	-16864
▁승화	-16865
▁불어나	-16866
처치	-16867
이동	-16868
▁문부	-16869
▁맞물리	-16870
▁포브스	-16871
▁무지개	-16872
▁동인	-16873
▁답안	-16874
▁성회	-16875
▁샌더스	-16876
천년	-16877
▁상대국	-16878
▁MMF	-16879
▁집어넣	-16880
▁줄다리	-16881
▁통틀	-16882
▁하리	-16883
양호	-16884
▁커리	-16885
▁관악구	-16886
▁심평	-16887
▁행정소송	-16888
▁톰슨	-16889
▁출사	-16890
▁밑거름	-16891
63	-16892
87	-16893
▁뼈대	-16894
▁과외	-16895
▁그란	-16896
▁밀어	-16897
▁투자처	-16898
▁EQ	-16899
▁AMG	-16900
▁동작구	-16901
▁왕위	-16902
▁일단락	-16903
▁내심	-16904
▁전류	-16905
▁신고자	-16906
▁코딩	-16907
91	-16908
▁mb	-16909
▁직렬	-16910
레스트	-16911
▁510	-16912
▁땅콩	-16913
▁병기	-16914
▁화단	-16915
▁이동관	-16916
▁송신	-16917
▁규슈	-16918
▁미연	-16919
▁예금보험공사	-16920
태영	-16921
▁넘어지	-16922
▁로울	-16923
▁두바이	-16924
▁식물원	-16925
▁징역형	-16926
▁수건	-16927
커버리	-16928
▁물씬	-16929
▁방조제	-16930
▁꼬박	-16931
▁휴지	-16932
▁다로	-16933
▁손톱	-16934
▁기치	-16935
▁서프	-16936
▁ATM	-16937
▁더한	-16938
▁한판	-16939
▁가곡	-16940
▁특별회계	-16941
▁줄다리기	-16942
저스	-16943
▁마쳐	-16944
▁정형외과	-16945
▁구태	-16946
자이	-16947
▁예배당	-16948
▁금물	-16949
▁란다	-16950
▁서재	-16951
▁숙취	-16952
▁칠곡	-16953
▁경청	-16954
▁불출	-16955
▁930	-16956
▁특판	-16957
▁요셉	-16958
▁어코드	-16959
▁여대생	-16960
▁시급히	-16961
▁제국주의	-16962
▁국소	-16963
▁머릿속	-16964
양행	-16965
▁이라	-16966
▁우편물	-16967
▁지지층	-16968
▁ᆞ일	-16969
▁병영	-16970
▁어딘	-16971
▁어부	-16972
▁새천년	-16973
OL	-16974
▁어우러지	-16975
▁므	-16976
▁크레이	-16977
▁밋	-16978
▁rpm	-16979
파트	-16980
▁잔혹	-16981
▁건데요	-16982
▁순탄	-16983
▁ABS	-16984
▁충실하	-16985
▁달아나	-16986
▁점하	-16987
기술원	-16988
러미	-16989
▁포수	-16990
▁일문	-16991
▁렛	-16992
무사	-16993
▁성체	-16994
▁앨라	-16995
▁정해져	-16996
티어	-16997
▁단조	-16998
로디	-16999
▁석좌	-17000
▁모회사	-17001
▁해프	-17002
▁분교	-17003
▁마스	-17004
▁스택	-17005
▁테스	-17006
▁발병률	-17007
▁재보	-17008
▁신시	-17009
▁고위직	-17010
▁부지런	-17011
▁한국개발	-17012
▁둑	-17013
배마	-17014
▁몸통	-17015
▁되새기	-17016
▁소매업	-17017
▁커진다	-17018
▁3700	-17019
마니	-17020
▁어리석	-17021
네이	-17022
▁클라	-17023
▁그림책	-17024
▁앨라배마	-17025
보스	-17026
▁연구개발	-17027
스토리	-17028
▁사우나	-17029
▁줘서	-17030
▁부딪히	-17031
▁기발	-17032
ae	-17033
▁교묘	-17034
▁거래처	-17035
▁급선	-17036
▁유한양행	-17037
▁진달	-17038
▁협정문	-17039
▁한국과학기술원	-17040
▁영사관	-17041
▁급파	-17042
▁긴박	-17043
▁맞춰져	-17044
39	-17045
▁카로	-17046
▁해프닝	-17047
▁리포	-17048
▁방패	-17049
▁탄수	-17050
▁반세기	-17051
▁어젯	-17052
▁힘찬	-17053
▁레이디	-17054
▁네스	-17055
▁속이	-17056
▁질수록	-17057
▁스마트카드	-17058
나갈	-17059
성이	-17060
▁어젯밤	-17061
▁끝냈	-17062
▁블루칩	-17063
▁김신	-17064
▁오디	-17065
▁만수	-17066
▁히로시마	-17067
▁힘차	-17068
▁태백산	-17069
▁틸러	-17070
▁교섭단체	-17071
캐피	-17072
▁res	-17073
▁우선시	-17074
▁선봉	-17075
▁투사	-17076
▁해협	-17077
클로	-17078
83	-17079
▁산뜻	-17080
▁한마음	-17081
▁바치	-17082
▁헤쳐	-17083
▁문산	-17084
▁퍼부	-17085
▁찾아냈	-17086
▁시추	-17087
▁요통	-17088
▁아래쪽	-17089
41	-17090
▁에너지원	-17091
▁다이나	-17092
▁연승	-17093
델리	-17094
▁자카르타	-17095
▁떨치	-17096
▁이동식	-17097
▁으로선	-17098
▁이달초	-17099
▁사활	-17100
▁은근	-17101
▁박광	-17102
▁소탕	-17103
▁예방법	-17104
▁리오	-17105
▁밝혔으나	-17106
▁카불	-17107
▁내사	-17108
▁눈가	-17109
▁전재	-17110
▁달아났	-17111
▁철분	-17112
▁산둥성	-17113
▁스카우트	-17114
▁세차	-17115
▁국민운동	-17116
▁통한다	-17117
▁복역	-17118
▁권위자	-17119
▁빈티지	-17120
▁저작물	-17121
▁데모	-17122
▁동북아시아	-17123
어티	-17124
▁단련	-17125
▁부풀리	-17126
▁굽히	-17127
▁만능	-17128
▁진입로	-17129
▁한결같이	-17130
▁물놀	-17131
▁미정	-17132
▁순복	-17133
▁펼쳐져	-17134
▁익혀	-17135
▁호스트	-17136
들레	-17137
▁740	-17138
▁주창	-17139
특구	-17140
▁느려	-17141
▁모교	-17142
▁등등	-17143
▁별장	-17144
▁싱싱	-17145
▁모로코	-17146
▁아라비아	-17147
▁자임	-17148
▁증발	-17149
▁고마움	-17150
▁되살리	-17151
▁한풀	-17152
▁한국개발연구원	-17153
▁두드러	-17154
▁행인	-17155
▁잠들	-17156
▁귤	-17157
타나	-17158
▁경상남도	-17159
▁챙길	-17160
▁행각	-17161
가을	-17162
▁여운	-17163
▁포터	-17164
▁NP	-17165
61	-17166
▁두드리	-17167
▁사칭	-17168
▁차로	-17169
▁빅토리아	-17170
뮬러	-17171
▁노년	-17172
▁매너	-17173
▁탄수화물	-17174
▁알자	-17175
▁테두리	-17176
▁죽전	-17177
랑드	-17178
▁임태	-17179
캐피탈	-17180
▁로얄	-17181
▁화훼	-17182
▁낸다는	-17183
▁관망세	-17184
▁둔갑	-17185
둘기	-17186
▁비위	-17187
▁지도력	-17188
▁1963	-17189
▁파란색	-17190
▁시마네현	-17191
▁이뤄지도록	-17192
▁미온	-17193
▁너비	-17194
▁체어맨	-17195
▁일차	-17196
▁테이크	-17197
▁공전	-17198
올로기	-17199
▁로컬	-17200
▁노려	-17201
▁맡겼	-17202
이식	-17203
▁면회	-17204
77	-17205
▁보드게임	-17206
▁약재	-17207
▁노년층	-17208
▁체리	-17209
▁타지	-17210
▁마드리드	-17211
▁능선	-17212
▁정략	-17213
▁이데올로기	-17214
▁토성	-17215
▁이승만	-17216
▁길목	-17217
▁채운	-17218
▁최태원	-17219
북면	-17220
▁커리어	-17221
58	-17222
▁생강	-17223
▁바이오산업	-17224
▁명지	-17225
▁돌진	-17226
▁파노	-17227
▁이직	-17228
▁져서	-17229
▁막힌	-17230
▁칭하	-17231
▁기뻐하	-17232
▁즐비	-17233
▁북유럽	-17234
▁자갈	-17235
▁틈틈	-17236
▁트레이딩	-17237
▁추도	-17238
▁축물	-17239
▁도자	-17240
▁옥시	-17241
리스타	-17242
▁수로	-17243
▁골목길	-17244
▁필연	-17245
▁630	-17246
▁준설	-17247
▁느린	-17248
전선	-17249
▁생겨났	-17250
▁교외	-17251
▁극찬	-17252
▁소각장	-17253
▁매서	-17254
▁보름달	-17255
▁코퍼레이션	-17256
▁내려질	-17257
▁구룡	-17258
▁느껴질	-17259
▁시크릿	-17260
▁축구장	-17261
▁벽지	-17262
▁비디아	-17263
▁포대	-17264
▁수트	-17265
▁못한다면	-17266
▁선후	-17267
▁용암	-17268
▁위폐	-17269
▁판례	-17270
▁PER	-17271
▁삼계탕	-17272
▁갈아타	-17273
▁힌두	-17274
▁강의실	-17275
▁물려받	-17276
▁정대	-17277
니언	-17278
착오	-17279
▁더라고요	-17280
▁NYT	-17281
▁시행착오	-17282
▁요직	-17283
▁준하	-17284
▁활동비	-17285
▁베스	-17286
▁쌓았	-17287
▁삼청	-17288
▁회비	-17289
인물	-17290
▁따스	-17291
▁다기	-17292
▁연패	-17293
▁최진	-17294
▁식자재	-17295
▁겸한	-17296
▁파마	-17297
보호	-17298
▁들인	-17299
▁해부	-17300
▁공예품	-17301
CI	-17302
▁경계선	-17303
▁타임즈	-17304
▁LIG	-17305
▁반향	-17306
▁식재	-17307
▁휠베이스	-17308
▁아지	-17309
▁향응	-17310
덤핑	-17311
▁제곱	-17312
김치	-17313
▁했다	-17314
▁배합	-17315
▁반덤핑	-17316
▁릿	-17317
▁유제품	-17318
▁수사관	-17319
▁국당	-17320
▁점장	-17321
▁스타리그	-17322
▁이주노	-17323
레일리아	-17324
▁명물	-17325
▁차베스	-17326
▁밝기	-17327
▁걸어가	-17328
▁억지로	-17329
▁이루어진다	-17330
▁복식	-17331
▁진달래	-17332
▁개항	-17333
▁중과	-17334
▁490	-17335
▁이봉	-17336
▁오보	-17337
▁바빠	-17338
▁차갑	-17339
▁오크	-17340
▁예비군	-17341
▁영업소	-17342
▁비명	-17343
▁공산주의	-17344
▁굳히	-17345
▁판매고	-17346
▁용액	-17347
▁커스	-17348
▁760	-17349
▁요구르트	-17350
▁호출	-17351
▁중개업자	-17352
효과	-17353
미술	-17354
▁서기관	-17355
▁기념비	-17356
▁성악가	-17357
▁주소지	-17358
▁공상	-17359
▁XC	-17360
▁취합	-17361
▁효용	-17362
▁서산시	-17363
▁시초	-17364
다나	-17365
▁단면	-17366
▁즙	-17367
드레	-17368
▁취업률	-17369
치아	-17370
▁부여받	-17371
▁고학	-17372
▁입성	-17373
▁콘돌	-17374
▁호적	-17375
럭스	-17376
커피	-17377
▁상암동	-17378
▁수부	-17379
▁논현동	-17380
▁하수도	-17381
▁결사	-17382
▁춘향	-17383
▁탄원	-17384
▁화창	-17385
▁김포시	-17386
▁CV	-17387
준호	-17388
▁구운	-17389
▁자초	-17390
▁맞선	-17391
▁3400	-17392
▁구르	-17393
▁괄목	-17394
▁대본	-17395
▁서천군	-17396
▁알아본다	-17397
▁액화	-17398
▁최시중	-17399
▁자폐	-17400
▁자형	-17401
▁품위	-17402
▁학내	-17403
▁눈매	-17404
▁이별	-17405
▁인민일보	-17406
▁수없이	-17407
주부	-17408
▁우측	-17409
▁달인	-17410
▁물들	-17411
▁일진	-17412
▁봉급	-17413
▁경지	-17414
▁매케인	-17415
▁영업력	-17416
▁잠잠	-17417
▁한잔	-17418
▁중식	-17419
▁추수	-17420
▁mbn	-17421
▁리무진	-17422
▁벤틀리	-17423
뉴타운	-17424
▁TEU	-17425
▁수입액	-17426
▁베개	-17427
▁시어터	-17428
▁연작	-17429
▁국무총리실	-17430
▁슬러	-17431
그리	-17432
▁꽁꽁	-17433
▁흘렀	-17434
▁양반	-17435
▁리퍼	-17436
▁으신	-17437
▁열전	-17438
▁렘	-17439
▁PMP	-17440
▁바자회	-17441
자키	-17442
깨비	-17443
▁물러서	-17444
▁나타낸다	-17445
란도	-17446
▁배관	-17447
▁영접	-17448
사드	-17449
▁먹을거리	-17450
지우	-17451
▁생육	-17452
▁스테인리스	-17453
▁광택	-17454
▁귀속	-17455
▁지워	-17456
▁시향	-17457
▁빚어진	-17458
대성	-17459
▁NE	-17460
▁수작업	-17461
▁봄꽃	-17462
▁빅딜	-17463
미사	-17464
▁간다고	-17465
▁카우	-17466
▁마임	-17467
▁히틀러	-17468
▁지킨	-17469
▁인계	-17470
제한	-17471
▁호도	-17472
DC	-17473
▁940	-17474
▁파나마	-17475
▁오정	-17476
▁신년사	-17477
▁높인다는	-17478
▁녹색연합	-17479
▁아랑곳	-17480
▁스카이프	-17481
▁뚱	-17482
▁엠블	-17483
▁변혁	-17484
▁물꼬	-17485
▁조계사	-17486
▁1940	-17487
지부	-17488
▁부대시설	-17489
▁일동	-17490
▁절하	-17491
▁고주파	-17492
▁미니밴	-17493
▁불면증	-17494
▁연연	-17495
▁퍼블리셔	-17496
▁지구대	-17497
▁훈련장	-17498
▁최저임금	-17499
▁해낼	-17500
▁인사이트	-17501
▁빠져들	-17502
▁반달	-17503
매틱스	-17504
▁4200	-17505
▁야구장	-17506
▁가칭	-17507
▁군함	-17508
▁백남준	-17509
▁샘물	-17510
▁페놀	-17511
▁추리	-17512
▁마크롱	-17513
▁제프	-17514
erved	-17515
▁최연	-17516
스피	-17517
▁한데요	-17518
▁성시	-17519
접속	-17520
▁빠짐	-17521
▁타계	-17522
▁275	-17523
▁PEF	-17524
▁오수	-17525
▁특목	-17526
▁근거리	-17527
▁브레인	-17528
▁면책	-17529
▁맞닿	-17530
▁흘러가	-17531
하마	-17532
로라	-17533
도리	-17534
▁풍수	-17535
▁공학부	-17536
더미	-17537
▁점자	-17538
▁발주자	-17539
81	-17540
▁생보	-17541
▁MIT	-17542
▁귀금속	-17543
▁혈전	-17544
▁묵묵히	-17545
네트	-17546
69	-17547
▁KG	-17548
▁대공	-17549
▁음란물	-17550
▁들렸	-17551
▁가단	-17552
▁픽셀	-17553
▁사인회	-17554
▁검장	-17555
▁본드	-17556
동물	-17557
▁운석	-17558
▁알아볼	-17559
▁고금리	-17560
▁쳐다보	-17561
▁수문	-17562
▁형제단	-17563
▁780	-17564
▁비행장	-17565
▁다중접속	-17566
▁근래	-17567
▁저울	-17568
▁김한길	-17569
IE	-17570
▁고건	-17571
▁신용보증기금	-17572
▁진찰	-17573
거지	-17574
▁밀크	-17575
▁공실	-17576
▁분규	-17577
▁굶주	-17578
▁ML	-17579
▁초순	-17580
▁매장량	-17581
▁도면	-17582
▁판도라	-17583
▁텔레매틱스	-17584
▁가져와	-17585
▁양허	-17586
▁하차	-17587
▁송수	-17588
▁파사트	-17589
▁유소	-17590
바구니	-17591
▁안성맞춤	-17592
▁코스모	-17593
▁등대	-17594
▁스릴	-17595
▁KOS	-17596
▁트로피	-17597
조치	-17598
▁호스피스	-17599
▁복강	-17600
▁퇴장	-17601
▁경의선	-17602
▁후속작	-17603
▁투석	-17604
▁right	-17605
▁똥	-17606
▁민병	-17607
▁초원	-17608
데스크	-17609
▁개회식	-17610
▁다각도	-17611
▁화물선	-17612
▁기독교인	-17613
추세	-17614
▁지국	-17615
▁일회용	-17616
▁쌍용건설	-17617
▁천황	-17618
▁혈세	-17619
▁군구	-17620
▁태백시	-17621
▁돌릴	-17622
▁집권당	-17623
▁920	-17624
내장	-17625
떨어진	-17626
▁지치	-17627
▁가창	-17628
▁730	-17629
▁퓨어	-17630
▁그라운드	-17631
▁반주	-17632
▁크레디	-17633
▁콘돌리자	-17634
▁현업	-17635
부리	-17636
▁직항	-17637
▁평균치	-17638
▁몰이	-17639
▁미공	-17640
▁자백	-17641
▁내려야	-17642
▁늘려야	-17643
▁권한다	-17644
▁그랑프리	-17645
em	-17646
▁연무	-17647
un	-17648
▁밝혀야	-17649
▁로션	-17650
▁종주	-17651
▁내뿜	-17652
▁멸망	-17653
▁솔라	-17654
▁직구	-17655
▁더디	-17656
▁친목	-17657
▁알래스카	-17658
▁섬진	-17659
▁고지서	-17660
▁주정차	-17661
▁핸디	-17662
▁연평도	-17663
라기	-17664
▁변할	-17665
▁귀엽	-17666
▁타악	-17667
▁위문	-17668
▁는커녕	-17669
▁체외	-17670
▁요양원	-17671
▁보시라이	-17672
▁더워	-17673
▁INI	-17674
▁정예	-17675
▁팬텀	-17676
취업	-17677
▁출가	-17678
▁사망률	-17679
▁애로	-17680
▁줄거리	-17681
▁퇴적	-17682
▁국가인권	-17683
▁활로	-17684
▁이학	-17685
▁바레인	-17686
▁따위	-17687
▁그립	-17688
▁낭패	-17689
▁우박	-17690
▁데님	-17691
▁스콧	-17692
▁아낌	-17693
▁진피	-17694
▁묵상	-17695
▁법회	-17696
▁약수	-17697
▁산별	-17698
▁석회	-17699
▁베이지	-17700
▁전야	-17701
▁예스	-17702
▁명가	-17703
▁구자	-17704
▁특목고	-17705
▁파킨슨병	-17706
▁김구	-17707
▁수여식	-17708
▁제네릭	-17709
트럭	-17710
▁금식	-17711
▁자아냈	-17712
▁가까스로	-17713
▁구마	-17714
▁무릅	-17715
▁몰아넣	-17716
▁바오로	-17717
흡연	-17718
▁BBK	-17719
▁PSI	-17720
▁실용화	-17721
▁진주시	-17722
다듬	-17723
사랑	-17724
▁버시	-17725
▁욕실	-17726
▁불자	-17727
▁기만	-17728
▁이끌어냈	-17729
▁프레임워크	-17730
▁실망감	-17731
갈비	-17732
▁계상	-17733
▁바트	-17734
▁진원지	-17735
▁만인	-17736
▁정선군	-17737
▁경륜	-17738
▁주대	-17739
날리	-17740
▁작통	-17741
▁빙수	-17742
▁670	-17743
▁얽혀	-17744
▁대축제	-17745
▁딱지	-17746
▁분경	-17747
NK	-17748
▁시음	-17749
▁함유량	-17750
▁화천군	-17751
▁봇물	-17752
▁임원진	-17753
▁무가	-17754
아동	-17755
연수	-17756
▁농수산	-17757
▁졸업식	-17758
▁녹스	-17759
▁종교인	-17760
▁베네딕	-17761
▁토머스	-17762
▁장쑤	-17763
51	-17764
▁4300	-17765
▁스트로	-17766
콰도르	-17767
▁꾸리	-17768
▁라이더	-17769
▁이소	-17770
▁자이언	-17771
▁내기	-17772
▁빈발	-17773
▁동대문구	-17774
▁자석	-17775
▁피디	-17776
▁야후코리아	-17777
▁신협	-17778
▁견인차	-17779
▁지나간	-17780
▁너울	-17781
엔드	-17782
▁이코노미	-17783
▁부사	-17784
▁매사추세	-17785
▁최하	-17786
▁김재철	-17787
▁민원실	-17788
▁에콰도르	-17789
▁등유	-17790
▁피망	-17791
66	-17792
▁다원	-17793
▁오스트레일리아	-17794
공격	-17795
▁민박	-17796
▁일용	-17797
공화	-17798
▁커녕	-17799
▁1964	-17800
▁정상회의	-17801
▁가벼워	-17802
▁명부	-17803
▁모국	-17804
▁무모	-17805
▁스카프	-17806
▁조승	-17807
▁철도청	-17808
▁한계선	-17809
▁모텔	-17810
▁도농	-17811
▁후판	-17812
▁990	-17813
▁일까요	-17814
▁스탠드	-17815
▁태양계	-17816
▁갱년기	-17817
▁소방차	-17818
▁센서스	-17819
▁가시거리	-17820
장고	-17821
▁타파	-17822
▁송민	-17823
민턴	-17824
▁발표문	-17825
▁미끼	-17826
▁언행	-17827
▁자폭	-17828
▁예단	-17829
▁낙엽	-17830
▁현혹	-17831
▁매사추세츠	-17832
▁은평뉴타운	-17833
▁편승	-17834
▁미니스	-17835
▁멋지	-17836
▁진두지휘	-17837
▁디스커버리	-17838
▁송유관	-17839
▁퇴근길	-17840
▁자보	-17841
▁신곡	-17842
▁찌꺼	-17843
▁행정력	-17844
▁자서	-17845
▁반월	-17846
▁병변	-17847
▁333	-17848
▁사병	-17849
▁휠라	-17850
▁거니	-17851
경원	-17852
▁리바	-17853
▁연한	-17854
▁레미콘	-17855
▁아리아	-17856
▁스프레이	-17857
▁논설	-17858
▁놓이	-17859
▁외투	-17860
▁찌꺼기	-17861
▁친서	-17862
▁성행	-17863
▁자판기	-17864
▁이터	-17865
▁국행	-17866
▁리자	-17867
▁별세	-17868
▁은메달	-17869
유업	-17870
▁관동	-17871
▁타고	-17872
▁사촌	-17873
▁견본	-17874
▁오즈	-17875
▁달라붙	-17876
▁무드	-17877
▁일률	-17878
▁냅	-17879
▁귀찮	-17880
▁체포영장	-17881
▁뭄	-17882
지배구조	-17883
▁천혜	-17884
가드	-17885
▁남동쪽	-17886
▁끈질	-17887
▁밀폐	-17888
려서	-17889
▁전과	-17890
▁어드밴	-17891
▁정적	-17892
▁9800	-17893
▁세르게이	-17894
▁조정관	-17895
▁직업훈련	-17896
▁연사	-17897
스트림	-17898
▁들린다	-17899
▁출산율	-17900
▁더한다	-17901
▁등반	-17902
▁815	-17903
▁배드민턴	-17904
▁윤기	-17905
▁상층	-17906
▁와우	-17907
▁사용법	-17908
▁예정일	-17909
▁중론	-17910
▁꽃샘추위	-17911
▁프로토콜	-17912
▁폐허	-17913
▁정용	-17914
▁황영	-17915
▁스몰	-17916
불이	-17917
▁레이어	-17918
▁안상수	-17919
▁영진	-17920
▁구스	-17921
▁내딛	-17922
▁이천	-17923
▁PSP	-17924
▁황폐	-17925
▁WC	-17926
▁정병	-17927
▁내려온	-17928
▁들여오	-17929
▁라이온	-17930
▁만져	-17931
▁상보	-17932
알데	-17933
▁대상지	-17934
▁전소	-17935
▁남양유업	-17936
▁브라운관	-17937
▁AV	-17938
▁산시	-17939
▁위니	-17940
▁FTSE	-17941
기획	-17942
배추	-17943
일답	-17944
▁내국인	-17945
▁일문일답	-17946
▁보상비	-17947
▁할인율	-17948
▁정혜	-17949
▁소매점	-17950
▁리히	-17951
▁틈틈이	-17952
찌개	-17953
▁녀석	-17954
▁콩나물	-17955
▁한샘	-17956
왜란	-17957
▁먹여	-17958
▁배구	-17959
▁올랑드	-17960
▁지뢰	-17961
▁흠집	-17962
▁신진대사	-17963
▁임진왜란	-17964
▁미티	-17965
▁합천	-17966
니퍼	-17967
▁대양	-17968
▁원리금	-17969
십리	-17970
▁참수	-17971
▁1961	-17972
▁중원	-17973
▁무선랜	-17974
▁규약	-17975
▁서핑	-17976
▁장동	-17977
▁발해	-17978
▁광산업	-17979
▁업무상	-17980
▁백일	-17981
셰어링	-17982
▁대덕구	-17983
▁갈치	-17984
▁사본	-17985
▁은상	-17986
▁승부수	-17987
의사협회	-17988
▁장상	-17989
▁전해진	-17990
▁독수리	-17991
▁경비원	-17992
▁레드햇	-17993
▁찜질방	-17994
뿌리	-17995
▁마땅히	-17996
▁인터랙	-17997
▁김태환	-17998
▁고어	-17999
▁모리스	-18000
▁현대사	-18001
▁음악제	-18002
▁압구정동	-18003
▁굴착	-18004
▁적색	-18005
▁정월	-18006
▁페인팅	-18007
▁이근	-18008
히코	-18009
▁휴교	-18010
▁기업지배구조	-18011
▁동승	-18012
▁강북구	-18013
▁단단히	-18014
▁토스카	-18015
▁총서기	-18016
▁스테로이드	-18017
▁붕어	-18018
▁신다	-18019
▁창시	-18020
▁근현	-18021
▁잔존	-18022
제한구역	-18023
▁카셰어링	-18024
▁일어난다	-18025
벌리	-18026
▁조르	-18027
▁부심	-18028
구안	-18029
▁610	-18030
▁대충	-18031
▁개발제한구역	-18032
▁놨다	-18033
▁밀어내	-18034
▁매콤	-18035
▁해병	-18036
▁출연진	-18037
57	-18038
신라	-18039
▁출토	-18040
▁바코드	-18041
▁때론	-18042
▁호위	-18043
▁코끝	-18044
▁청자	-18045
▁지기	-18046
▁명문화	-18047
▁신안군	-18048
▁재경위	-18049
▁티구안	-18050
▁오미	-18051
▁고착	-18052
▁연단	-18053
▁홍석	-18054
맥주	-18055
▁분장	-18056
▁탱고	-18057
▁미납	-18058
▁시켰으며	-18059
▁정박	-18060
▁환하	-18061
▁어느덧	-18062
▁책임질	-18063
56	-18064
▁특설	-18065
▁이프	-18066
▁예찰	-18067
▁철광석	-18068
▁동진	-18069
▁바이저	-18070
▁거버	-18071
▁부대원	-18072
▁테일러	-18073
▁실점	-18074
▁도곡동	-18075
▁경비정	-18076
▁찾아다니	-18077
▁가꿔	-18078
▁211	-18079
▁사회생활	-18080
▁완수	-18081
▁OK	-18082
변이	-18083
▁함수	-18084
▁Km	-18085
▁직제	-18086
▁드로잉	-18087
전화	-18088
▁뚝섬	-18089
▁산성	-18090
▁SL	-18091
▁빌린	-18092
▁돌연변이	-18093
▁유휴	-18094
▁플레	-18095
▁앞날	-18096
▁지름길	-18097
▁대산	-18098
▁조모	-18099
▁액티	-18100
▁보청	-18101
▁소형주	-18102
▁균등	-18103
▁매끈	-18104
▁선입	-18105
▁스캐	-18106
▁엔젤	-18107
▁캔디	-18108
▁1949	-18109
▁박선	-18110
데기	-18111
▁우발	-18112
▁점치	-18113
▁생가	-18114
▁북돋	-18115
▁응대	-18116
▁통용	-18117
▁호텔신라	-18118
▁어드벤처	-18119
▁겸하	-18120
▁겸허	-18121
▁전략산업	-18122
▁결별	-18123
▁호의	-18124
▁금수	-18125
▁스메	-18126
▁인스	-18127
▁은신	-18128
▁불가리아	-18129
▁농공	-18130
▁머지	-18131
▁도미노	-18132
▁벤트	-18133
▁빙그레	-18134
▁피츠버그	-18135
▁관전	-18136
▁고원	-18137
자락	-18138
▁리비	-18139
▁국민대	-18140
▁겸직	-18141
▁방공	-18142
▁PF	-18143
▁요충	-18144
▁상존	-18145
▁살롱	-18146
▁어려우	-18147
▁대물	-18148
▁결석	-18149
▁젓갈	-18150
펙트	-18151
▁문호	-18152
▁잡아먹	-18153
▁교통비	-18154
▁놀라움	-18155
▁물방울	-18156
▁유닉스	-18157
▁애틀	-18158
▁매니아	-18159
▁알렉산드	-18160
▁구요	-18161
▁침실	-18162
▁가정폭력	-18163
▁공금	-18164
▁보여야	-18165
더슨	-18166
▁발짝	-18167
▁온건	-18168
▁토요	-18169
▁흉부	-18170
▁껑	-18171
▁피리	-18172
▁피드백	-18173
▁1966	-18174
▁비지	-18175
▁전임자	-18176
컨드	-18177
▁%.	-18178
▁위변	-18179
▁바비큐	-18180
▁윤상	-18181
▁화기	-18182
59	-18183
차별	-18184
art	-18185
▁아워	-18186
▁붙여진	-18187
▁프로필	-18188
▁노랑	-18189
▁이정표	-18190
▁도시민	-18191
▁야말로	-18192
▁이력서	-18193
▁파출소	-18194
▁프라다	-18195
▁재수	-18196
▁호세	-18197
▁하남시	-18198
▁서머	-18199
▁액자	-18200
▁조끼	-18201
티티	-18202
▁대시	-18203
▁광고비	-18204
▁UF	-18205
▁폐차	-18206
▁초밥	-18207
52	-18208
▁묵인	-18209
▁미끄러지	-18210
▁실추	-18211
▁상파	-18212
▁편파	-18213
▁스프린	-18214
▁난청	-18215
▁연가	-18216
▁콜린	-18217
▁봉착	-18218
▁부국	-18219
▁매연	-18220
▁사조	-18221
▁연해	-18222
에이지	-18223
▁티브	-18224
▁어마	-18225
▁재촉	-18226
▁신사동	-18227
림동	-18228
▁백미	-18229
▁연료비	-18230
알라	-18231
▁차남	-18232
▁콜드	-18233
▁킬러	-18234
▁암흑	-18235
▁철원군	-18236
▁물어	-18237
니커	-18238
▁체크카드	-18239
▁서진	-18240
▁문희상	-18241
▁덕수	-18242
▁진솔	-18243
▁ISS	-18244
▁굴비	-18245
▁포탄	-18246
▁힘쓸	-18247
▁종량제	-18248
라이즈	-18249
▁솔로몬	-18250
▁수업료	-18251
급식	-18252
▁특공	-18253
▁감정평가	-18254
▁공교	-18255
▁백조	-18256
▁뭘까	-18257
▁사라진다	-18258
▁스코리아	-18259
▁재물	-18260
▁간사인	-18261
▁이기주의	-18262
▁세컨드	-18263
대장	-18264
▁노량	-18265
▁천변	-18266
▁부딪혀	-18267
▁입출금	-18268
▁신관	-18269
▁정육	-18270
▁조폐	-18271
▁찬송가	-18272
▁또렷	-18273
▁빗발	-18274
자위대	-18275
TML	-18276
▁제언	-18277
▁현악	-18278
▁재래시장	-18279
▁다스리	-18280
▁인형극	-18281
▁경이	-18282
▁자서전	-18283
▁쓰러지	-18284
▁배고	-18285
▁자작	-18286
▁병장	-18287
▁어려워질	-18288
▁할지라도	-18289
모리	-18290
시계	-18291
▁세출	-18292
▁과학관	-18293
▁쾌청	-18294
질러	-18295
▁육안	-18296
▁진부	-18297
학습	-18298
▁빛깔	-18299
▁에스티	-18300
▁견적	-18301
▁서른	-18302
▁면사무소	-18303
▁무상급식	-18304
쿠버	-18305
▁현대캐피탈	-18306
의료	-18307
▁급제	-18308
▁산골	-18309
▁스케이	-18310
▁rights	-18311
그먼트	-18312
▁두렵	-18313
▁타이베이	-18314
▁중장비	-18315
에어	-18316
▁박쥐	-18317
▁배상금	-18318
▁퇴직자	-18319
▁스킨케어	-18320
▁빅스	-18321
▁달서구	-18322
▁선거전	-18323
▁목욕탕	-18324
잔치	-18325
▁갈증	-18326
▁시무	-18327
▁회당	-18328
▁관람료	-18329
▁잠복기	-18330
▁개보	-18331
▁임차인	-18332
▁프론트	-18333
▁1953	-18334
▁숭실	-18335
▁버디	-18336
▁미모	-18337
▁스텔	-18338
▁오클	-18339
ag	-18340
▁항변	-18341
▁보병	-18342
▁장구	-18343
▁구술	-18344
▁기쁜	-18345
▁서영	-18346
▁기전	-18347
▁체신	-18348
▁풍광	-18349
▁세그먼트	-18350
▁머플러	-18351
▁성품	-18352
▁지율	-18353
▁고체	-18354
▁하워드	-18355
▁남서부	-18356
▁비바람	-18357
▁현정	-18358
▁복고	-18359
▁인민군	-18360
▁감정가	-18361
▁콧물	-18362
▁드나들	-18363
▁지방산	-18364
▁대별	-18365
▁수인	-18366
▁받아들인	-18367
▁두르	-18368
▁불볕	-18369
▁꽃가루	-18370
▁갈릴	-18371
▁호칭	-18372
54	-18373
신사	-18374
▁쇠퇴	-18375
▁재야	-18376
RL	-18377
▁기보	-18378
▁벽산	-18379
▁해왔으나	-18380
▁굴곡	-18381
▁메트	-18382
▁깨달음	-18383
▁낙지	-18384
▁십상	-18385
▁생동감	-18386
미오	-18387
▁염기	-18388
▁바우처	-18389
▁래미안	-18390
경화	-18391
▁예기	-18392
▁로펌	-18393
▁리라는	-18394
▁마산시	-18395
▁뿌린	-18396
▁답니다	-18397
▁reserved	-18398
고속철도	-18399
▁따랐	-18400
▁한센	-18401
▁여주인	-18402
▁안무가	-18403
▁발단	-18404
▁찍힌	-18405
▁경험치	-18406
▁농법	-18407
▁장려상	-18408
▁태화강	-18409
▁큼	-18410
체스터	-18411
▁이너	-18412
▁급식소	-18413
▁대교구	-18414
▁프랑스어	-18415
방군	-18416
▁유스	-18417
▁이부	-18418
▁상하수도	-18419
▁젝	-18420
▁변제	-18421
▁향연	-18422
디움	-18423
▁KC	-18424
▁장재	-18425
▁저격	-18426
▁알프스	-18427
상의	-18428
▁알짜	-18429
▁뉴델리	-18430
▁비키	-18431
▁이소연	-18432
▁신학자	-18433
▁과당	-18434
▁나열	-18435
▁뿌듯	-18436
aeil	-18437
냉장고	-18438
▁오색	-18439
검사	-18440
▁하모니	-18441
QL	-18442
▁TS	-18443
▁시모	-18444
▁232	-18445
▁820	-18446
▁전유	-18447
▁후견	-18448
▁통틀어	-18449
▁띄워	-18450
▁인부	-18451
▁노동청	-18452
▁버무	-18453
▁외지인	-18454
물살	-18455
▁급물살	-18456
▁남동부	-18457
▁뉴딜	-18458
▁상이	-18459
폴리스	-18460
▁핸들링	-18461
▁캉	-18462
코웨이	-18463
▁즉위	-18464
▁다녀오	-18465
▁방위비	-18466
▁담담	-18467
▁혼돈	-18468
▁호스팅	-18469
▁Naeil	-18470
▁즌	-18471
▁명작	-18472
▁초라	-18473
▁독신	-18474
▁통산	-18475
▁파일럿	-18476
더기	-18477
▁골재	-18478
▁할로	-18479
▁영결	-18480
▁틈새시장	-18481
카라	-18482
▁냉각수	-18483
▁에비	-18484
▁각축	-18485
▁압바스	-18486
▁김순	-18487
▁쓰러진	-18488
▁위약금	-18489
▁자라나	-18490
▁약서	-18491
▁바리스타	-18492
ig	-18493
▁NC	-18494
▁숨쉬	-18495
▁ECB	-18496
▁될수록	-18497
▁올바르	-18498
▁지원서	-18499
▁무턱	-18500
▁스리	-18501
▁명예퇴직	-18502
▁웅진코웨이	-18503
야구	-18504
▁껑충	-18505
▁인적	-18506
▁지상군	-18507
▁부화	-18508
▁지망	-18509
▁문정	-18510
▁하의	-18511
▁출연금	-18512
▁피라미	-18513
▁선체	-18514
▁태양열	-18515
▁벌리	-18516
▁강모	-18517
▁법치	-18518
▁HTML	-18519
▁젖소	-18520
▁진격	-18521
▁불러일으켰	-18522
▁바이크	-18523
▁페라	-18524
자니아	-18525
▁허베이	-18526
수소	-18527
▁박은	-18528
▁체하	-18529
▁마리오	-18530
▁컴즈	-18531
▁공범	-18532
▁경리	-18533
▁4400	-18534
▁분업	-18535
▁브랜	-18536
▁보청기	-18537
▁PR	-18538
뜨릴	-18539
▁상속세	-18540
▁벼랑	-18541
▁강습	-18542
▁복원사업	-18543
▁닥친	-18544
▁옴니	-18545
▁김관	-18546
▁수염	-18547
▁보은	-18548
▁품평	-18549
▁흉내	-18550
교동	-18551
▁돌아설	-18552
MI	-18553
짓기	-18554
▁스핀	-18555
목동	-18556
▁특별시	-18557
▁청구서	-18558
▁고의로	-18559
▁뮤추얼	-18560
▁컨테이너선	-18561
▁감시단	-18562
▁쏟아진	-18563
▁HI	-18564
▁경부선	-18565
▁외로움	-18566
▁인민해	-18567
▁시발	-18568
▁접해	-18569
▁구속력	-18570
▁구명	-18571
▁연극제	-18572
▁인민해방군	-18573
ess	-18574
▁내연	-18575
▁언뜻	-18576
▁밸런	-18577
▁엑셀	-18578
▁태반	-18579
▁처방전	-18580
▁라이베리아	-18581
▁다쳐	-18582
▁NCC	-18583
감사	-18584
▁정쟁	-18585
▁전통주	-18586
▁소아암	-18587
▁애틀랜	-18588
▁센텀	-18589
▁커브	-18590
▁실익	-18591
따리	-18592
레마	-18593
▁범용	-18594
▁치켜	-18595
▁헤매	-18596
▁299	-18597
▁그런지	-18598
▁RO	-18599
▁구심	-18600
▁남길	-18601
▁무릅쓰	-18602
▁서경	-18603
▁인분	-18604
행정	-18605
▁씨드	-18606
에너지	-18607
▁그토록	-18608
니카	-18609
▁선천성	-18610
▁비둘기	-18611
▁당겨	-18612
▁울림	-18613
▁식용유	-18614
▁입김	-18615
▁직경	-18616
▁살아왔	-18617
ao	-18618
▁없앤	-18619
▁유흥업소	-18620
▁인방	-18621
▁트윗	-18622
▁보따리	-18623
▁막아	-18624
▁폴라	-18625
송이	-18626
이슬	-18627
▁차주	-18628
▁880	-18629
▁시사회	-18630
▁블라우스	-18631
▁JW	-18632
▁유찰	-18633
▁어울린다	-18634
▁치주	-18635
▁검은색	-18636
▁재취업	-18637
▁공정성	-18638
▁산천	-18639
▁형질	-18640
▁대학가	-18641
▁머지않	-18642
▁소총	-18643
▁어드밴스	-18644
▁유니세프	-18645
▁슐	-18646
▁니켈	-18647
▁미용실	-18648
▁악단	-18649
▁MVP	-18650
▁수계	-18651
▁신봉	-18652
▁안수	-18653
▁매끄럽	-18654
▁산은	-18655
▁정맥류	-18656
▁도이	-18657
▁복음주의	-18658
▁체험학습	-18659
▁넓이	-18660
▁방황	-18661
▁필사	-18662
▁소아과	-18663
▁예뻐	-18664
▁전단지	-18665
마당	-18666
▁학연	-18667
▁구치소	-18668
▁레고	-18669
▁프랑스인	-18670
▁보호관	-18671
▁아레나	-18672
▁마운틴	-18673
▁4600	-18674
▁성비	-18675
▁북동쪽	-18676
▁샴페인	-18677
▁상충	-18678
▁은사	-18679
▁이분	-18680
▁228	-18681
▁허덕이	-18682
▁탕감	-18683
▁관대	-18684
▁드롭	-18685
▁참기름	-18686
▁퇴사	-18687
▁봄비	-18688
▁검문소	-18689
▁대연정	-18690
▁권오규	-18691
▁종위	-18692
▁카트리	-18693
▁대승	-18694
▁중풍	-18695
▁양복	-18696
▁양부	-18697
▁야스쿠니신사	-18698
▁춘추	-18699
▁폐경	-18700
▁으리라	-18701
▁LF	-18702
▁횡포	-18703
▁신학기	-18704
▁재무부	-18705
▁퀄리티	-18706
▁총사	-18707
▁사명감	-18708
▁이식술	-18709
▁kcal	-18710
▁혼동	-18711
▁살펴본	-18712
공화국	-18713
▁분신	-18714
▁직불	-18715
▁분통	-18716
▁숨통	-18717
▁득표율	-18718
▁도비	-18719
불명	-18720
all	-18721
▁출금	-18722
▁일컬	-18723
▁지은이	-18724
덴티티	-18725
▁CBT	-18726
▁아이덴티티	-18727
▁음성군	-18728
뱅크	-18729
▁근해	-18730
▁넨	-18731
▁구수	-18732
▁칩셋	-18733
▁아로마	-18734
▁휴맥스	-18735
▁이머	-18736
▁암석	-18737
▁노바	-18738
▁얼라이언스	-18739
인구	-18740
▁상담소	-18741
▁서아프리카	-18742
니컬	-18743
▁권위주의	-18744
▁하이퍼	-18745
53	-18746
이조	-18747
▁항복	-18748
▁멈췄	-18749
▁김치냉장고	-18750
▁컬럼비아	-18751
▁경동	-18752
자동차	-18753
▁꾸며진다	-18754
▁김무	-18755
▁트랩	-18756
▁특소	-18757
▁입상자	-18758
▁불쾌감	-18759
▁톈안	-18760
▁청량리	-18761
▁받쳐	-18762
▁860	-18763
▁저작권법	-18764
▁조수석	-18765
▁명암	-18766
▁ᆞ고	-18767
음식	-18768
▁자랐	-18769
▁뒤바	-18770
▁리코	-18771
예산	-18772
용지	-18773
▁눈부신	-18774
▁가오	-18775
▁배지	-18776
▁손녀	-18777
▁인터랙티브	-18778
▁임대차	-18779
▁끼쳤	-18780
▁효도	-18781
▁시달렸	-18782
▁섹터	-18783
징마켓	-18784
▁올스타	-18785
▁아마디	-18786
▁게르	-18787
▁김형오	-18788
▁뽑힌	-18789
▁대한상의	-18790
▁절제술	-18791
런치	-18792
▁지린성	-18793
▁상암	-18794
▁문고	-18795
▁출두	-18796
▁VoIP	-18797
▁매트리스	-18798
rive	-18799
▁정현	-18800
▁첫눈	-18801
▁송아지	-18802
폭탄	-18803
▁떠넘기	-18804
▁예선전	-18805
▁이머징마켓	-18806
▁중고생	-18807
▁의중	-18808
▁간간이	-18809
▁잡아가	-18810
▁토착	-18811
▁수입원	-18812
▁착취	-18813
▁여장	-18814
▁숙지	-18815
자료	-18816
혁명	-18817
▁게을	-18818
▁답했	-18819
▁물감	-18820
▁끼얹	-18821
▁번번	-18822
▁해수부	-18823
▁부끄러운	-18824
▁여실히	-18825
▁내줬	-18826
▁원도	-18827
▁장승	-18828
▁승패	-18829
▁유고	-18830
▁일깨워	-18831
▁캐머	-18832
▁광역자치단체	-18833
▁수비대	-18834
▁교보문고	-18835
▁영회	-18836
바라기	-18837
[...]
